{
  "version": "1.0",
  "truncation": null,
  "padding": null,
  "added_tokens": [
    {
      "id": 0,
      "content": "[PAD]",
      "single_word": false,
      "lstrip": false,
      "rstrip": false,
      "normalized": false,
      "special": true
    },
    {
      "id": 100,
      "content": "[UNK]",
      "single_word": false,
      "lstrip": false,
      "rstrip": false,
      "normalized": false,
      "special": true
    },
    {
      "id": 101,
      "content": "[CLS]",
      "single_word": false,
      "lstrip": false,
      "rstrip": false,
      "normalized": false,
      "special": true
    },
    {
      "id": 102,
      "content": "[SEP]",
      "single_word": false,
      "lstrip": false,
      "rstrip": false,
      "normalized": false,
      "special": true
    },
    {
      "id": 103,
      "content": "[MASK]",
      "single_word": false,
      "lstrip": false,
      "rstrip": false,
      "normalized": false,
      "special": true
    }
  ],
  "normalizer": {
    "type": "BertNormalizer",
    "clean_text": true,
    "handle_chinese_chars": true,
    "strip_accents": null,
    "lowercase": false
  },
  "pre_tokenizer": {
    "type": "BertPreTokenizer"
  },
  "post_processor": {
    "type": "TemplateProcessing",
    "single": [
      {
        "SpecialToken": {
          "id": "[CLS]",
          "type_id": 0
        }
      },
      {
        "Sequence": {
          "id": "A",
          "type_id": 0
        }
      },
      {
        "SpecialToken": {
          "id": "[SEP]",
          "type_id": 0
        }
      }
    ],
    "pair": [
      {
        "SpecialToken": {
          "id": "[CLS]",
          "type_id": 0
        }
      },
      {
        "Sequence": {
          "id": "A",
          "type_id": 0
        }
      },
      {
        "SpecialToken": {
          "id": "[SEP]",
          "type_id": 0
        }
      },
      {
        "Sequence": {
          "id": "B",
          "type_id": 1
        }
      },
      {
        "SpecialToken": {
          "id": "[SEP]",
          "type_id": 1
        }
      }
    ],
    "special_tokens": {
      "[CLS]": {
        "id": "[CLS]",
        "ids": [
          101
        ],
        "tokens": [
          "[CLS]"
        ]
      },
      "[SEP]": {
        "id": "[SEP]",
        "ids": [
          102
        ],
        "tokens": [
          "[SEP]"
        ]
      }
    }
  },
  "decoder": {
    "type": "WordPiece",
    "prefix": "##",
    "cleanup": true
  },
  "model": {
    "type": "WordPiece",
    "unk_token": "[UNK]",
    "continuing_subword_prefix": "##",
    "max_input_chars_per_word": 100,
    "vocab": {
      "[PAD]": 0,
      "[unused1]": 1,
      "[unused2]": 2,
      "[unused3]": 3,
      "[unused4]": 4,
      "[unused5]": 5,
      "[unused6]": 6,
      "[unused7]": 7,
      "[unused8]": 8,
      "[unused9]": 9,
      "[unused10]": 10,
      "[unused11]": 11,
      "[unused12]": 12,
      "[unused13]": 13,
      "[unused14]": 14,
      "[unused15]": 15,
      "[unused16]": 16,
      "[unused17]": 17,
      "[unused18]": 18,
      "[unused19]": 19,
      "[unused20]": 20,
      "[unused21]": 21,
      "[unused22]": 22,
      "[unused23]": 23,
      "[unused24]": 24,
      "[unused25]": 25,
      "[unused26]": 26,
      "[unused27]": 27,
      "[unused28]": 28,
      "[unused29]": 29,
      "[unused30]": 30,
      "[unused31]": 31,
      "[unused32]": 32,
      "[unused33]": 33,
      "[unused34]": 34,
      "[unused35]": 35,
      "[unused36]": 36,
      "[unused37]": 37,
      "[unused38]": 38,
      "[unused39]": 39,
      "[unused40]": 40,
      "[unused41]": 41,
      "[unused42]": 42,
      "[unused43]": 43,
      "[unused44]": 44,
      "[unused45]": 45,
      "[unused46]": 46,
      "[unused47]": 47,
      "[unused48]": 48,
      "[unused49]": 49,
      "[unused50]": 50,
      "[unused51]": 51,
      "[unused52]": 52,
      "[unused53]": 53,
      "[unused54]": 54,
      "[unused55]": 55,
      "[unused56]": 56,
      "[unused57]": 57,
      "[unused58]": 58,
      "[unused59]": 59,
      "[unused60]": 60,
      "[unused61]": 61,
      "[unused62]": 62,
      "[unused63]": 63,
      "[unused64]": 64,
      "[unused65]": 65,
      "[unused66]": 66,
      "[unused67]": 67,
      "[unused68]": 68,
      "[unused69]": 69,
      "[unused70]": 70,
      "[unused71]": 71,
      "[unused72]": 72,
      "[unused73]": 73,
      "[unused74]": 74,
      "[unused75]": 75,
      "[unused76]": 76,
      "[unused77]": 77,
      "[unused78]": 78,
      "[unused79]": 79,
      "[unused80]": 80,
      "[unused81]": 81,
      "[unused82]": 82,
      "[unused83]": 83,
      "[unused84]": 84,
      "[unused85]": 85,
      "[unused86]": 86,
      "[unused87]": 87,
      "[unused88]": 88,
      "[unused89]": 89,
      "[unused90]": 90,
      "[unused91]": 91,
      "[unused92]": 92,
      "[unused93]": 93,
      "[unused94]": 94,
      "[unused95]": 95,
      "[unused96]": 96,
      "[unused97]": 97,
      "[unused98]": 98,
      "[unused99]": 99,
      "[UNK]": 100,
      "[CLS]": 101,
      "[SEP]": 102,
      "[MASK]": 103,
      "<S>": 104,
      "<T>": 105,
      "!": 106,
      "\"": 107,
      "#": 108,
      "$": 109,
      "%": 110,
      "&": 111,
      "'": 112,
      "(": 113,
      ")": 114,
      "*": 115,
      "+": 116,
      ",": 117,
      "-": 118,
      ".": 119,
      "/": 120,
      "0": 121,
      "1": 122,
      "2": 123,
      "3": 124,
      "4": 125,
      "5": 126,
      "6": 127,
      "7": 128,
      "8": 129,
      "9": 130,
      ":": 131,
      ";": 132,
      "<": 133,
      "=": 134,
      ">": 135,
      "?": 136,
      "@": 137,
      "A": 138,
      "B": 139,
      "C": 140,
      "D": 141,
      "E": 142,
      "F": 143,
      "G": 144,
      "H": 145,
      "I": 146,
      "J": 147,
      "K": 148,
      "L": 149,
      "M": 150,
      "N": 151,
      "O": 152,
      "P": 153,
      "Q": 154,
      "R": 155,
      "S": 156,
      "T": 157,
      "U": 158,
      "V": 159,
      "W": 160,
      "X": 161,
      "Y": 162,
      "Z": 163,
      "[": 164,
      "\\": 165,
      "]": 166,
      "^": 167,
      "_": 168,
      "a": 169,
      "b": 170,
      "c": 171,
      "d": 172,
      "e": 173,
      "f": 174,
      "g": 175,
      "h": 176,
      "i": 177,
      "j": 178,
      "k": 179,
      "l": 180,
      "m": 181,
      "n": 182,
      "o": 183,
      "p": 184,
      "q": 185,
      "r": 186,
      "s": 187,
      "t": 188,
      "u": 189,
      "v": 190,
      "w": 191,
      "x": 192,
      "y": 193,
      "z": 194,
      "{": 195,
      "|": 196,
      "}": 197,
      "~": 198,
      "ँ": 199,
      "ं": 200,
      "ः": 201,
      "अ": 202,
      "आ": 203,
      "इ": 204,
      "ई": 205,
      "उ": 206,
      "ऊ": 207,
      "ऋ": 208,
      "ऍ": 209,
      "ऎ": 210,
      "ए": 211,
      "ऐ": 212,
      "ऑ": 213,
      "ओ": 214,
      "औ": 215,
      "क": 216,
      "ख": 217,
      "ग": 218,
      "घ": 219,
      "ङ": 220,
      "च": 221,
      "छ": 222,
      "ज": 223,
      "झ": 224,
      "ञ": 225,
      "ट": 226,
      "ठ": 227,
      "ड": 228,
      "ढ": 229,
      "ण": 230,
      "त": 231,
      "थ": 232,
      "द": 233,
      "ध": 234,
      "न": 235,
      "प": 236,
      "फ": 237,
      "ब": 238,
      "भ": 239,
      "म": 240,
      "य": 241,
      "र": 242,
      "ऱ": 243,
      "ल": 244,
      "ळ": 245,
      "व": 246,
      "श": 247,
      "ष": 248,
      "स": 249,
      "ह": 250,
      "़": 251,
      "ऽ": 252,
      "ा": 253,
      "ि": 254,
      "ी": 255,
      "ु": 256,
      "ू": 257,
      "ृ": 258,
      "ॄ": 259,
      "ॅ": 260,
      "ॆ": 261,
      "े": 262,
      "ै": 263,
      "ॉ": 264,
      "ो": 265,
      "ौ": 266,
      "्": 267,
      "ॐ": 268,
      "॓": 269,
      "ॠ": 270,
      "।": 271,
      "॥": 272,
      "०": 273,
      "१": 274,
      "२": 275,
      "३": 276,
      "४": 277,
      "५": 278,
      "६": 279,
      "७": 280,
      "८": 281,
      "९": 282,
      "॰": 283,
      "ॲ": 284,
      "de": 285,
      "the": 286,
      "in": 287,
      "##s": 288,
      "of": 289,
      "la": 290,
      "en": 291,
      "and": 292,
      "##e": 293,
      "##a": 294,
      "to": 295,
      "##n": 296,
      "##i": 297,
      "The": 298,
      "der": 299,
      "un": 300,
      "di": 301,
      "que": 302,
      "##t": 303,
      "is": 304,
      "el": 305,
      "se": 306,
      "del": 307,
      "die": 308,
      "##r": 309,
      "und": 310,
      "et": 311,
      "na": 312,
      "##o": 313,
      "was": 314,
      "on": 315,
      "##en": 316,
      "##u": 317,
      "des": 318,
      "den": 319,
      "le": 320,
      "for": 321,
      "da": 322,
      "je": 323,
      "van": 324,
      "as": 325,
      "##m": 326,
      "sa": 327,
      "do": 328,
      "10": 329,
      "an": 330,
      "les": 331,
      "una": 332,
      "il": 333,
      "by": 334,
      "og": 335,
      "##y": 336,
      "2011": 337,
      "La": 338,
      "at": 339,
      "##l": 340,
      "##d": 341,
      "er": 342,
      "al": 343,
      "##er": 344,
      "von": 345,
      "In": 346,
      "du": 347,
      "with": 348,
      "av": 349,
      "##es": 350,
      "med": 351,
      "con": 352,
      "##k": 353,
      "2010": 354,
      "est": 355,
      "och": 356,
      "per": 357,
      "2000": 358,
      "som": 359,
      "los": 360,
      "por": 361,
      "nga": 362,
      "2012": 363,
      "12": 364,
      "het": 365,
      "from": 366,
      "that": 367,
      "De": 368,
      "no": 369,
      "11": 370,
      "2014": 371,
      "2009": 372,
      "es": 373,
      "20": 374,
      "su": 375,
      "ISBN": 376,
      "een": 377,
      "ja": 378,
      "2007": 379,
      "2008": 380,
      "km": 381,
      "##an": 382,
      "2013": 383,
      "15": 384,
      "om": 385,
      "im": 386,
      "com": 387,
      "##ta": 388,
      "2006": 389,
      "dan": 390,
      "##te": 391,
      "18": 392,
      "##na": 393,
      "para": 394,
      "mit": 395,
      "2015": 396,
      "als": 397,
      "El": 398,
      "como": 399,
      "his": 400,
      "ha": 401,
      "##da": 402,
      "##ing": 403,
      "une": 404,
      "...": 405,
      "24": 406,
      "Den": 407,
      "Die": 408,
      "##h": 409,
      "##ne": 410,
      "##g": 411,
      "das": 412,
      "En": 413,
      "30": 414,
      "##in": 415,
      "##re": 416,
      "14": 417,
      "par": 418,
      "13": 419,
      "16": 420,
      "##us": 421,
      "2005": 422,
      "##de": 423,
      "2016": 424,
      "au": 425,
      "25": 426,
      "000": 427,
      "dans": 428,
      "he": 429,
      "che": 430,
      "##on": 431,
      "2004": 432,
      "yang": 433,
      "em": 434,
      "dem": 435,
      "##ch": 436,
      "19": 437,
      "it": 438,
      "2001": 439,
      "17": 440,
      "til": 441,
      "2002": 442,
      "han": 443,
      "##ia": 444,
      "Le": 445,
      "Il": 446,
      "wurde": 447,
      "##le": 448,
      "las": 449,
      "della": 450,
      "New": 451,
      "##ra": 452,
      "ein": 453,
      "##is": 454,
      "um": 455,
      "si": 456,
      "2003": 457,
      "21": 458,
      "ist": 459,
      "var": 460,
      "Species": 461,
      "are": 462,
      "2017": 463,
      "op": 464,
      "zu": 465,
      "##z": 466,
      "22": 467,
      "##et": 468,
      "were": 469,
      "##os": 470,
      "od": 471,
      "son": 472,
      "An": 473,
      "26": 474,
      "World": 475,
      "##do": 476,
      "which": 477,
      "##ja": 478,
      "va": 479,
      "pour": 480,
      "ve": 481,
      "1999": 482,
      "##ti": 483,
      "sur": 484,
      "23": 485,
      "auf": 486,
      "##la": 487,
      "II": 488,
      "##ed": 489,
      "Life": 490,
      "war": 491,
      "za": 492,
      "##to": 493,
      "##se": 494,
      "##ni": 495,
      "##no": 496,
      "or": 497,
      "nel": 498,
      "be": 499,
      "28": 500,
      "det": 501,
      "##c": 502,
      "##ar": 503,
      "qui": 504,
      "He": 505,
      "eine": 506,
      "az": 507,
      "te": 508,
      "##va": 509,
      "1998": 510,
      "27": 511,
      "mm": 512,
      "##nt": 513,
      "##ma": 514,
      "finns": 515,
      "##ka": 516,
      "sich": 517,
      "Catalogue": 518,
      "had": 519,
      "##ng": 520,
      "It": 521,
      "also": 522,
      "so": 523,
      "##je": 524,
      "29": 525,
      "1996": 526,
      "##li": 527,
      "1997": 528,
      "am": 529,
      "has": 530,
      "roku": 531,
      "dari": 532,
      "dos": 533,
      "ur": 534,
      "##ie": 535,
      "##ri": 536,
      "entre": 537,
      "##as": 538,
      "University": 539,
      "lo": 540,
      "100": 541,
      "eta": 542,
      "##p": 543,
      "era": 544,
      "के": 545,
      "31": 546,
      "ni": 547,
      "##al": 548,
      "##j": 549,
      "##ce": 550,
      "1990": 551,
      "John": 552,
      "first": 553,
      "voor": 554,
      "##ca": 555,
      "##ment": 556,
      "os": 557,
      "met": 558,
      "ou": 559,
      "2018": 560,
      "all": 561,
      "1995": 562,
      "uma": 563,
      "##ko": 564,
      "aus": 565,
      "1991": 566,
      "1994": 567,
      "Der": 568,
      "non": 569,
      "foi": 570,
      "##si": 571,
      "1992": 572,
      "##em": 573,
      "af": 574,
      "har": 575,
      "##ly": 576,
      "their": 577,
      "ar": 578,
      "##b": 579,
      "film": 580,
      "avec": 581,
      "50": 582,
      "1993": 583,
      "one": 584,
      "##um": 585,
      "##sa": 586,
      "bis": 587,
      "Les": 588,
      "San": 589,
      "not": 590,
      "but": 591,
      "its": 592,
      "##v": 593,
      "ir": 594,
      "who": 595,
      "ny": 596,
      "York": 597,
      "##ga": 598,
      "her": 599,
      "##it": 600,
      "ang": 601,
      "Mexico": 602,
      "over": 603,
      "bei": 604,
      "ser": 605,
      "www": 606,
      "nach": 607,
      "dei": 608,
      "##mi": 609,
      "trakten": 610,
      "trong": 611,
      "##ki": 612,
      "ligger": 613,
      "alla": 614,
      "po": 615,
      "auch": 616,
      "History": 617,
      "yn": 618,
      "door": 619,
      "UK": 620,
      "1989": 621,
      "##ge": 622,
      "##at": 623,
      "dat": 624,
      "runt": 625,
      "have": 626,
      "this": 627,
      "में": 628,
      "40": 629,
      "American": 630,
      "##ba": 631,
      "1980": 632,
      "ed": 633,
      "uit": 634,
      "species": 635,
      "##ur": 636,
      "este": 637,
      "1988": 638,
      "ya": 639,
      "##ke": 640,
      "two": 641,
      "parte": 642,
      "fue": 643,
      "ne": 644,
      "Checklist": 645,
      "http": 646,
      "Ang": 647,
      "amb": 648,
      "bir": 649,
      "##st": 650,
      "plus": 651,
      "ITIS": 652,
      "##ro": 653,
      "Press": 654,
      "है": 655,
      "##el": 656,
      "under": 657,
      "zijn": 658,
      "##f": 659,
      "On": 660,
      "1986": 661,
      "werd": 662,
      "zum": 663,
      "1987": 664,
      "1985": 665,
      "978": 666,
      "pada": 667,
      "meter": 668,
      "men": 669,
      "##man": 670,
      "been": 671,
      "dell": 672,
      "ini": 673,
      "familia": 674,
      "din": 675,
      "September": 676,
      "1984": 677,
      "##ci": 678,
      "einer": 679,
      "Orrell": 680,
      "Saint": 681,
      "sua": 682,
      "##ul": 683,
      "##ndo": 684,
      "album": 685,
      "1970": 686,
      "qu": 687,
      "United": 688,
      "ao": 689,
      "##mente": 690,
      "##ve": 691,
      "mais": 692,
      "werden": 693,
      "Annual": 694,
      "seu": 695,
      "Panoramas": 696,
      "Viewfinder": 697,
      "genus": 698,
      "september": 699,
      "Kirk": 700,
      "oli": 701,
      "##me": 702,
      "fra": 703,
      "Reading": 704,
      "Los": 705,
      "Michael": 706,
      "sie": 707,
      "##den": 708,
      "time": 709,
      "##za": 710,
      "##io": 711,
      "Bourgoin": 712,
      "NASA": 713,
      "1982": 714,
      "1983": 715,
      "Bailly": 716,
      "ngan": 717,
      "sont": 718,
      "Roskov": 719,
      "Baillargeon": 720,
      "III": 721,
      "Paglinawan": 722,
      "1981": 723,
      "National": 724,
      "No": 725,
      "dengan": 726,
      "DEM": 727,
      "after": 728,
      "dalam": 729,
      "ett": 730,
      "1975": 731,
      "Det": 732,
      "##or": 733,
      "part": 734,
      "01": 735,
      "1945": 736,
      "dia": 737,
      "Das": 738,
      "1979": 739,
      "##nya": 740,
      "1972": 741,
      "come": 742,
      "##ya": 743,
      "red": 744,
      "##ten": 745,
      "els": 746,
      "other": 747,
      "Na": 748,
      "##x": 749,
      "France": 750,
      "they": 751,
      "sobre": 752,
      "##om": 753,
      "1978": 754,
      "William": 755,
      "tot": 756,
      "1968": 757,
      "1960": 758,
      "jako": 759,
      "##di": 760,
      "delen": 761,
      "1976": 762,
      "##kan": 763,
      "##ek": 764,
      "into": 765,
      "60": 766,
      "##ak": 767,
      "till": 768,
      "durch": 769,
      "##lo": 770,
      "##ung": 771,
      "ble": 772,
      "06": 773,
      "1977": 774,
      "1974": 775,
      "1973": 776,
      "May": 777,
      "nicht": 778,
      "aan": 779,
      "Paris": 780,
      "##2": 781,
      "ka": 782,
      "##S": 783,
      "1971": 784,
      "org": 785,
      "Mer": 786,
      "August": 787,
      "zur": 788,
      "mai": 789,
      "##A": 790,
      "dal": 791,
      "up": 792,
      "ng": 793,
      "einem": 794,
      "This": 795,
      "nahilalakip": 796,
      "new": 797,
      "थ्व": 798,
      "aux": 799,
      "##ny": 800,
      "500": 801,
      "##ho": 802,
      "##1": 803,
      "oder": 804,
      "##ju": 805,
      "sind": 806,
      "landet": 807,
      "1969": 808,
      "Jean": 809,
      "algoritmen": 810,
      "Algoritmer": 811,
      "Lsjbot": 812,
      "International": 813,
      "Paul": 814,
      "City": 815,
      "##lar": 816,
      "##ji": 817,
      "200": 818,
      "April": 819,
      "untuk": 820,
      "adalah": 821,
      "hij": 822,
      "uska": 823,
      "ziren": 824,
      "att": 825,
      "wird": 826,
      "iz": 827,
      "ce": 828,
      "sin": 829,
      "Im": 830,
      "##go": 831,
      "more": 832,
      "nan": 833,
      "1967": 834,
      "pas": 835,
      "havet": 836,
      "35": 837,
      "David": 838,
      "ei": 839,
      "##ts": 840,
      "nella": 841,
      "US": 842,
      "hini": 843,
      "1950": 844,
      "##co": 845,
      "TV": 846,
      "04": 847,
      "##ler": 848,
      "man": 849,
      "Han": 850,
      "November": 851,
      "Robert": 852,
      "Nicolson": 853,
      "##tion": 854,
      "ma": 855,
      "1944": 856,
      "की": 857,
      "45": 858,
      "1962": 859,
      "London": 860,
      "lui": 861,
      "05": 862,
      "80": 863,
      "she": 864,
      "dels": 865,
      "##ir": 866,
      "delle": 867,
      "St": 868,
      "1965": 869,
      "ad": 870,
      "when": 871,
      "32": 872,
      "65": 873,
      "sus": 874,
      "subspecies": 875,
      "due": 876,
      "##ku": 877,
      "cu": 878,
      "years": 879,
      "1964": 880,
      "1966": 881,
      "##C": 882,
      "States": 883,
      "familjen": 884,
      "fan": 885,
      "NGC": 886,
      "Ouvrard": 887,
      "Het": 888,
      "Bisby": 889,
      "##ze": 890,
      "ginhulagway": 891,
      "later": 892,
      "##w": 893,
      "1961": 894,
      "##ter": 895,
      "07": 896,
      "ki": 897,
      "1941": 898,
      "As": 899,
      "Al": 900,
      "##3": 901,
      "County": 902,
      "Waray": 903,
      "1940": 904,
      "huvudstaden": 905,
      "nakalista": 906,
      "##ns": 907,
      "only": 908,
      "would": 909,
      "1939": 910,
      "##ik": 911,
      "einen": 912,
      "James": 913,
      "##ers": 914,
      "godine": 915,
      "1963": 916,
      "kan": 917,
      "03": 918,
      "##ry": 919,
      "januari": 920,
      "me": 921,
      "Es": 922,
      "##ी": 923,
      "Er": 924,
      "##sen": 925,
      "90": 926,
      "##des": 927,
      "##ha": 928,
      "70": 929,
      "year": 930,
      "Charles": 931,
      "##ban": 932,
      "##0": 933,
      "blev": 934,
      "pa": 935,
      "varmaste": 936,
      "kallaste": 937,
      "beskrevs": 938,
      "medeltemperaturen": 939,
      "during": 940,
      "where": 941,
      "ze": 942,
      "eller": 943,
      "##rs": 944,
      "can": 945,
      "underarter": 946,
      "1958": 947,
      "between": 948,
      "out": 949,
      "Bronnen": 950,
      "wie": 951,
      "George": 952,
      "him": 953,
      "Inga": 954,
      "sono": 955,
      "millimeter": 956,
      "noten": 957,
      "##ben": 958,
      "juli": 959,
      "referenties": 960,
      "alle": 961,
      "##ren": 962,
      "##sta": 963,
      "jest": 964,
      "ses": 965,
      "1956": 966,
      "##rt": 967,
      "और": 968,
      "about": 969,
      "Peter": 970,
      "1959": 971,
      "listade": 972,
      "02": 973,
      "School": 974,
      "vun": 975,
      "comme": 976,
      "1943": 977,
      "tahun": 978,
      "##tu": 979,
      "most": 980,
      "genomsnitt": 981,
      "wurden": 982,
      "torraste": 983,
      "Genomsnittlig": 984,
      "regnigaste": 985,
      "33": 986,
      "three": 987,
      "1948": 988,
      "fu": 989,
      "##am": 990,
      "kvadratkilometer": 991,
      "##ou": 992,
      "##4": 993,
      "Earth": 994,
      "anche": 995,
      "ben": 996,
      "1942": 997,
      "made": 998,
      "##ria": 999,
      "ye": 1000,
      "##ov": 1001,
      "00": 1002,
      "1957": 1003,
      "1930": 1004,
      "1920": 1005,
      "##il": 1006,
      "used": 1007,
      "1954": 1008,
      "##mo": 1009,
      "dhe": 1010,
      "09": 1011,
      "vom": 1012,
      "##wa": 1013,
      "Un": 1014,
      "##jo": 1015,
      "sebagai": 1016,
      "forma": 1017,
      "##ica": 1018,
      "##be": 1019,
      "Se": 1020,
      "##ion": 1021,
      "durante": 1022,
      "przez": 1023,
      "such": 1024,
      "deux": 1025,
      "08": 1026,
      "known": 1027,
      "ved": 1028,
      "36": 1029,
      "South": 1030,
      "ta": 1031,
      "nie": 1032,
      "then": 1033,
      "USA": 1034,
      "##ken": 1035,
      "1946": 1036,
      "dass": 1037,
      "You": 1038,
      "Maria": 1039,
      "##ina": 1040,
      "34": 1041,
      "final": 1042,
      "1955": 1043,
      "से": 1044,
      "League": 1045,
      "population": 1046,
      "##land": 1047,
      "का": 1048,
      "1938": 1049,
      "##lla": 1050,
      "than": 1051,
      "nu": 1052,
      "1953": 1053,
      "##ine": 1054,
      "naam": 1055,
      "##T": 1056,
      "300": 1057,
      "IV": 1058,
      "1949": 1059,
      "Thomas": 1060,
      "1918": 1061,
      "India": 1062,
      "1952": 1063,
      "All": 1064,
      "State": 1065,
      "merupakan": 1066,
      "##un": 1067,
      "Oxford": 1068,
      "familie": 1069,
      "club": 1070,
      "July": 1071,
      "1947": 1072,
      "##zione": 1073,
      "elle": 1074,
      "Richard": 1075,
      "##che": 1076,
      "June": 1077,
      "team": 1078,
      "Az": 1079,
      "1936": 1080,
      "unter": 1081,
      "44": 1082,
      "##P": 1083,
      "##ner": 1084,
      "##ic": 1085,
      "care": 1086,
      "second": 1087,
      "zen": 1088,
      "ca": 1089,
      "mga": 1090,
      "Nel": 1091,
      "Retrieved": 1092,
      "##ok": 1093,
      "##ig": 1094,
      "##th": 1095,
      "March": 1096,
      "inom": 1097,
      "##nu": 1098,
      "She": 1099,
      "some": 1100,
      "##ada": 1101,
      "Santa": 1102,
      "there": 1103,
      "oleh": 1104,
      "##ste": 1105,
      "GeoNames": 1106,
      "##ut": 1107,
      "British": 1108,
      "pe": 1109,
      "Film": 1110,
      "ke": 1111,
      "West": 1112,
      "data": 1113,
      "##5": 1114,
      "gli": 1115,
      "area": 1116,
      "co": 1117,
      "38": 1118,
      "1937": 1119,
      "born": 1120,
      "400": 1121,
      "kao": 1122,
      "any": 1123,
      "became": 1124,
      "##dos": 1125,
      "##ton": 1126,
      "serie": 1127,
      "एक": 1128,
      "ook": 1129,
      "##que": 1130,
      "vor": 1131,
      "place": 1132,
      "Berlin": 1133,
      "##ty": 1134,
      "soort": 1135,
      "##tes": 1136,
      "including": 1137,
      "1951": 1138,
      "pod": 1139,
      "##ble": 1140,
      "37": 1141,
      "##das": 1142,
      "well": 1143,
      "cm": 1144,
      "##ा": 1145,
      "##gi": 1146,
      "##6": 1147,
      "October": 1148,
      "egy": 1149,
      "##nen": 1150,
      "Jahr": 1151,
      "koji": 1152,
      "General": 1153,
      "oraz": 1154,
      "through": 1155,
      "being": 1156,
      "North": 1157,
      "season": 1158,
      "##nte": 1159,
      "waren": 1160,
      "noch": 1161,
      "##ll": 1162,
      "doi": 1163,
      "##ea": 1164,
      "##res": 1165,
      "Martin": 1166,
      "##ant": 1167,
      "hadton": 1168,
      "January": 1169,
      "Park": 1170,
      "eerst": 1171,
      "##vo": 1172,
      "1933": 1173,
      "Love": 1174,
      "##id": 1175,
      "hat": 1176,
      "ko": 1177,
      "##ssa": 1178,
      "database": 1179,
      "Po": 1180,
      "Society": 1181,
      "cho": 1182,
      "##E": 1183,
      "##ck": 1184,
      "tra": 1185,
      "fost": 1186,
      "pero": 1187,
      "को": 1188,
      "##les": 1189,
      "##ning": 1190,
      "##lle": 1191,
      "1935": 1192,
      "##ado": 1193,
      "##R": 1194,
      "##B": 1195,
      "##ske": 1196,
      "42": 1197,
      "War": 1198,
      "##gen": 1199,
      "##I": 1200,
      "##zi": 1201,
      "1934": 1202,
      "pro": 1203,
      "1919": 1204,
      "December": 1205,
      "Em": 1206,
      "##ot": 1207,
      "##ist": 1208,
      "64": 1209,
      "bij": 1210,
      "##nie": 1211,
      "##ista": 1212,
      "many": 1213,
      "48": 1214,
      "After": 1215,
      "sebuah": 1216,
      "39": 1217,
      "##der": 1218,
      "##7": 1219,
      "1914": 1220,
      "nord": 1221,
      "pp": 1222,
      "##vi": 1223,
      "Database": 1224,
      "Europa": 1225,
      "suo": 1226,
      "Club": 1227,
      "Music": 1228,
      "radie": 1229,
      "Grand": 1230,
      "ci": 1231,
      "name": 1232,
      "Museum": 1233,
      "against": 1234,
      "prima": 1235,
      "fait": 1236,
      "volt": 1237,
      "1932": 1238,
      "Louis": 1239,
      "##nia": 1240,
      "1929": 1241,
      "will": 1242,
      "total": 1243,
      "One": 1244,
      "bi": 1245,
      "Man": 1246,
      "1928": 1247,
      "them": 1248,
      "ai": 1249,
      "##berg": 1250,
      "41": 1251,
      "hogy": 1252,
      "dalla": 1253,
      "nur": 1254,
      "##pe": 1255,
      "world": 1256,
      "ab": 1257,
      "55": 1258,
      "##pa": 1259,
      "before": 1260,
      "amin": 1261,
      "original": 1262,
      "family": 1263,
      "series": 1264,
      "won": 1265,
      "1917": 1266,
      "##L": 1267,
      "43": 1268,
      "while": 1269,
      "ale": 1270,
      "##9": 1271,
      "single": 1272,
      "ont": 1273,
      "Joseph": 1274,
      "commune": 1275,
      "uno": 1276,
      "##nde": 1277,
      "1931": 1278,
      "cui": 1279,
      "may": 1280,
      "state": 1281,
      "general": 1282,
      "##tas": 1283,
      "Records": 1284,
      "desde": 1285,
      "school": 1286,
      "sous": 1287,
      "solo": 1288,
      "##8": 1289,
      "Art": 1290,
      "byl": 1291,
      "For": 1292,
      "##ski": 1293,
      "juni": 1294,
      "##O": 1295,
      "base": 1296,
      "##ent": 1297,
      "via": 1298,
      "nom": 1299,
      "both": 1300,
      "roce": 1301,
      "hasta": 1302,
      "seiner": 1303,
      "stato": 1304,
      "47": 1305,
      "sowie": 1306,
      "1924": 1307,
      "75": 1308,
      "##men": 1309,
      "ex": 1310,
      "naar": 1311,
      "work": 1312,
      "worden": 1313,
      "people": 1314,
      "gepubliceerd": 1315,
      "Encyclopedia": 1316,
      "gran": 1317,
      "wetenschappelijke": 1318,
      "##lu": 1319,
      "local": 1320,
      "mars": 1321,
      "grande": 1322,
      "America": 1323,
      "Lake": 1324,
      "1927": 1325,
      "until": 1326,
      "##ky": 1327,
      "##ger": 1328,
      "##G": 1329,
      "geldig": 1330,
      "##न": 1331,
      "College": 1332,
      "Union": 1333,
      "Ny": 1334,
      "##du": 1335,
      "1922": 1336,
      "##cia": 1337,
      "1925": 1338,
      "cette": 1339,
      "##ura": 1340,
      "1921": 1341,
      "zeuden": 1342,
      "To": 1343,
      "Trakten": 1344,
      "wa": 1345,
      "1926": 1346,
      "contra": 1347,
      "Van": 1348,
      "##ii": 1349,
      "##sk": 1350,
      "sein": 1351,
      "##ol": 1352,
      "##ska": 1353,
      "history": 1354,
      "number": 1355,
      "##ad": 1356,
      "##D": 1357,
      "nombre": 1358,
      "seine": 1359,
      "Jahre": 1360,
      "##nes": 1361,
      "##ों": 1362,
      "##mento": 1363,
      "bu": 1364,
      "Am": 1365,
      "primer": 1366,
      "esta": 1367,
      "Nach": 1368,
      "1912": 1369,
      "February": 1370,
      "System": 1371,
      "Award": 1372,
      "King": 1373,
      "anni": 1374,
      "##M": 1375,
      "Las": 1376,
      "bat": 1377,
      "hi": 1378,
      "1923": 1379,
      "partir": 1380,
      "51": 1381,
      "52": 1382,
      "Nacional": 1383,
      "##tt": 1384,
      "46": 1385,
      "FC": 1386,
      "##by": 1387,
      "sem": 1388,
      "##lt": 1389,
      "##nd": 1390,
      "juga": 1391,
      "##N": 1392,
      "ay": 1393,
      "released": 1394,
      "##ien": 1395,
      "##ai": 1396,
      "Elle": 1397,
      "Cup": 1398,
      "House": 1399,
      "sig": 1400,
      "provinsen": 1401,
      "##र": 1402,
      "bagian": 1403,
      "called": 1404,
      "played": 1405,
      "##े": 1406,
      "Italia": 1407,
      "nem": 1408,
      "seus": 1409,
      "same": 1410,
      "stanovnika": 1411,
      "##F": 1412,
      "aber": 1413,
      "1900": 1414,
      "hatte": 1415,
      "band": 1416,
      "end": 1417,
      "nos": 1418,
      "River": 1419,
      "49": 1420,
      "asteroid": 1421,
      "Sie": 1422,
      "city": 1423,
      "1910": 1424,
      "Washington": 1425,
      "##ach": 1426,
      "Me": 1427,
      "My": 1428,
      "##are": 1429,
      "China": 1430,
      "Tour": 1431,
      "Royal": 1432,
      "His": 1433,
      "four": 1434,
      "##son": 1435,
      "ing": 1436,
      "Henry": 1437,
      "ile": 1438,
      "##ert": 1439,
      "1913": 1440,
      "village": 1441,
      "##len": 1442,
      "Pierre": 1443,
      "based": 1444,
      "##ischen": 1445,
      "Dr": 1446,
      "li": 1447,
      "zwei": 1448,
      "English": 1449,
      "tre": 1450,
      "vid": 1451,
      "Italy": 1452,
      "##ron": 1453,
      "California": 1454,
      "##ita": 1455,
      "##ies": 1456,
      "##ire": 1457,
      "56": 1458,
      "##ian": 1459,
      "##ana": 1460,
      "nome": 1461,
      "Canada": 1462,
      "ikke": 1463,
      "re": 1464,
      "##cht": 1465,
      "Red": 1466,
      "##he": 1467,
      "##bi": 1468,
      "CD": 1469,
      "IC": 1470,
      "namngivna": 1471,
      "principal": 1472,
      "54": 1473,
      "Routledge": 1474,
      "eines": 1475,
      "wordt": 1476,
      "Indonesia": 1477,
      "kilometer": 1478,
      "sud": 1479,
      "game": 1480,
      "degli": 1481,
      "##lich": 1482,
      "Italian": 1483,
      "##so": 1484,
      "niet": 1485,
      "anno": 1486,
      "##ische": 1487,
      "Smith": 1488,
      "version": 1489,
      "vez": 1490,
      "##ks": 1491,
      "ug": 1492,
      "##ud": 1493,
      "##ru": 1494,
      "tres": 1495,
      "1915": 1496,
      "public": 1497,
      "khoa": 1498,
      "Juan": 1499,
      "dit": 1500,
      "december": 1501,
      "long": 1502,
      "They": 1503,
      "Cambridge": 1504,
      "At": 1505,
      "England": 1506,
      "##q": 1507,
      "Air": 1508,
      "##au": 1509,
      "izd": 1510,
      "sistema": 1511,
      "##ier": 1512,
      "##cy": 1513,
      "##ल": 1514,
      "nun": 1515,
      "हैं": 1516,
      "##mu": 1517,
      "Center": 1518,
      "BBC": 1519,
      "There": 1520,
      "vuonna": 1521,
      "november": 1522,
      "##ida": 1523,
      "Madrid": 1524,
      "Runt": 1525,
      "Australia": 1526,
      "Best": 1527,
      "sau": 1528,
      "early": 1529,
      "##K": 1530,
      "ut": 1531,
      "several": 1532,
      "1911": 1533,
      "Company": 1534,
      "Don": 1535,
      "Si": 1536,
      "ville": 1537,
      "ans": 1538,
      "enligt": 1539,
      "##ls": 1540,
      "pentru": 1541,
      "Black": 1542,
      "Association": 1543,
      "olan": 1544,
      "atau": 1545,
      "53": 1546,
      "Christian": 1547,
      "dont": 1548,
      "##im": 1549,
      "use": 1550,
      "84": 1551,
      "these": 1552,
      "Hall": 1553,
      "since": 1554,
      "nog": 1555,
      "150": 1556,
      "Europe": 1557,
      "Hans": 1558,
      "ten": 1559,
      "Festival": 1560,
      "olarak": 1561,
      "land": 1562,
      "former": 1563,
      "##ini": 1564,
      "##V": 1565,
      "UTC": 1566,
      "##han": 1567,
      "cada": 1568,
      "go": 1569,
      "Mai": 1570,
      "1916": 1571,
      "seva": 1572,
      "system": 1573,
      "zwischen": 1574,
      "guerra": 1575,
      "##bo": 1576,
      "Do": 1577,
      "Daniel": 1578,
      "pela": 1579,
      "Roma": 1580,
      "group": 1581,
      "600": 1582,
      "Francisco": 1583,
      "##nin": 1584,
      "wat": 1585,
      "regia": 1586,
      "Jan": 1587,
      "leur": 1588,
      "oktober": 1589,
      "##ation": 1590,
      "maar": 1591,
      "1905": 1592,
      "##tor": 1593,
      "home": 1594,
      "57": 1595,
      "Da": 1596,
      "1908": 1597,
      "##dae": 1598,
      "##ciones": 1599,
      "found": 1600,
      "58": 1601,
      "station": 1602,
      "fin": 1603,
      "##ius": 1604,
      "Census": 1605,
      "East": 1606,
      "Marie": 1607,
      "Star": 1608,
      "augusti": 1609,
      "music": 1610,
      "post": 1611,
      "donde": 1612,
      "national": 1613,
      "##त": 1614,
      "high": 1615,
      "set": 1616,
      "Island": 1617,
      "##dor": 1618,
      "like": 1619,
      "1907": 1620,
      "दु": 1621,
      "##ux": 1622,
      "mas": 1623,
      "##vat": 1624,
      "now": 1625,
      "ra": 1626,
      "punkten": 1627,
      "##nda": 1628,
      "Karl": 1629,
      "##lik": 1630,
      "Jahren": 1631,
      "##idae": 1632,
      "59": 1633,
      "tidak": 1634,
      "fut": 1635,
      "Frank": 1636,
      "Antonio": 1637,
      "april": 1638,
      "dopo": 1639,
      "primera": 1640,
      "##iu": 1641,
      "Stadt": 1642,
      "##ker": 1643,
      "Insecta": 1644,
      "Central": 1645,
      "ga": 1646,
      "nei": 1647,
      "##ang": 1648,
      "Japan": 1649,
      "French": 1650,
      "kg": 1651,
      "XIX": 1652,
      "show": 1653,
      "off": 1654,
      "800": 1655,
      "following": 1656,
      "Estados": 1657,
      "pelo": 1658,
      "dieser": 1659,
      "##ige": 1660,
      "##ua": 1661,
      "##chen": 1662,
      "itu": 1663,
      "##ico": 1664,
      "##ted": 1665,
      "premier": 1666,
      "European": 1667,
      "ban": 1668,
      "Bu": 1669,
      "##ice": 1670,
      "Open": 1671,
      "site": 1672,
      "major": 1673,
      "Observations": 1674,
      "##hi": 1675,
      "vida": 1676,
      "adolah": 1677,
      "Band": 1678,
      "Journal": 1679,
      "gegen": 1680,
      "februari": 1681,
      "1906": 1682,
      "Od": 1683,
      "art": 1684,
      "1904": 1685,
      "day": 1686,
      "began": 1687,
      "##ive": 1688,
      "century": 1689,
      "1909": 1690,
      "##ling": 1691,
      "each": 1692,
      "##ity": 1693,
      "##ej": 1694,
      "we": 1695,
      "##ata": 1696,
      "telah": 1697,
      "located": 1698,
      "High": 1699,
      "##dir": 1700,
      "District": 1701,
      "ili": 1702,
      "Street": 1703,
      "##sti": 1704,
      "estado": 1705,
      "Als": 1706,
      "Oktober": 1707,
      "Unidos": 1708,
      "havia": 1709,
      "quando": 1710,
      "##gan": 1711,
      "seit": 1712,
      "##ven": 1713,
      "Zeit": 1714,
      "95": 1715,
      "novembre": 1716,
      "Per": 1717,
      "nasod": 1718,
      "Edward": 1719,
      "##zen": 1720,
      "भाषा": 1721,
      "Division": 1722,
      "net": 1723,
      "service": 1724,
      "##ui": 1725,
      "held": 1726,
      "autres": 1727,
      "Population": 1728,
      "Mark": 1729,
      "##ei": 1730,
      "menjadi": 1731,
      "Time": 1732,
      "Land": 1733,
      "aussi": 1734,
      "Nord": 1735,
      "Lee": 1736,
      "member": 1737,
      "song": 1738,
      "##rio": 1739,
      "back": 1740,
      "##era": 1741,
      "85": 1742,
      "agosto": 1743,
      "Times": 1744,
      "hans": 1745,
      "##U": 1746,
      "##rd": 1747,
      "anos": 1748,
      "German": 1749,
      "##nik": 1750,
      "bien": 1751,
      "Institute": 1752,
      "deze": 1753,
      "Is": 1754,
      "sul": 1755,
      "named": 1756,
      "hun": 1757,
      "seg": 1758,
      "##ville": 1759,
      "##sch": 1760,
      "andere": 1761,
      "onder": 1762,
      "government": 1763,
      "120": 1764,
      "Carlos": 1765,
      "Group": 1766,
      "##lan": 1767,
      "depuis": 1768,
      "unha": 1769,
      "onde": 1770,
      "##tan": 1771,
      "nad": 1772,
      "##ene": 1773,
      "alors": 1774,
      "Alexander": 1775,
      "Live": 1776,
      "62": 1777,
      "XX": 1778,
      "khi": 1779,
      "88": 1780,
      "Hij": 1781,
      "large": 1782,
      "video": 1783,
      "Modern": 1784,
      "lugar": 1785,
      "mot": 1786,
      "Radio": 1787,
      "Os": 1788,
      "casa": 1789,
      "age": 1790,
      "##lor": 1791,
      "##zo": 1792,
      "##cie": 1793,
      "essere": 1794,
      "company": 1795,
      "##ure": 1796,
      "jeho": 1797,
      "life": 1798,
      "##ley": 1799,
      "binon": 1800,
      "district": 1801,
      "Rio": 1802,
      "##ran": 1803,
      "Barcelona": 1804,
      "production": 1805,
      "line": 1806,
      "72": 1807,
      "meg": 1808,
      "##ere": 1809,
      "palibot": 1810,
      "##ris": 1811,
      "main": 1812,
      "fr": 1813,
      "First": 1814,
      "eerste": 1815,
      "##kin": 1816,
      "##tte": 1817,
      "mi": 1818,
      "gikan": 1819,
      "ali": 1820,
      "Index": 1821,
      "White": 1822,
      "ainsi": 1823,
      "efter": 1824,
      "Team": 1825,
      "##ting": 1826,
      "social": 1827,
      "latach": 1828,
      "Information": 1829,
      "##dan": 1830,
      "Science": 1831,
      "Una": 1832,
      "took": 1833,
      "##nce": 1834,
      "##क": 1835,
      "left": 1836,
      "Rock": 1837,
      "Data": 1838,
      "Op": 1839,
      "jedoch": 1840,
      "ordo": 1841,
      "around": 1842,
      "huvudsak": 1843,
      "did": 1844,
      "habitantes": 1845,
      "could": 1846,
      "1903": 1847,
      "Mary": 1848,
      "##bu": 1849,
      "82": 1850,
      "built": 1851,
      "capital": 1852,
      "1000": 1853,
      "99": 1854,
      "form": 1855,
      "nell": 1856,
      "pado": 1857,
      "या": 1858,
      "joka": 1859,
      "dla": 1860,
      "habitants": 1861,
      "##ului": 1862,
      "##tta": 1863,
      "Diptera": 1864,
      "Friedrich": 1865,
      "abril": 1866,
      "However": 1867,
      "Ein": 1868,
      "fa": 1869,
      "##ber": 1870,
      "पर": 1871,
      "250": 1872,
      "66": 1873,
      "News": 1874,
      "region": 1875,
      "town": 1876,
      "From": 1877,
      "##ale": 1878,
      "86": 1879,
      "Carl": 1880,
      "ersten": 1881,
      "variansen": 1882,
      "lan": 1883,
      "pre": 1884,
      "zona": 1885,
      "Angeles": 1886,
      "##val": 1887,
      "Simon": 1888,
      "tempo": 1889,
      "finale": 1890,
      "kom": 1891,
      "famili": 1892,
      "When": 1893,
      "INSEE": 1894,
      "etter": 1895,
      "##zioni": 1896,
      "##burg": 1897,
      "rock": 1898,
      "side": 1899,
      "hadde": 1900,
      "play": 1901,
      "present": 1902,
      "1901": 1903,
      "63": 1904,
      "##ah": 1905,
      "terletak": 1906,
      "partie": 1907,
      "sy": 1908,
      "VI": 1909,
      "PMID": 1910,
      "Brasil": 1911,
      "viene": 1912,
      "Pada": 1913,
      "Su": 1914,
      "Von": 1915,
      "banda": 1916,
      "Tom": 1917,
      "##age": 1918,
      "if": 1919,
      "##sche": 1920,
      "##tus": 1921,
      "grupo": 1922,
      "primo": 1923,
      "Atlas": 1924,
      "water": 1925,
      "##ksi": 1926,
      "etwa": 1927,
      "Hill": 1928,
      "##ique": 1929,
      "kingdom": 1930,
      "received": 1931,
      "bio": 1932,
      "Jones": 1933,
      "Anna": 1934,
      "##ano": 1935,
      "zich": 1936,
      "1902": 1937,
      "published": 1938,
      "##ido": 1939,
      "word": 1940,
      "96": 1941,
      "1890": 1942,
      "61": 1943,
      "67": 1944,
      "Chicago": 1945,
      "mar": 1946,
      "ciudad": 1947,
      "loro": 1948,
      "iki": 1949,
      "81": 1950,
      "served": 1951,
      "98": 1952,
      "97": 1953,
      "point": 1954,
      "##ros": 1955,
      "drei": 1956,
      "Santiago": 1957,
      "##liche": 1958,
      "mort": 1959,
      "List": 1960,
      "Championship": 1961,
      "Jack": 1962,
      "Bureau": 1963,
      "Coleoptera": 1964,
      "##cji": 1965,
      "##मा": 1966,
      "Diakses": 1967,
      "##ino": 1968,
      "##mann": 1969,
      "##cu": 1970,
      "##nek": 1971,
      "##dy": 1972,
      "match": 1973,
      "Awards": 1974,
      "temps": 1975,
      "Roman": 1976,
      "Day": 1977,
      "mu": 1978,
      "include": 1979,
      "top": 1980,
      "heeft": 1981,
      "Juli": 1982,
      "700": 1983,
      "cuando": 1984,
      "68": 1985,
      "##mer": 1986,
      "because": 1987,
      "Cerambycidae": 1988,
      "etc": 1989,
      "Juni": 1990,
      "pri": 1991,
      "mens": 1992,
      "within": 1993,
      "kann": 1994,
      "Real": 1995,
      "bulan": 1996,
      "##ms": 1997,
      "##ito": 1998,
      "##tet": 1999,
      "mentre": 2000,
      "Son": 2001,
      "##H": 2002,
      "central": 2003,
      "##inen": 2004,
      "Por": 2005,
      "along": 2006,
      "marzo": 2007,
      "##nej": 2008,
      "five": 2009,
      "Sa": 2010,
      "byla": 2011,
      "Animalia": 2012,
      "83": 2013,
      "record": 2014,
      "ning": 2015,
      "jego": 2016,
      "##jen": 2017,
      "said": 2018,
      "Internet": 2019,
      "fueron": 2020,
      "##ego": 2021,
      "sonra": 2022,
      "Albert": 2023,
      "Culture": 2024,
      "Marine": 2025,
      "wieder": 2026,
      "76": 2027,
      "radio": 2028,
      "orang": 2029,
      "provincia": 2030,
      "andre": 2031,
      "##ate": 2032,
      "kam": 2033,
      "obra": 2034,
      "##nje": 2035,
      "##ima": 2036,
      "engleski": 2037,
      "filum": 2038,
      "six": 2039,
      "puis": 2040,
      "important": 2041,
      "##ium": 2042,
      "##ens": 2043,
      "92": 2044,
      "##jos": 2045,
      "director": 2046,
      "italiano": 2047,
      "PDF": 2048,
      "members": 2049,
      "##nih": 2050,
      "Texas": 2051,
      "Januar": 2052,
      "last": 2053,
      "mehr": 2054,
      "million": 2055,
      "small": 2056,
      "Album": 2057,
      "##ari": 2058,
      "sido": 2059,
      "Young": 2060,
      "93": 2061,
      "Big": 2062,
      "died": 2063,
      "program": 2064,
      "vart": 2065,
      "football": 2066,
      "buvo": 2067,
      "What": 2068,
      "1898": 2069,
      "78": 2070,
      "pel": 2071,
      "Williams": 2072,
      "##kt": 2073,
      "kelas": 2074,
      "Arthropoda": 2075,
      "Football": 2076,
      "best": 2077,
      "Walter": 2078,
      "##ono": 2079,
      "contre": 2080,
      "##को": 2081,
      "71": 2082,
      "Este": 2083,
      "bila": 2084,
      "media": 2085,
      "91": 2086,
      "##aan": 2087,
      "quan": 2088,
      "##wy": 2089,
      "otros": 2090,
      "77": 2091,
      "Party": 2092,
      "Amerika": 2093,
      "international": 2094,
      "74": 2095,
      "##lis": 2096,
      "##leri": 2097,
      "lors": 2098,
      "jo": 2099,
      "own": 2100,
      "Indian": 2101,
      "73": 2102,
      "Vol": 2103,
      "##zy": 2104,
      "1897": 2105,
      "During": 2106,
      "1896": 2107,
      "##rat": 2108,
      "##lig": 2109,
      "zo": 2110,
      "vo": 2111,
      "death": 2112,
      "very": 2113,
      "nalazi": 2114,
      "milimetro": 2115,
      "##ver": 2116,
      "DVD": 2117,
      "air": 2118,
      "marupokan": 2119,
      "peut": 2120,
      "koja": 2121,
      "1899": 2122,
      "##gt": 2123,
      "69": 2124,
      "##ceae": 2125,
      "vers": 2126,
      "##we": 2127,
      "Academy": 2128,
      "87": 2129,
      "##nja": 2130,
      "building": 2131,
      "##sten": 2132,
      "##gu": 2133,
      "yr": 2134,
      "satu": 2135,
      "Great": 2136,
      "ela": 2137,
      "Under": 2138,
      "Sant": 2139,
      "importante": 2140,
      "##nis": 2141,
      "1895": 2142,
      "popular": 2143,
      "Lac": 2144,
      "lang": 2145,
      "id": 2146,
      "mis": 2147,
      "##iert": 2148,
      "control": 2149,
      "Of": 2150,
      "naselje": 2151,
      "With": 2152,
      "mereka": 2153,
      "##ld": 2154,
      "Brown": 2155,
      "jaar": 2156,
      "anys": 2157,
      "third": 2158,
      "##let": 2159,
      "Johann": 2160,
      "beim": 2161,
      "##ques": 2162,
      "ele": 2163,
      "services": 2164,
      "dall": 2165,
      "tanggal": 2166,
      "89": 2167,
      "esis": 2168,
      "tym": 2169,
      "Nam": 2170,
      "Werner": 2171,
      "still": 2172,
      "Road": 2173,
      "seinem": 2174,
      "trois": 2175,
      "todo": 2176,
      "todos": 2177,
      "jsou": 2178,
      "##rum": 2179,
      "mei": 2180,
      "Bei": 2181,
      "Kunze": 2182,
      "Wilhelm": 2183,
      "centre": 2184,
      "##X": 2185,
      "##pi": 2186,
      "those": 2187,
      "##ara": 2188,
      "col": 2189,
      "Cerro": 2190,
      "##od": 2191,
      "थाय्": 2192,
      "##ys": 2193,
      "##tti": 2194,
      "kilometro": 2195,
      "Top": 2196,
      "fou": 2197,
      "And": 2198,
      "Church": 2199,
      "Wever": 2200,
      "children": 2201,
      "kayu": 2202,
      "Mit": 2203,
      "Culham": 2204,
      "Night": 2205,
      "##ite": 2206,
      "meer": 2207,
      "##pen": 2208,
      "##per": 2209,
      "vol": 2210,
      "##ez": 2211,
      "By": 2212,
      "##og": 2213,
      "ter": 2214,
      "##ato": 2215,
      "1889": 2216,
      "country": 2217,
      "seinen": 2218,
      "vier": 2219,
      "1880": 2220,
      "##nak": 2221,
      "ia": 2222,
      "##use": 2223,
      "agus": 2224,
      "haar": 2225,
      "Version": 2226,
      "##ele": 2227,
      "tak": 2228,
      "included": 2229,
      "jusqu": 2230,
      "Jacques": 2231,
      "mayor": 2232,
      "book": 2233,
      "94": 2234,
      "diese": 2235,
      "##nti": 2236,
      "##ser": 2237,
      "liegt": 2238,
      "north": 2239,
      "Army": 2240,
      "lat": 2241,
      "##ster": 2242,
      "plaats": 2243,
      "##schen": 2244,
      "##ue": 2245,
      "Germany": 2246,
      "mindre": 2247,
      "zuen": 2248,
      "##sia": 2249,
      "eds": 2250,
      "Asia": 2251,
      "##ras": 2252,
      "##ret": 2253,
      "Super": 2254,
      "causa": 2255,
      "points": 2256,
      "izan": 2257,
      "79": 2258,
      "Dezember": 2259,
      "centro": 2260,
      "wo": 2261,
      "ano": 2262,
      "1870": 2263,
      "Grande": 2264,
      "##ova": 2265,
      "##sko": 2266,
      "##chi": 2267,
      "type": 2268,
      "##ile": 2269,
      "ihre": 2270,
      "President": 2271,
      "Scott": 2272,
      "cidade": 2273,
      "tai": 2274,
      "Luis": 2275,
      "##isch": 2276,
      "##sse": 2277,
      "##tar": 2278,
      "just": 2279,
      "Council": 2280,
      "##ane": 2281,
      "##ija": 2282,
      "Social": 2283,
      "juo": 2284,
      "Australian": 2285,
      "tiene": 2286,
      "##iva": 2287,
      "Prix": 2288,
      "Guerra": 2289,
      "##nych": 2290,
      "Centre": 2291,
      "twee": 2292,
      "dove": 2293,
      "tour": 2294,
      "ces": 2295,
      "Con": 2296,
      "antes": 2297,
      "tersebut": 2298,
      "Pedro": 2299,
      "avant": 2300,
      "Sir": 2301,
      "Argentina": 2302,
      "Max": 2303,
      "led": 2304,
      "Kanada": 2305,
      "Ende": 2306,
      "another": 2307,
      "We": 2308,
      "questo": 2309,
      "##bar": 2310,
      "##ye": 2311,
      "metros": 2312,
      "comune": 2313,
      "piano": 2314,
      "##ि": 2315,
      "Africa": 2316,
      "comuna": 2317,
      "So": 2318,
      "near": 2319,
      "ovat": 2320,
      "title": 2321,
      "see": 2322,
      "norte": 2323,
      "cual": 2324,
      "##su": 2325,
      "Liga": 2326,
      "1886": 2327,
      "koje": 2328,
      "old": 2329,
      "often": 2330,
      "tem": 2331,
      "Iran": 2332,
      "different": 2333,
      "##rie": 2334,
      "Windows": 2335,
      "jej": 2336,
      "1885": 2337,
      "ako": 2338,
      "##kom": 2339,
      "venne": 2340,
      "##sel": 2341,
      "Harry": 2342,
      "Mr": 2343,
      "Verlag": 2344,
      "##ona": 2345,
      "tanto": 2346,
      "##mas": 2347,
      "dar": 2348,
      "##lichen": 2349,
      "1894": 2350,
      "##one": 2351,
      "player": 2352,
      "information": 2353,
      "##ade": 2354,
      "president": 2355,
      "Department": 2356,
      "down": 2357,
      "Little": 2358,
      "Arts": 2359,
      "Portugal": 2360,
      "gada": 2361,
      "segundo": 2362,
      "Di": 2363,
      "leta": 2364,
      "nas": 2365,
      "Power": 2366,
      "##line": 2367,
      "sen": 2368,
      "##van": 2369,
      "position": 2370,
      "temporada": 2371,
      "Research": 2372,
      "1893": 2373,
      "##ft": 2374,
      "live": 2375,
      "Meyer": 2376,
      "##cha": 2377,
      "Jr": 2378,
      "1892": 2379,
      "##dd": 2380,
      "groupe": 2381,
      "role": 2382,
      "Blue": 2383,
      "isang": 2384,
      "##cions": 2385,
      "what": 2386,
      "##net": 2387,
      "ich": 2388,
      "fins": 2389,
      "qual": 2390,
      "Sciences": 2391,
      "1891": 2392,
      "##ais": 2393,
      "##eur": 2394,
      "omgivningarna": 2395,
      "VII": 2396,
      "order": 2397,
      "Israel": 2398,
      "puede": 2399,
      "Francia": 2400,
      "##aren": 2401,
      "web": 2402,
      "car": 2403,
      "late": 2404,
      "tout": 2405,
      "##ey": 2406,
      "hoa": 2407,
      "##ira": 2408,
      "bet": 2409,
      "described": 2410,
      "Deutschland": 2411,
      "##uk": 2412,
      "poi": 2413,
      "किया": 2414,
      "Spesies": 2415,
      "##lin": 2416,
      "career": 2417,
      "grand": 2418,
      "##ore": 2419,
      "heute": 2420,
      "Men": 2421,
      "you": 2422,
      "Dans": 2423,
      "##ena": 2424,
      "##W": 2425,
      "Global": 2426,
      "Durante": 2427,
      "##ise": 2428,
      "Teil": 2429,
      "poder": 2430,
      "sunt": 2431,
      "##vu": 2432,
      "jak": 2433,
      "##est": 2434,
      "vattendrag": 2435,
      "eran": 2436,
      "1888": 2437,
      "tu": 2438,
      "dann": 2439,
      "110": 2440,
      "XVIII": 2441,
      "moved": 2442,
      "##ika": 2443,
      "##rn": 2444,
      "Joe": 2445,
      "nelle": 2446,
      "##uje": 2447,
      "plan": 2448,
      "durant": 2449,
      "gemeente": 2450,
      "Green": 2451,
      "Lo": 2452,
      "Adam": 2453,
      "Good": 2454,
      "Els": 2455,
      "fel": 2456,
      "##zu": 2457,
      "hai": 2458,
      "Wilson": 2459,
      "volta": 2460,
      "make": 2461,
      "XVI": 2462,
      "ने": 2463,
      "spesies": 2464,
      "आहे": 2465,
      "##uri": 2466,
      "grandes": 2467,
      "studio": 2468,
      "##able": 2469,
      "Co": 2470,
      "hvor": 2471,
      "caso": 2472,
      "plusieurs": 2473,
      "presidente": 2474,
      "Creek": 2475,
      "aastal": 2476,
      "Manuel": 2477,
      "##sis": 2478,
      "monde": 2479,
      "ez": 2480,
      "tipo": 2481,
      "Ed": 2482,
      "sans": 2483,
      "glesbefolkat": 2484,
      "again": 2485,
      "Nova": 2486,
      "IUCN": 2487,
      "period": 2488,
      "##vel": 2489,
      "##een": 2490,
      "erste": 2491,
      "ihm": 2492,
      "##ali": 2493,
      "Arthur": 2494,
      "##ring": 2495,
      "##ves": 2496,
      "mundo": 2497,
      "Instituto": 2498,
      "south": 2499,
      "support": 2500,
      "Bay": 2501,
      "##ses": 2502,
      "Copa": 2503,
      "Chris": 2504,
      "iko": 2505,
      "##ges": 2506,
      "kun": 2507,
      "Bill": 2508,
      "avril": 2509,
      "quatre": 2510,
      "Western": 2511,
      "jorden": 2512,
      "Prema": 2513,
      "##ard": 2514,
      "Jackson": 2515,
      "way": 2516,
      "Afrika": 2517,
      "much": 2518,
      "ho": 2519,
      "Gemeinde": 2520,
      "sitt": 2521,
      "vum": 2522,
      "##ente": 2523,
      "ils": 2524,
      "Song": 2525,
      "लिए": 2526,
      "power": 2527,
      "##ित": 2528,
      "Eine": 2529,
      "##ih": 2530,
      "women": 2531,
      "gant": 2532,
      "model": 2533,
      "konnte": 2534,
      "father": 2535,
      "musical": 2536,
      "##ham": 2537,
      "Decock": 2538,
      "##ende": 2539,
      "Abucay": 2540,
      "mismo": 2541,
      "##tra": 2542,
      "Au": 2543,
      "Serie": 2544,
      "##ncia": 2545,
      "similar": 2546,
      "Two": 2547,
      "house": 2548,
      "Law": 2549,
      "##lia": 2550,
      "Chile": 2551,
      "हो": 2552,
      "##ps": 2553,
      "html": 2554,
      "gia": 2555,
      "fois": 2556,
      "ary": 2557,
      "##eri": 2558,
      "Her": 2559,
      "1878": 2560,
      "##rea": 2561,
      "berg": 2562,
      "Series": 2563,
      "Mae": 2564,
      "Johnson": 2565,
      "Names": 2566,
      "sulla": 2567,
      "established": 2568,
      "even": 2569,
      "1883": 2570,
      "maj": 2571,
      "These": 2572,
      "law": 2573,
      "vagy": 2574,
      "Li": 2575,
      "##ati": 2576,
      "kuperad": 2577,
      "article": 2578,
      "##sh": 2579,
      "##ds": 2580,
      "miejsce": 2581,
      "Mike": 2582,
      "Platz": 2583,
      "Gran": 2584,
      "Michel": 2585,
      "##ix": 2586,
      "##tic": 2587,
      "level": 2588,
      "1887": 2589,
      "Kirche": 2590,
      "anderen": 2591,
      "भी": 2592,
      "Thompson": 2593,
      "haben": 2594,
      "mutta": 2595,
      "##nom": 2596,
      "face": 2597,
      "fler": 2598,
      "Giovanni": 2599,
      "Cette": 2600,
      "Chinese": 2601,
      "far": 2602,
      "##cije": 2603,
      "Ben": 2604,
      "Register": 2605,
      "Long": 2606,
      "Steve": 2607,
      "##ami": 2608,
      "##ula": 2609,
      "suite": 2610,
      "##ide": 2611,
      "norr": 2612,
      "##tos": 2613,
      "vil": 2614,
      "##ee": 2615,
      "##ala": 2616,
      "Philip": 2617,
      "##ons": 2618,
      "among": 2619,
      "hier": 2620,
      "##cs": 2621,
      "games": 2622,
      "opera": 2623,
      "1860": 2624,
      "cap": 2625,
      "Ce": 2626,
      "Media": 2627,
      "Dit": 2628,
      "Geraadpleegd": 2629,
      "Office": 2630,
      "##met": 2631,
      "style": 2632,
      "Sud": 2633,
      "community": 2634,
      "circa": 2635,
      "Wikimedia": 2636,
      "##het": 2637,
      "Paulo": 2638,
      "tudi": 2639,
      "##op": 2640,
      "memiliki": 2641,
      "sempre": 2642,
      "##tik": 2643,
      "1884": 2644,
      "##fa": 2645,
      "fino": 2646,
      "##nza": 2647,
      "##via": 2648,
      "Heinrich": 2649,
      "full": 2650,
      "dapat": 2651,
      "##yn": 2652,
      "deel": 2653,
      "syahan": 2654,
      "using": 2655,
      "came": 2656,
      "Force": 2657,
      "##mos": 2658,
      "##ford": 2659,
      "130": 2660,
      "inwoners": 2661,
      "lebih": 2662,
      "foram": 2663,
      "##cher": 2664,
      "##ism": 2665,
      "written": 2666,
      "Taylor": 2667,
      "kot": 2668,
      "ganska": 2669,
      "ovanligt": 2670,
      "##issa": 2671,
      "development": 2672,
      "construction": 2673,
      "##field": 2674,
      "natural": 2675,
      "sai": 2676,
      "gan": 2677,
      "Februar": 2678,
      "list": 2679,
      "php": 2680,
      "historia": 2681,
      "weer": 2682,
      "##ss": 2683,
      "ilk": 2684,
      "1848": 2685,
      "debut": 2686,
      "1882": 2687,
      "1881": 2688,
      "nebo": 2689,
      "juin": 2690,
      "stata": 2691,
      "##स": 2692,
      "produced": 2693,
      "##tis": 2694,
      "fine": 2695,
      "muy": 2696,
      "kasarangang": 2697,
      "##ici": 2698,
      "Lord": 2699,
      "centrala": 2700,
      "went": 2701,
      "genomsnittlig": 2702,
      "right": 2703,
      "quale": 2704,
      "Show": 2705,
      "next": 2706,
      "Signifikant": 2707,
      "##heid": 2708,
      "lub": 2709,
      "modern": 2710,
      "started": 2711,
      "become": 2712,
      "Russian": 2713,
      "avait": 2714,
      "times": 2715,
      "##ने": 2716,
      "famille": 2717,
      "Columbia": 2718,
      "##nan": 2719,
      "##rna": 2720,
      "primeiro": 2721,
      "case": 2722,
      "##eg": 2723,
      "tous": 2724,
      "##urs": 2725,
      "Russell": 2726,
      "kepada": 2727,
      "ru": 2728,
      "min": 2729,
      "##tat": 2730,
      "real": 2731,
      "Service": 2732,
      "Anne": 2733,
      "Are": 2734,
      "##cija": 2735,
      "tema": 2736,
      "##tura": 2737,
      "Para": 2738,
      "##ous": 2739,
      "students": 2740,
      "ihrer": 2741,
      "##ell": 2742,
      "##ados": 2743,
      "bereits": 2744,
      "given": 2745,
      "avoir": 2746,
      "Une": 2747,
      "1st": 2748,
      "1871": 2749,
      "Roger": 2750,
      "lain": 2751,
      "Ali": 2752,
      "##po": 2753,
      "Billboard": 2754,
      "nordost": 2755,
      "married": 2756,
      "यह": 2757,
      "##mus": 2758,
      "UEFA": 2759,
      "janvier": 2760,
      "uz": 2761,
      "zituzten": 2762,
      "##rer": 2763,
      "Bank": 2764,
      "marca": 2765,
      "Women": 2766,
      "##ता": 2767,
      "##nn": 2768,
      "Kim": 2769,
      "material": 2770,
      "encuentra": 2771,
      "mesmo": 2772,
      "900": 2773,
      "##mes": 2774,
      "various": 2775,
      "akan": 2776,
      "##nim": 2777,
      "average": 2778,
      "dins": 2779,
      "Your": 2780,
      "yra": 2781,
      "fire": 2782,
      "septembre": 2783,
      "Plants": 2784,
      "##ingen": 2785,
      "##ese": 2786,
      "Year": 2787,
      "round": 2788,
      "Otto": 2789,
      "take": 2790,
      "website": 2791,
      "head": 2792,
      "##bra": 2793,
      "Bob": 2794,
      "##cio": 2795,
      "gov": 2796,
      "nin": 2797,
      "origine": 2798,
      "secondo": 2799,
      "morte": 2800,
      "dort": 2801,
      "let": 2802,
      "class": 2803,
      "junto": 2804,
      "##ht": 2805,
      "##ral": 2806,
      "persones": 2807,
      "Inc": 2808,
      "hay": 2809,
      "saison": 2810,
      "Ohio": 2811,
      "octobre": 2812,
      "1861": 2813,
      "samt": 2814,
      "Henri": 2815,
      "kumbang": 2816,
      "Lietuvos": 2817,
      "story": 2818,
      "ihn": 2819,
      "ac": 2820,
      "1864": 2821,
      "Malaysia": 2822,
      "tussen": 2823,
      "ging": 2824,
      "1857": 2825,
      "1879": 2826,
      "Virginia": 2827,
      "zuten": 2828,
      "modo": 2829,
      "##tica": 2830,
      "##yi": 2831,
      "Empire": 2832,
      "Entre": 2833,
      "That": 2834,
      "1800": 2835,
      "##nego": 2836,
      "##ket": 2837,
      "plu": 2838,
      "##eren": 2839,
      "1876": 2840,
      "Jahrhundert": 2841,
      "Up": 2842,
      "altres": 2843,
      "fer": 2844,
      "Wien": 2845,
      "##llo": 2846,
      "Victoria": 2847,
      "without": 2848,
      "date": 2849,
      "##ले": 2850,
      "Esta": 2851,
      "Florida": 2852,
      "equipo": 2853,
      "##िक": 2854,
      "yo": 2855,
      "siglo": 2856,
      "huvudsakligen": 2857,
      "tal": 2858,
      "having": 2859,
      "Reference": 2860,
      "Republic": 2861,
      "Seine": 2862,
      "Boston": 2863,
      "design": 2864,
      "election": 2865,
      "sia": 2866,
      "##ismo": 2867,
      "Special": 2868,
      "beiden": 2869,
      "##ungen": 2870,
      "bahin": 2871,
      "##tz": 2872,
      "mer": 2873,
      "cerca": 2874,
      "altri": 2875,
      "language": 2876,
      "padre": 2877,
      "Queen": 2878,
      "punto": 2879,
      "dai": 2880,
      "FIFA": 2881,
      "store": 2882,
      "VIII": 2883,
      "##iem": 2884,
      "Program": 2885,
      "short": 2886,
      "pop": 2887,
      "##ो": 2888,
      "term": 2889,
      "contro": 2890,
      "##hu": 2891,
      "##bre": 2892,
      "lifayelas": 2893,
      "Foi": 2894,
      "forces": 2895,
      "Alfred": 2896,
      "Ottawa": 2897,
      "##rte": 2898,
      "west": 2899,
      "political": 2900,
      "download": 2901,
      "Francis": 2902,
      "##ero": 2903,
      "Ha": 2904,
      "##igen": 2905,
      "katika": 2906,
      "Ma": 2907,
      "created": 2908,
      "Francesco": 2909,
      "##ement": 2910,
      "Tony": 2911,
      "segunda": 2912,
      "division": 2913,
      "Franz": 2914,
      "Unis": 2915,
      "##gang": 2916,
      "nuo": 2917,
      "Lewis": 2918,
      "##bus": 2919,
      "Een": 2920,
      "##bel": 2921,
      "oficial": 2922,
      "vie": 2923,
      "Old": 2924,
      "cc": 2925,
      "1877": 2926,
      "titre": 2927,
      "##rin": 2928,
      "autre": 2929,
      "momento": 2930,
      "suoi": 2931,
      "##ili": 2932,
      "ara": 2933,
      "ft": 2934,
      "juillet": 2935,
      "##los": 2936,
      "1873": 2937,
      "1863": 2938,
      "1810": 2939,
      "etxek": 2940,
      "था": 2941,
      "metal": 2942,
      "Je": 2943,
      "1875": 2944,
      "nr": 2945,
      "##ila": 2946,
      "however": 2947,
      "Book": 2948,
      "ihr": 2949,
      "1633": 2950,
      "##ging": 2951,
      "Des": 2952,
      "##idad": 2953,
      "Commons": 2954,
      "1865": 2955,
      "programa": 2956,
      "Natural": 2957,
      "##nosti": 2958,
      "##erd": 2959,
      "##ff": 2960,
      "1867": 2961,
      "Frantsesez": 2962,
      "skulle": 2963,
      "few": 2964,
      "mellom": 2965,
      "east": 2966,
      "Digital": 2967,
      "uso": 2968,
      "Diese": 2969,
      "communes": 2970,
      "stesso": 2971,
      "eren": 2972,
      "African": 2973,
      "naselju": 2974,
      "##म": 2975,
      "Sky": 2976,
      "##vis": 2977,
      "##ram": 2978,
      "Japanese": 2979,
      "160": 2980,
      "pays": 2981,
      "aos": 2982,
      "##dia": 2983,
      "professor": 2984,
      "announced": 2985,
      "arte": 2986,
      "manera": 2987,
      "worked": 2988,
      "##rar": 2989,
      "1868": 2990,
      "bez": 2991,
      "##ede": 2992,
      "Stephen": 2993,
      "Patrick": 2994,
      "sei": 2995,
      "Saison": 2996,
      "primeira": 2997,
      "Ray": 2998,
      "ima": 2999,
      "##य": 3000,
      "Villa": 3001,
      "half": 3002,
      "daha": 3003,
      "1850": 3004,
      "##iv": 3005,
      "Some": 3006,
      "Toppen": 3007,
      "Google": 3008,
      "##ong": 3009,
      "XIII": 3010,
      "online": 3011,
      "Robinson": 3012,
      "Taxonomic": 3013,
      "bil": 3014,
      "Home": 3015,
      "Universidad": 3016,
      "Costa": 3017,
      "##iti": 3018,
      "##ando": 3019,
      "Miguel": 3020,
      "dy": 3021,
      "seperti": 3022,
      "Johannes": 3023,
      "180": 3024,
      "joined": 3025,
      "eit": 3026,
      "##jas": 3027,
      "##if": 3028,
      "Region": 3029,
      "project": 3030,
      "1500": 3031,
      "##rus": 3032,
      "See": 3033,
      "economic": 3034,
      "structure": 3035,
      "Romania": 3036,
      "##iques": 3037,
      "Buenos": 3038,
      "dello": 3039,
      "route": 3040,
      "eo": 3041,
      "ass": 3042,
      "hanno": 3043,
      "Nature": 3044,
      "field": 3045,
      "gibt": 3046,
      "1866": 3047,
      "1872": 3048,
      "SS": 3049,
      "erhielt": 3050,
      "XVII": 3051,
      "1859": 3052,
      "theo": 3053,
      "vita": 3054,
      "vir": 3055,
      "wrote": 3056,
      "vi": 3057,
      "sos": 3058,
      "140": 3059,
      "Ia": 3060,
      "Aires": 3061,
      "free": 3062,
      "Airport": 3063,
      "notamment": 3064,
      "##Z": 3065,
      "Sun": 3066,
      "Act": 3067,
      "##nym": 3068,
      "Rainfall": 3069,
      "##ding": 3070,
      "beste": 3071,
      "updated": 3072,
      "seorang": 3073,
      "Brian": 3074,
      "1869": 3075,
      "##ern": 3076,
      "##heim": 3077,
      "ulan": 3078,
      "##las": 3079,
      "##ett": 3080,
      "##nika": 3081,
      "sub": 3082,
      "1862": 3083,
      "days": 3084,
      "lieu": 3085,
      "Geschichte": 3086,
      "##jon": 3087,
      "Georg": 3088,
      "##nas": 3089,
      "Wikipedia": 3090,
      "##ay": 3091,
      "Andrew": 3092,
      "##elle": 3093,
      "diesem": 3094,
      "tarde": 3095,
      "Books": 3096,
      "Lady": 3097,
      "maart": 3098,
      "Jawa": 3099,
      "works": 3100,
      "##ness": 3101,
      "Mario": 3102,
      "actual": 3103,
      "##ani": 3104,
      "God": 3105,
      "Amsterdam": 3106,
      "##ं": 3107,
      "Consultado": 3108,
      "Pro": 3109,
      "Fernando": 3110,
      "Canadian": 3111,
      "Studies": 3112,
      "race": 3113,
      "Bad": 3114,
      "returned": 3115,
      "nije": 3116,
      "1874": 3117,
      "aquest": 3118,
      "Oscar": 3119,
      "quien": 3120,
      "bol": 3121,
      "party": 3122,
      "military": 3123,
      "status": 3124,
      "fi": 3125,
      "waar": 3126,
      "aj": 3127,
      "125": 3128,
      "Seit": 3129,
      "XIV": 3130,
      "przy": 3131,
      "professional": 3132,
      "enpresak": 3133,
      "Online": 3134,
      "Eric": 3135,
      "##ella": 3136,
      "municipio": 3137,
      "Game": 3138,
      "month": 3139,
      "kde": 3140,
      "actor": 3141,
      "##tre": 3142,
      "Enero": 3143,
      "##ु": 3144,
      "release": 3145,
      "##nts": 3146,
      "Za": 3147,
      "##lus": 3148,
      "Institut": 3149,
      "founded": 3150,
      "##tive": 3151,
      "ही": 3152,
      "Londres": 3153,
      "octubre": 3154,
      "##cja": 3155,
      "##dad": 3156,
      "sendo": 3157,
      "Guide": 3158,
      "open": 3159,
      "##lli": 3160,
      "salah": 3161,
      "Fue": 3162,
      "Hot": 3163,
      "Publishing": 3164,
      "run": 3165,
      "Korea": 3166,
      "XII": 3167,
      "XV": 3168,
      "Regie": 3169,
      "Court": 3170,
      "##nus": 3171,
      "tiempo": 3172,
      "2nd": 3173,
      "lead": 3174,
      "research": 3175,
      "Dictionary": 3176,
      "EP": 3177,
      "dessen": 3178,
      "Meksiku": 3179,
      "##owy": 3180,
      "Ludwig": 3181,
      "कि": 3182,
      "##uta": 3183,
      "https": 3184,
      "101": 3185,
      "win": 3186,
      "possible": 3187,
      "faire": 3188,
      "##way": 3189,
      "##nica": 3190,
      "##bach": 3191,
      "color": 3192,
      "Wales": 3193,
      "Oslo": 3194,
      "##vas": 3195,
      "regionen": 3196,
      "Point": 3197,
      "Library": 3198,
      "miles": 3199,
      "pola": 3200,
      "##owych": 3201,
      "homes": 3202,
      "business": 3203,
      "According": 3204,
      "Mission": 3205,
      "guerre": 3206,
      "kanssa": 3207,
      "Marco": 3208,
      "civil": 3209,
      "television": 3210,
      "omkring": 3211,
      "Jakarta": 3212,
      "hem": 3213,
      "inte": 3214,
      "Mundial": 3215,
      "Elizabeth": 3216,
      "lost": 3217,
      "Victor": 3218,
      "nationale": 3219,
      "dag": 3220,
      "Jim": 3221,
      "human": 3222,
      "Pour": 3223,
      "Second": 3224,
      "##erte": 3225,
      "Auf": 3226,
      "Prince": 3227,
      "forme": 3228,
      "Mitglied": 3229,
      "Entertainment": 3230,
      "##tal": 3231,
      "##ae": 3232,
      "denne": 3233,
      "##owej": 3234,
      "##ties": 3235,
      "Como": 3236,
      "church": 3237,
      "action": 3238,
      "##her": 3239,
      "molto": 3240,
      "visini": 3241,
      "##zer": 3242,
      "cours": 3243,
      "##una": 3244,
      "##iro": 3245,
      "secolo": 3246,
      "##xa": 3247,
      "tant": 3248,
      "eus": 3249,
      "gab": 3250,
      "magyar": 3251,
      "hett": 3252,
      "recorded": 3253,
      "sede": 3254,
      "together": 3255,
      "superficie": 3256,
      "siendo": 3257,
      "every": 3258,
      "People": 3259,
      "aveva": 3260,
      "sydost": 3261,
      "##tro": 3262,
      "seguito": 3263,
      "गया": 3264,
      "rei": 3265,
      "Set": 3266,
      "dette": 3267,
      "Miss": 3268,
      "Ta": 3269,
      "anti": 3270,
      "##illa": 3271,
      "##्य": 3272,
      "pertama": 3273,
      "elected": 3274,
      "Ford": 3275,
      "stagione": 3276,
      "leurs": 3277,
      "##owe": 3278,
      "Dan": 3279,
      "Century": 3280,
      "hade": 3281,
      "erano": 3282,
      "इस": 3283,
      "kwa": 3284,
      "estaven": 3285,
      "Sam": 3286,
      "##osa": 3287,
      "##amente": 3288,
      "##bles": 3289,
      "empresa": 3290,
      "continued": 3291,
      "films": 3292,
      "Davis": 3293,
      "dio": 3294,
      "nouveau": 3295,
      "Mount": 3296,
      "considered": 3297,
      "Wolfgang": 3298,
      "zituen": 3299,
      "making": 3300,
      "Station": 3301,
      "menos": 3302,
      "deutschen": 3303,
      "Project": 3304,
      "office": 3305,
      "ok": 3306,
      "platt": 3307,
      "nadmorskoj": 3308,
      "principale": 3309,
      "Alan": 3310,
      "track": 3311,
      "भारत": 3312,
      "moment": 3313,
      "Claude": 3314,
      "##cus": 3315,
      "episode": 3316,
      "Be": 3317,
      "bylo": 3318,
      "yon": 3319,
      "chi": 3320,
      "Fort": 3321,
      "roman": 3322,
      "Carolina": 3323,
      "jednak": 3324,
      "vai": 3325,
      "body": 3326,
      "##ला": 3327,
      "##ori": 3328,
      "IX": 3329,
      "province": 3330,
      "Nueva": 3331,
      "##bia": 3332,
      "example": 3333,
      "nacional": 3334,
      "Nr": 3335,
      "Minister": 3336,
      "Line": 3337,
      "Estado": 3338,
      "Most": 3339,
      "##isk": 3340,
      "Gold": 3341,
      "bajo": 3342,
      "##rne": 3343,
      "policy": 3344,
      "edition": 3345,
      "encore": 3346,
      "##jan": 3347,
      "opened": 3348,
      "ere": 3349,
      "syn": 3350,
      "Town": 3351,
      "algoritmo": 3352,
      "ti": 3353,
      "##hin": 3354,
      "wife": 3355,
      "##nos": 3356,
      "Professor": 3357,
      "Valley": 3358,
      "autor": 3359,
      "##wan": 3360,
      "campo": 3361,
      "Model": 3362,
      "kas": 3363,
      "##ich": 3364,
      "##fi": 3365,
      "teams": 3366,
      "stad": 3367,
      "kaominina": 3368,
      "##ins": 3369,
      "dende": 3370,
      "##gar": 3371,
      "event": 3372,
      "##lui": 3373,
      "##ille": 3374,
      "sinh": 3375,
      "news": 3376,
      "##lige": 3377,
      "Auch": 3378,
      "Golden": 3379,
      "performance": 3380,
      "##lse": 3381,
      "##san": 3382,
      "Cruz": 3383,
      "Spisak": 3384,
      "Carlo": 3385,
      "prema": 3386,
      "Go": 3387,
      "nam": 3388,
      "Enrique": 3389,
      "moins": 3390,
      "eu": 3391,
      "poco": 3392,
      "##ful": 3393,
      "DC": 3394,
      "Jersey": 3395,
      "geographical": 3396,
      "Bernard": 3397,
      "Zealand": 3398,
      "joylashgan": 3399,
      "Sur": 3400,
      "Naselje": 3401,
      "Corporation": 3402,
      "##feld": 3403,
      "active": 3404,
      "bug": 3405,
      "bola": 3406,
      "##nost": 3407,
      "yw": 3408,
      "##haus": 3409,
      "##ntes": 3410,
      "Stone": 3411,
      "sama": 3412,
      "Sydney": 3413,
      "outros": 3414,
      "iku": 3415,
      "Susan": 3416,
      "special": 3417,
      "Austria": 3418,
      "ora": 3419,
      "Committee": 3420,
      "Namen": 3421,
      "sehr": 3422,
      "##uar": 3423,
      "Britannica": 3424,
      "##set": 3425,
      "Other": 3426,
      "Federal": 3427,
      "result": 3428,
      "##del": 3429,
      "##bb": 3430,
      "##lio": 3431,
      "##isme": 3432,
      "put": 3433,
      "Games": 3434,
      "Development": 3435,
      "histoire": 3436,
      "Out": 3437,
      "questa": 3438,
      "altre": 3439,
      "##kel": 3440,
      "Princeton": 3441,
      "##ण": 3442,
      "Familie": 3443,
      "tego": 3444,
      "Who": 3445,
      "qua": 3446,
      "Um": 3447,
      "105": 3448,
      "##ag": 3449,
      "Roy": 3450,
      "Girl": 3451,
      "##ct": 3452,
      "dva": 3453,
      "##kou": 3454,
      "zusammen": 3455,
      "periodo": 3456,
      "1830": 3457,
      "If": 3458,
      "Post": 3459,
      "oko": 3460,
      "sent": 3461,
      "##ments": 3462,
      "estat": 3463,
      "areas": 3464,
      "bahasa": 3465,
      "flere": 3466,
      "##zie": 3467,
      "Trung": 3468,
      "pode": 3469,
      "##isi": 3470,
      "##dal": 3471,
      "damit": 3472,
      "Foundation": 3473,
      "Ernst": 3474,
      "Eesti": 3475,
      "Sin": 3476,
      "mange": 3477,
      "appeared": 3478,
      "##nog": 3479,
      "Space": 3480,
      "##ose": 3481,
      "Factbook": 3482,
      "hag": 3483,
      "peu": 3484,
      "Kong": 3485,
      "available": 3486,
      "kada": 3487,
      "Government": 3488,
      "##nar": 3489,
      "soit": 3490,
      "##ces": 3491,
      "further": 3492,
      "lag": 3493,
      "yari": 3494,
      "front": 3495,
      "##up": 3496,
      "private": 3497,
      "Rome": 3498,
      "Pacific": 3499,
      "##ait": 3500,
      "While": 3501,
      "##fe": 3502,
      "stand": 3503,
      "Stockholm": 3504,
      "san": 3505,
      "growth": 3506,
      "Master": 3507,
      "tard": 3508,
      "Miller": 3509,
      "working": 3510,
      "Latin": 3511,
      "keine": 3512,
      "common": 3513,
      "living": 3514,
      "XI": 3515,
      "developed": 3516,
      "formed": 3517,
      "august": 3518,
      "others": 3519,
      "secara": 3520,
      "Web": 3521,
      "Ireland": 3522,
      "##oi": 3523,
      "##oni": 3524,
      "##ante": 3525,
      "Hollywood": 3526,
      "ligne": 3527,
      "##gas": 3528,
      "estaba": 3529,
      "Public": 3530,
      "Kingdom": 3531,
      "Sverige": 3532,
      "##sson": 3533,
      "labon": 3534,
      "##ean": 3535,
      "Story": 3536,
      "lu": 3537,
      "Spanish": 3538,
      "zif": 3539,
      "Russia": 3540,
      "Diego": 3541,
      "dago": 3542,
      "embargo": 3543,
      "census": 3544,
      "novel": 3545,
      "blir": 3546,
      "nebula": 3547,
      "खः": 3548,
      "##mar": 3549,
      "ise": 3550,
      "veel": 3551,
      "mondiale": 3552,
      "delstaten": 3553,
      "Bruce": 3554,
      "study": 3555,
      "ialah": 3556,
      "dinhi": 3557,
      "Review": 3558,
      "anaa": 3559,
      "bilo": 3560,
      "tako": 3561,
      "1840": 3562,
      "mint": 3563,
      "##Y": 3564,
      "Magnoliopsida": 3565,
      "dentro": 3566,
      "Hymenoptera": 3567,
      "##pus": 3568,
      "nafar": 3569,
      "Order": 3570,
      "eng": 3571,
      "Premier": 3572,
      "##rono": 3573,
      "entry": 3574,
      "Va": 3575,
      "##eta": 3576,
      "Pennsylvania": 3577,
      "Islam": 3578,
      "Alex": 3579,
      "science": 3580,
      "Yn": 3581,
      "official": 3582,
      "##nta": 3583,
      "aquesta": 3584,
      "Port": 3585,
      "##kat": 3586,
      "negara": 3587,
      "young": 3588,
      "Sea": 3589,
      "Premio": 3590,
      "Board": 3591,
      "Budapest": 3592,
      "militar": 3593,
      "Anthony": 3594,
      "##and": 3595,
      "kad": 3596,
      "Lepidoptera": 3597,
      "##ggio": 3598,
      "mycket": 3599,
      "##wood": 3600,
      "obefolkad": 3601,
      "patedik": 3602,
      "addition": 3603,
      "himself": 3604,
      "tuvo": 3605,
      "##ete": 3606,
      "##zia": 3607,
      "Part": 3608,
      "##dores": 3609,
      "great": 3610,
      "2009an": 3611,
      "signed": 3612,
      "gruppo": 3613,
      "although": 3614,
      "Navy": 3615,
      "##oa": 3616,
      "Network": 3617,
      "Movie": 3618,
      "##hen": 3619,
      "bahwa": 3620,
      "mare": 3621,
      "furono": 3622,
      "recensement": 3623,
      "never": 3624,
      "how": 3625,
      "Regional": 3626,
      "gradova": 3627,
      "interior": 3628,
      "tras": 3629,
      "devient": 3630,
      "Battle": 3631,
      "deren": 3632,
      "Last": 3633,
      "Milano": 3634,
      "cultural": 3635,
      "102": 3636,
      "should": 3637,
      "Can": 3638,
      "Janeiro": 3639,
      "otras": 3640,
      "Samuel": 3641,
      "Family": 3642,
      "posto": 3643,
      "bija": 3644,
      "##ट": 3645,
      "##sku": 3646,
      "topon": 3647,
      "##isen": 3648,
      "Geonames": 3649,
      "कथं": 3650,
      "##ette": 3651,
      "maior": 3652,
      "Biography": 3653,
      "Ort": 3654,
      "lett": 3655,
      "##fer": 3656,
      "alta": 3657,
      "NBA": 3658,
      "##tie": 3659,
      "Douglas": 3660,
      "neu": 3661,
      "तथा": 3662,
      "Its": 3663,
      "##ivo": 3664,
      "court": 3665,
      "parti": 3666,
      "Sohn": 3667,
      "celui": 3668,
      "Rose": 3669,
      "bekannt": 3670,
      "##ao": 3671,
      "map": 3672,
      "1858": 3673,
      "wieku": 3674,
      "playing": 3675,
      "Fox": 3676,
      "Main": 3677,
      "disco": 3678,
      "ihren": 3679,
      "staat": 3680,
      "personas": 3681,
      "Non": 3682,
      "csak": 3683,
      "##dt": 3684,
      "section": 3685,
      "appointed": 3686,
      "##nou": 3687,
      "Gordon": 3688,
      "ente": 3689,
      "park": 3690,
      "distrito": 3691,
      "collection": 3692,
      "##werk": 3693,
      "tutti": 3694,
      "Civil": 3695,
      "once": 3696,
      "##get": 3697,
      "Disney": 3698,
      "pendant": 3699,
      "2007an": 3700,
      "Monte": 3701,
      "zm": 3702,
      "ant": 3703,
      "tam": 3704,
      "Illinois": 3705,
      "hon": 3706,
      "Final": 3707,
      "Du": 3708,
      "##ary": 3709,
      "personal": 3710,
      "sea": 3711,
      "idea": 3712,
      "municipal": 3713,
      "talet": 3714,
      "Commission": 3715,
      "away": 3716,
      "education": 3717,
      "selon": 3718,
      "##ora": 3719,
      "hit": 3720,
      "masa": 3721,
      "Roberto": 3722,
      "filme": 3723,
      "##ych": 3724,
      "##dra": 3725,
      "Georges": 3726,
      "Santo": 3727,
      "##lag": 3728,
      "Deze": 3729,
      "##min": 3730,
      "Summer": 3731,
      "##vano": 3732,
      "How": 3733,
      "havde": 3734,
      "bzw": 3735,
      "Country": 3736,
      "FishBase": 3737,
      "exemple": 3738,
      "##pt": 3739,
      "territorio": 3740,
      "befindet": 3741,
      "current": 3742,
      "standard": 3743,
      "must": 3744,
      "donc": 3745,
      "komt": 3746,
      "##less": 3747,
      "vs": 3748,
      "Major": 3749,
      "cas": 3750,
      "##iya": 3751,
      "majd": 3752,
      "350": 3753,
      "Video": 3754,
      "##my": 3755,
      "cuenta": 3756,
      "nich": 3757,
      "allem": 3758,
      "##zza": 3759,
      "quella": 3760,
      "punkt": 3761,
      "Trade": 3762,
      "Anderson": 3763,
      "##ans": 3764,
      "francesa": 3765,
      "Norte": 3766,
      "leader": 3767,
      "dois": 3768,
      "fils": 3769,
      "particular": 3770,
      "enw": 3771,
      "Hamburg": 3772,
      "Microsoft": 3773,
      "##cos": 3774,
      "##tions": 3775,
      "##vet": 3776,
      "politique": 3777,
      "force": 3778,
      "ohne": 3779,
      "mil": 3780,
      "police": 3781,
      "kasadpan": 3782,
      "fast": 3783,
      "person": 3784,
      "black": 3785,
      "ese": 3786,
      "Integrated": 3787,
      "pot": 3788,
      "Pristupljeno": 3789,
      "1856": 3790,
      "lifayels": 3791,
      "dua": 3792,
      "proceni": 3793,
      "gitas": 3794,
      "Sport": 3795,
      "Education": 3796,
      "##owa": 3797,
      "mest": 3798,
      "Leipzig": 3799,
      "Dopo": 3800,
      "polo": 3801,
      "##व": 3802,
      "1854": 3803,
      "Report": 3804,
      "classification": 3805,
      "Casa": 3806,
      "kilometers": 3807,
      "Hong": 3808,
      "return": 3809,
      "##don": 3810,
      "diverse": 3811,
      "Howard": 3812,
      "kang": 3813,
      "suas": 3814,
      "##nto": 3815,
      "yer": 3816,
      "character": 3817,
      "Deutschen": 3818,
      "Heart": 3819,
      "besar": 3820,
      "daerah": 3821,
      "File": 3822,
      "Allen": 3823,
      "though": 3824,
      "##zh": 3825,
      "Like": 3826,
      "does": 3827,
      "##ela": 3828,
      "taken": 3829,
      "Internacional": 3830,
      "Plant": 3831,
      "principalmente": 3832,
      "104": 3833,
      "cinco": 3834,
      "##pan": 3835,
      "Southern": 3836,
      "ella": 3837,
      "aver": 3838,
      "Massachusetts": 3839,
      "aunque": 3840,
      "my": 3841,
      "ham": 3842,
      "Ltd": 3843,
      "across": 3844,
      "weitere": 3845,
      "जो": 3846,
      "Mountain": 3847,
      "especie": 3848,
      "process": 3849,
      "Three": 3850,
      "nakon": 3851,
      "##tto": 3852,
      "Nations": 3853,
      "Campeonato": 3854,
      "bere": 3855,
      "start": 3856,
      "##ama": 3857,
      "1849": 3858,
      "opp": 3859,
      "##ola": 3860,
      "gdzie": 3861,
      "chef": 3862,
      "Theatre": 3863,
      "culture": 3864,
      "square": 3865,
      "hy": 3866,
      "pueden": 3867,
      "##या": 3868,
      "fase": 3869,
      "diversos": 3870,
      "##ast": 3871,
      "##det": 3872,
      "situada": 3873,
      "books": 3874,
      "banyak": 3875,
      "tan": 3876,
      "stor": 3877,
      "##ava": 3878,
      "sine": 3879,
      "samo": 3880,
      "aby": 3881,
      "##tek": 3882,
      "##lari": 3883,
      "##iste": 3884,
      "mal": 3885,
      "##kar": 3886,
      "letech": 3887,
      "##ota": 3888,
      "good": 3889,
      "Joan": 3890,
      "tid": 3891,
      "inn": 3892,
      "##cion": 3893,
      "Planet": 3894,
      "partido": 3895,
      "sang": 3896,
      "Concise": 3897,
      "geen": 3898,
      "Anh": 3899,
      "Village": 3900,
      "help": 3901,
      "Colombia": 3902,
      "1855": 3903,
      "Frankfurt": 3904,
      "deur": 3905,
      "guitar": 3906,
      "dies": 3907,
      "hand": 3908,
      "Georgia": 3909,
      "रूप": 3910,
      "Volume": 3911,
      "##mis": 3912,
      "##rsi": 3913,
      "festival": 3914,
      "daughter": 3915,
      "Christopher": 3916,
      "zone": 3917,
      "source": 3918,
      "nuevo": 3919,
      "##iin": 3920,
      "genre": 3921,
      "Marc": 3922,
      "Toronto": 3923,
      "motor": 3924,
      "fick": 3925,
      "ulohan": 3926,
      "##iden": 3927,
      "white": 3928,
      "homme": 3929,
      "Catherine": 3930,
      "Nahimutang": 3931,
      "klimatzonen": 3932,
      "Soviet": 3933,
      "Business": 3934,
      "performed": 3935,
      "events": 3936,
      "Greek": 3937,
      "थासय्": 3938,
      "todas": 3939,
      "ada": 3940,
      "maja": 3941,
      "mother": 3942,
      "klub": 3943,
      "families": 3944,
      "papel": 3945,
      "minutes": 3946,
      "kawasan": 3947,
      "less": 3948,
      "1852": 3949,
      "Tokyo": 3950,
      "cause": 3951,
      "presente": 3952,
      "currently": 3953,
      "saveznoj": 3954,
      "Tim": 3955,
      "dira": 3956,
      "Mexican": 3957,
      "klima": 3958,
      "kod": 3959,
      "get": 3960,
      "gen": 3961,
      "Norman": 3962,
      "beberapa": 3963,
      "3000": 3964,
      "terra": 3965,
      "sold": 3966,
      "lei": 3967,
      "##sto": 3968,
      "cao": 3969,
      "##iga": 3970,
      "##vy": 3971,
      "drama": 3972,
      "antara": 3973,
      "alcuni": 3974,
      "course": 3975,
      "Manchester": 3976,
      "Northern": 3977,
      "deutscher": 3978,
      "nama": 3979,
      "415": 3980,
      "gave": 3981,
      "largest": 3982,
      "##tin": 3983,
      "stage": 3984,
      "cuatro": 3985,
      "##ije": 3986,
      "##sin": 3987,
      "Magazine": 3988,
      "Moore": 3989,
      "features": 3990,
      "kunne": 3991,
      "Kevin": 3992,
      "upon": 3993,
      "begann": 3994,
      "Will": 3995,
      "Boy": 3996,
      "kui": 3997,
      "##ries": 3998,
      "Deutsche": 3999,
      "Harper": 4000,
      "##art": 4001,
      "mayo": 4002,
      "ancora": 4003,
      "##tzen": 4004,
      "##ping": 4005,
      "##का": 4006,
      "Stanley": 4007,
      "bekend": 4008,
      "alto": 4009,
      "Minor": 4010,
      "##vos": 4011,
      "Kalkulado": 4012,
      "wilayah": 4013,
      "Philippe": 4014,
      "170": 4015,
      "Hotel": 4016,
      "nouvelle": 4017,
      "##gia": 4018,
      "उत्तराखण्ड": 4019,
      "##J": 4020,
      "##stand": 4021,
      "आणि": 4022,
      "##aria": 4023,
      "जाता": 4024,
      "Human": 4025,
      "italiana": 4026,
      "pristupljeno": 4027,
      "Walker": 4028,
      "includes": 4029,
      "##ott": 4030,
      "Pakistan": 4031,
      "magazine": 4032,
      "ebenfalls": 4033,
      "Middle": 4034,
      "obras": 4035,
      "ani": 4036,
      "##ningen": 4037,
      "directed": 4038,
      "Gabriel": 4039,
      "change": 4040,
      "grad": 4041,
      "oa": 4042,
      "भारतया": 4043,
      "songs": 4044,
      "seconda": 4045,
      "FM": 4046,
      "##dar": 4047,
      "Omgivningarna": 4048,
      "##ias": 4049,
      "Death": 4050,
      "##lta": 4051,
      "##hus": 4052,
      "Catholic": 4053,
      "Hoa": 4054,
      "Michigan": 4055,
      "##vin": 4056,
      "Director": 4057,
      "Universal": 4058,
      "hacia": 4059,
      "kommun": 4060,
      "road": 4061,
      "andra": 4062,
      "##imo": 4063,
      "sale": 4064,
      "##nne": 4065,
      "ouest": 4066,
      "quello": 4067,
      "sense": 4068,
      "Finland": 4069,
      "ins": 4070,
      "alt": 4071,
      "cultura": 4072,
      "kako": 4073,
      "statunitense": 4074,
      "Sports": 4075,
      "ditu": 4076,
      "##its": 4077,
      "quali": 4078,
      "diferentes": 4079,
      "designed": 4080,
      "Burton": 4081,
      "Gary": 4082,
      "DNA": 4083,
      "varios": 4084,
      "##port": 4085,
      "Bell": 4086,
      "selbst": 4087,
      "##ierte": 4088,
      "##asi": 4089,
      "neue": 4090,
      "##ish": 4091,
      "quelques": 4092,
      "Ze": 4093,
      "Small": 4094,
      "1851": 4095,
      "text": 4096,
      "##heit": 4097,
      "ordre": 4098,
      "ona": 4099,
      "lange": 4100,
      "Jane": 4101,
      "Johnny": 4102,
      "##द": 4103,
      "103": 4104,
      "ger": 4105,
      "months": 4106,
      "originally": 4107,
      "issue": 4108,
      "gol": 4109,
      "##fen": 4110,
      "Maurice": 4111,
      "##dom": 4112,
      "##house": 4113,
      "1853": 4114,
      "sol": 4115,
      "famiglia": 4116,
      "libro": 4117,
      "parts": 4118,
      "hebben": 4119,
      "shows": 4120,
      "tae": 4121,
      "ensemble": 4122,
      "##wie": 4123,
      "Coppa": 4124,
      "depois": 4125,
      "##leg": 4126,
      "7th": 4127,
      "celle": 4128,
      "maggio": 4129,
      "settembre": 4130,
      "##tore": 4131,
      "##ios": 4132,
      "Since": 4133,
      "##yo": 4134,
      "Ab": 4135,
      "Est": 4136,
      "direction": 4137,
      "range": 4138,
      "Beach": 4139,
      "altra": 4140,
      "quindi": 4141,
      "mid": 4142,
      "mod": 4143,
      "usa": 4144,
      "##din": 4145,
      "grup": 4146,
      "league": 4147,
      "##ient": 4148,
      "##ial": 4149,
      "format": 4150,
      "apenas": 4151,
      "katalog": 4152,
      "Irish": 4153,
      "low": 4154,
      "digunakan": 4155,
      "##king": 4156,
      "center": 4157,
      "Ivan": 4158,
      "vu": 4159,
      "tri": 4160,
      "##tel": 4161,
      "Hitler": 4162,
      "tegen": 4163,
      "regione": 4164,
      "##bile": 4165,
      "neuen": 4166,
      "groups": 4167,
      "climate": 4168,
      "toda": 4169,
      "Denne": 4170,
      "seen": 4171,
      "anderem": 4172,
      "nova": 4173,
      "##ली": 4174,
      "1846": 4175,
      "sammen": 4176,
      "Way": 4177,
      "giugno": 4178,
      "Province": 4179,
      "Cross": 4180,
      "regular": 4181,
      "anterior": 4182,
      "##tum": 4183,
      "Vuonna": 4184,
      "##erde": 4185,
      "Arten": 4186,
      "##liga": 4187,
      "Giuseppe": 4188,
      "115": 4189,
      "roi": 4190,
      "Light": 4191,
      "##mia": 4192,
      "aantal": 4193,
      "ba": 4194,
      "followed": 4195,
      "planet": 4196,
      "Venezuela": 4197,
      "ku": 4198,
      "quanto": 4199,
      "##tur": 4200,
      "Centro": 4201,
      "coach": 4202,
      "classe": 4203,
      "##gs": 4204,
      "Over": 4205,
      "##ev": 4206,
      "Johan": 4207,
      "##lon": 4208,
      "##red": 4209,
      "departamento": 4210,
      "##jes": 4211,
      "##ngen": 4212,
      "disse": 4213,
      "##menti": 4214,
      "stycznia": 4215,
      "Norge": 4216,
      "training": 4217,
      "Historia": 4218,
      "##ngan": 4219,
      "Name": 4220,
      "septiembre": 4221,
      "Mar": 4222,
      "vocals": 4223,
      "denen": 4224,
      "brother": 4225,
      "Clark": 4226,
      "##tori": 4227,
      "taun": 4228,
      "Mais": 4229,
      "Josef": 4230,
      "Fall": 4231,
      "statt": 4232,
      "Suomen": 4233,
      "1847": 4234,
      "julio": 4235,
      "medio": 4236,
      "gennaio": 4237,
      "light": 4238,
      "telt": 4239,
      "seven": 4240,
      "numero": 4241,
      "biztanle": 4242,
      "##mit": 4243,
      "##gh": 4244,
      "1815": 4245,
      "lado": 4246,
      "##oval": 4247,
      "##ू": 4248,
      "pels": 4249,
      "##usi": 4250,
      "episodio": 4251,
      "completed": 4252,
      "Although": 4253,
      "karena": 4254,
      "Kelly": 4255,
      "##lijk": 4256,
      "double": 4257,
      "jeden": 4258,
      "##rak": 4259,
      "##cal": 4260,
      "Alberto": 4261,
      "##hn": 4262,
      "dabei": 4263,
      "##ई": 4264,
      "##zar": 4265,
      "riktning": 4266,
      "##like": 4267,
      "Milan": 4268,
      "mientras": 4269,
      "Meter": 4270,
      "Loire": 4271,
      "हे": 4272,
      "lenghe": 4273,
      "dalle": 4274,
      "220": 4275,
      "Marcus": 4276,
      "Institution": 4277,
      "##yon": 4278,
      "111": 4279,
      "gdje": 4280,
      "Macmillan": 4281,
      "Ontario": 4282,
      "januar": 4283,
      "uns": 4284,
      "Jahrhunderts": 4285,
      "importantes": 4286,
      "Alpes": 4287,
      "terme": 4288,
      "Jesus": 4289,
      "Hermann": 4290,
      "##iz": 4291,
      "Dance": 4292,
      "segle": 4293,
      "थी": 4294,
      "bad": 4295,
      "test": 4296,
      "pag": 4297,
      "lista": 4298,
      "107": 4299,
      "108": 4300,
      "Hamilton": 4301,
      "##oli": 4302,
      "size": 4303,
      "zou": 4304,
      "##gio": 4305,
      "superior": 4306,
      "cargo": 4307,
      "senere": 4308,
      "mise": 4309,
      "ISO": 4310,
      "##well": 4311,
      "pedig": 4312,
      "cinq": 4313,
      "ante": 4314,
      "negli": 4315,
      "Frantziako": 4316,
      "szerint": 4317,
      "junio": 4318,
      "##bau": 4319,
      "permet": 4320,
      "featured": 4321,
      "killed": 4322,
      "##zeit": 4323,
      "Popis": 4324,
      "Ann": 4325,
      "##ions": 4326,
      "senza": 4327,
      "presenta": 4328,
      "Stand": 4329,
      "habagatan": 4330,
      "governo": 4331,
      "luglio": 4332,
      "ottobre": 4333,
      "##owego": 4334,
      "sue": 4335,
      "Billy": 4336,
      "dir": 4337,
      "Mann": 4338,
      "Wild": 4339,
      "semi": 4340,
      "volume": 4341,
      "cara": 4342,
      "tej": 4343,
      "##smo": 4344,
      "panjang": 4345,
      "nahm": 4346,
      "usually": 4347,
      "countries": 4348,
      "spielte": 4349,
      "##rik": 4350,
      "throughout": 4351,
      "1845": 4352,
      "daripada": 4353,
      "##ात": 4354,
      "##tico": 4355,
      "bod": 4356,
      "Back": 4357,
      "##wi": 4358,
      "Ferdinand": 4359,
      "desa": 4360,
      "Health": 4361,
      "##lde": 4362,
      "Provincia": 4363,
      "360": 4364,
      "moderne": 4365,
      "ciutat": 4366,
      "##oon": 4367,
      "Vietnam": 4368,
      "bagi": 4369,
      "verso": 4370,
      "reported": 4371,
      "Hugo": 4372,
      "More": 4373,
      "fikk": 4374,
      "lokala": 4375,
      "carrera": 4376,
      "1842": 4377,
      "##ec": 4378,
      "tidligere": 4379,
      "ibabaw": 4380,
      "Nelson": 4381,
      "##zio": 4382,
      "alguns": 4383,
      "Technology": 4384,
      "immer": 4385,
      "Puerto": 4386,
      "trouve": 4387,
      "##uit": 4388,
      "finished": 4389,
      "Del": 4390,
      "page": 4391,
      "##yan": 4392,
      "Philadelphia": 4393,
      "remained": 4394,
      "##car": 4395,
      "Congress": 4396,
      "Edition": 4397,
      "enero": 4398,
      "jonka": 4399,
      "unos": 4400,
      "dicembre": 4401,
      "##eo": 4402,
      "amihanan": 4403,
      "oro": 4404,
      "Field": 4405,
      "surface": 4406,
      "Down": 4407,
      "membres": 4408,
      "cum": 4409,
      "schools": 4410,
      "Barbara": 4411,
      "Fire": 4412,
      "asli": 4413,
      "##ades": 4414,
      "240": 4415,
      "leading": 4416,
      "players": 4417,
      "sumala": 4418,
      "##ture": 4419,
      "transport": 4420,
      "Hospital": 4421,
      "khu": 4422,
      "Britain": 4423,
      "sotto": 4424,
      "norsk": 4425,
      "platsen": 4426,
      "above": 4427,
      "##gel": 4428,
      "Not": 4429,
      "kommunen": 4430,
      "software": 4431,
      "Studio": 4432,
      "##idade": 4433,
      "1844": 4434,
      "Stuttgart": 4435,
      "Sul": 4436,
      "##dem": 4437,
      "ABC": 4438,
      "sites": 4439,
      "DJ": 4440,
      "byly": 4441,
      "Nederland": 4442,
      "vuoden": 4443,
      "Alice": 4444,
      "mondo": 4445,
      "biasonyo": 4446,
      "close": 4447,
      "##wych": 4448,
      "molt": 4449,
      "cover": 4450,
      "##ones": 4451,
      "##ap": 4452,
      "Dave": 4453,
      "##xe": 4454,
      "membre": 4455,
      "Titel": 4456,
      "ainda": 4457,
      "individual": 4458,
      "##hed": 4459,
      "wenn": 4460,
      "college": 4461,
      "106": 4462,
      "##miento": 4463,
      "Moon": 4464,
      "geslacht": 4465,
      "gas": 4466,
      "##uan": 4467,
      "##adas": 4468,
      "foar": 4469,
      "podczas": 4470,
      "Sri": 4471,
      "edo": 4472,
      "Andrea": 4473,
      "debido": 4474,
      "##sy": 4475,
      "either": 4476,
      "##tud": 4477,
      "contract": 4478,
      "prin": 4479,
      "##jem": 4480,
      "kemudian": 4481,
      "##dade": 4482,
      "##ule": 4483,
      "##sky": 4484,
      "week": 4485,
      "##shi": 4486,
      "##mal": 4487,
      "estos": 4488,
      "Free": 4489,
      "Nick": 4490,
      "Directory": 4491,
      "112": 4492,
      "##ony": 4493,
      "begin": 4494,
      "francese": 4495,
      "love": 4496,
      "Near": 4497,
      "##kte": 4498,
      "sistem": 4499,
      "SAD": 4500,
      "Jazz": 4501,
      "1814": 4502,
      "Spain": 4503,
      "awarded": 4504,
      "dernier": 4505,
      "jeung": 4506,
      "gewann": 4507,
      "muito": 4508,
      "elles": 4509,
      "aircraft": 4510,
      "1837": 4511,
      "ellos": 4512,
      "drie": 4513,
      "Jorge": 4514,
      "tika": 4515,
      "aprile": 4516,
      "Vincent": 4517,
      "##tia": 4518,
      "Leben": 4519,
      "bay": 4520,
      "diciembre": 4521,
      "esa": 4522,
      "mezi": 4523,
      "##skiego": 4524,
      "Val": 4525,
      "कर": 4526,
      "Dark": 4527,
      "128": 4528,
      "able": 4529,
      "Lawrence": 4530,
      "space": 4531,
      "##ech": 4532,
      "chez": 4533,
      "Dat": 4534,
      "##ult": 4535,
      "Rudolf": 4536,
      "simple": 4537,
      "##stein": 4538,
      "साथ": 4539,
      "##nden": 4540,
      "saat": 4541,
      "termine": 4542,
      "##bes": 4543,
      "tenia": 4544,
      "##sed": 4545,
      "##fall": 4546,
      "1839": 4547,
      "eight": 4548,
      "Theater": 4549,
      "specie": 4550,
      "Jimmy": 4551,
      "Nederlandse": 4552,
      "syns": 4553,
      "Zu": 4554,
      "##wski": 4555,
      "Et": 4556,
      "Adolf": 4557,
      "Orthoptera": 4558,
      "##rse": 4559,
      "Anton": 4560,
      "Med": 4561,
      "involved": 4562,
      "##uto": 4563,
      "Hun": 4564,
      "bili": 4565,
      "##skim": 4566,
      "##lah": 4567,
      "1834": 4568,
      "करने": 4569,
      "niveau": 4570,
      "frente": 4571,
      "About": 4572,
      "##int": 4573,
      "Polski": 4574,
      "kadar": 4575,
      "Single": 4576,
      "Sherman": 4577,
      "hab": 4578,
      "primordial": 4579,
      "noviembre": 4580,
      "1835": 4581,
      "agua": 4582,
      "##ches": 4583,
      "ogni": 4584,
      "waard": 4585,
      "Code": 4586,
      "##mon": 4587,
      "Missouri": 4588,
      "Nobel": 4589,
      "Baden": 4590,
      "madre": 4591,
      "esas": 4592,
      "added": 4593,
      "interno": 4594,
      "bin": 4595,
      "federal": 4596,
      "##rta": 4597,
      "109": 4598,
      "##ving": 4599,
      "least": 4600,
      "##rk": 4601,
      "mukaan": 4602,
      "Township": 4603,
      "Charlie": 4604,
      "pol": 4605,
      "nuovo": 4606,
      "Minnesota": 4607,
      "##dur": 4608,
      "kiradi": 4609,
      "Eastern": 4610,
      "##ort": 4611,
      "##itat": 4612,
      "estava": 4613,
      "states": 4614,
      "##nh": 4615,
      "persona": 4616,
      "Khan": 4617,
      "##oja": 4618,
      "Systema": 4619,
      "eventually": 4620,
      "gang": 4621,
      "wegen": 4622,
      "ek": 4623,
      "Come": 4624,
      "Barat": 4625,
      "द्वारा": 4626,
      "gobierno": 4627,
      "fram": 4628,
      "attack": 4629,
      "pertsona": 4630,
      "formation": 4631,
      "1838": 4632,
      "porque": 4633,
      "Dead": 4634,
      "Menschen": 4635,
      "##pes": 4636,
      "PC": 4637,
      "##sing": 4638,
      "Guy": 4639,
      "schon": 4640,
      "135": 4641,
      "horisonten": 4642,
      "Jordan": 4643,
      "##bor": 4644,
      "##nio": 4645,
      "नं": 4646,
      "Era": 4647,
      "##led": 4648,
      "Ana": 4649,
      "listopada": 4650,
      "##ors": 4651,
      "##ना": 4652,
      "##gue": 4653,
      "related": 4654,
      "kali": 4655,
      "##gos": 4656,
      "कुल": 4657,
      "Blues": 4658,
      "metres": 4659,
      "Jonathan": 4660,
      "trung": 4661,
      "Later": 4662,
      "nivel": 4663,
      "##film": 4664,
      "especies": 4665,
      "giiniton": 4666,
      "storia": 4667,
      "##ming": 4668,
      "##tle": 4669,
      "habitatges": 4670,
      "Porto": 4671,
      "artist": 4672,
      "Ten": 4673,
      "artean": 4674,
      "Junior": 4675,
      "kinabugnawan": 4676,
      "kinainitan": 4677,
      "kwam": 4678,
      "##dre": 4679,
      "Pape": 4680,
      "##ab": 4681,
      "##nice": 4682,
      "Mas": 4683,
      "Conference": 4684,
      "tarkibiga": 4685,
      "plant": 4686,
      "Boys": 4687,
      "##kov": 4688,
      "Ook": 4689,
      "godina": 4690,
      "1843": 4691,
      "Donald": 4692,
      "##kas": 4693,
      "##nna": 4694,
      "Nicolas": 4695,
      "anak": 4696,
      "##rice": 4697,
      "अभिगमन": 4698,
      "gibi": 4699,
      "regional": 4700,
      "degree": 4701,
      "##ance": 4702,
      "Trong": 4703,
      "Ryan": 4704,
      "kota": 4705,
      "student": 4706,
      "##bin": 4707,
      "replaced": 4708,
      "cases": 4709,
      "jaren": 4710,
      "Management": 4711,
      "muerte": 4712,
      "##eti": 4713,
      "provided": 4714,
      "Jacob": 4715,
      "rok": 4716,
      "svoje": 4717,
      "##nder": 4718,
      "1831": 4719,
      "huet": 4720,
      "grupos": 4721,
      "rue": 4722,
      "existe": 4723,
      "marinespecies": 4724,
      "unit": 4725,
      "wis": 4726,
      "Amt": 4727,
      "sondern": 4728,
      "genannt": 4729,
      "Course": 4730,
      "Gruppe": 4731,
      "Duke": 4732,
      "##iske": 4733,
      "untuak": 4734,
      "centrale": 4735,
      "sta": 4736,
      "##iche": 4737,
      "jossa": 4738,
      "##sal": 4739,
      "medal": 4740,
      "SIMBAD": 4741,
      "eau": 4742,
      "otra": 4743,
      "winning": 4744,
      "vice": 4745,
      "छगू": 4746,
      "kraju": 4747,
      "erstmals": 4748,
      "Tod": 4749,
      "Sarah": 4750,
      "Asteroid": 4751,
      "sera": 4752,
      "casi": 4753,
      "##aire": 4754,
      "proti": 4755,
      "Channel": 4756,
      "##wany": 4757,
      "byen": 4758,
      "Ele": 4759,
      "Magyar": 4760,
      "Indiana": 4761,
      "prvi": 4762,
      "titolo": 4763,
      "self": 4764,
      "hos": 4765,
      "Desde": 4766,
      "revista": 4767,
      "Terra": 4768,
      "##cho": 4769,
      "jezik": 4770,
      "Ian": 4771,
      "independent": 4772,
      "Tropical": 4773,
      "goal": 4774,
      "##pp": 4775,
      "##ized": 4776,
      "1812": 4777,
      "1836": 4778,
      "Dette": 4779,
      "editor": 4780,
      "echter": 4781,
      "##rit": 4782,
      "ul": 4783,
      "##wej": 4784,
      "##ow": 4785,
      "nieuwe": 4786,
      "1644": 4787,
      "producer": 4788,
      "Levy": 4789,
      "dones": 4790,
      "vista": 4791,
      "nature": 4792,
      "खने": 4793,
      "presso": 4794,
      "gjennom": 4795,
      "Reino": 4796,
      "certain": 4797,
      "competition": 4798,
      "1841": 4799,
      "star": 4800,
      "normal": 4801,
      "estar": 4802,
      "117": 4803,
      "Maydoni": 4804,
      "##dorf": 4805,
      "Stadium": 4806,
      "planta": 4807,
      "kommune": 4808,
      "zde": 4809,
      "internacional": 4810,
      "anu": 4811,
      "Franco": 4812,
      "sidlakan": 4813,
      "##kim": 4814,
      "Winter": 4815,
      "##var": 4816,
      "algunos": 4817,
      "##maan": 4818,
      "##ovi": 4819,
      "होता": 4820,
      "aphia": 4821,
      "taxdetails": 4822,
      "Museo": 4823,
      "Bruno": 4824,
      "190": 4825,
      "##over": 4826,
      "Harris": 4827,
      "studies": 4828,
      "praefecturae": 4829,
      "Rosa": 4830,
      "grote": 4831,
      "western": 4832,
      "compte": 4833,
      "##vad": 4834,
      "Com": 4835,
      "too": 4836,
      "squadra": 4837,
      "Keith": 4838,
      "##amento": 4839,
      "mediana": 4840,
      "Ross": 4841,
      "rights": 4842,
      "##jski": 4843,
      "otro": 4844,
      "atas": 4845,
      "Greenwood": 4846,
      "##lat": 4847,
      "camp": 4848,
      "सन्": 4849,
      "sulod": 4850,
      "einige": 4851,
      "clubs": 4852,
      "1600": 4853,
      "future": 4854,
      "zoals": 4855,
      "siden": 4856,
      "seme": 4857,
      "sabuah": 4858,
      "450": 4859,
      "ver": 4860,
      "entonces": 4861,
      "ensuite": 4862,
      "##az": 4863,
      "Gesellschaft": 4864,
      "##ania": 4865,
      "Chief": 4866,
      "Kansas": 4867,
      "etapa": 4868,
      "fort": 4869,
      "Atlantic": 4870,
      "##py": 4871,
      "previous": 4872,
      "Harvard": 4873,
      "little": 4874,
      "##uma": 4875,
      "Railway": 4876,
      "mao": 4877,
      "estilo": 4878,
      "1832": 4879,
      "Girls": 4880,
      "Apollo": 4881,
      "##hr": 4882,
      "1833": 4883,
      "tweede": 4884,
      "female": 4885,
      "Pays": 4886,
      "Brazil": 4887,
      "samme": 4888,
      "etxebizitza": 4889,
      "systems": 4890,
      "##elt": 4891,
      "##logia": 4892,
      "Four": 4893,
      "Landkreis": 4894,
      "insieme": 4895,
      "1820": 4896,
      "End": 4897,
      "ancien": 4898,
      "##ario": 4899,
      "estadounidense": 4900,
      "Germania": 4901,
      "Frau": 4902,
      "febbraio": 4903,
      "MTV": 4904,
      "Third": 4905,
      "oma": 4906,
      "नहीं": 4907,
      "Jason": 4908,
      "Haus": 4909,
      "Timur": 4910,
      "Teatro": 4911,
      "3rd": 4912,
      "Polsce": 4913,
      "Andy": 4914,
      "uk": 4915,
      "hele": 4916,
      "##ute": 4917,
      "Benjamin": 4918,
      "gmina": 4919,
      "Renaissance": 4920,
      "##bio": 4921,
      "febrero": 4922,
      "##llen": 4923,
      "##vanje": 4924,
      "##eno": 4925,
      "trat": 4926,
      "qiladi": 4927,
      "##ef": 4928,
      "##sus": 4929,
      "##pis": 4930,
      "##wo": 4931,
      "wel": 4932,
      "Head": 4933,
      "##eu": 4934,
      "oltre": 4935,
      "##ires": 4936,
      "Gwefan": 4937,
      "Opera": 4938,
      "Salvador": 4939,
      "Ils": 4940,
      "Machine": 4941,
      "iar": 4942,
      "Kabupaten": 4943,
      "Segunda": 4944,
      "environ": 4945,
      "indrindra": 4946,
      "novo": 4947,
      "##ischer": 4948,
      "anul": 4949,
      "tempat": 4950,
      "Herbert": 4951,
      "zbog": 4952,
      "rather": 4953,
      "Baker": 4954,
      "##schaft": 4955,
      "pay": 4956,
      "provide": 4957,
      "Islands": 4958,
      "kecamatan": 4959,
      "port": 4960,
      "Oliver": 4961,
      "publication": 4962,
      "whose": 4963,
      "rol": 4964,
      "nombreux": 4965,
      "##ats": 4966,
      "Leo": 4967,
      "tien": 4968,
      "Fred": 4969,
      "230": 4970,
      "##ym": 4971,
      "pdf": 4972,
      "1793": 4973,
      "##ase": 4974,
      "##ped": 4975,
      "Sierra": 4976,
      "Asian": 4977,
      "Scotland": 4978,
      "night": 4979,
      "kleine": 4980,
      "nummer": 4981,
      "placed": 4982,
      "##och": 4983,
      "canal": 4984,
      "ground": 4985,
      "dues": 4986,
      "राज्य": 4987,
      "Mac": 4988,
      "fourth": 4989,
      "toute": 4990,
      "largo": 4991,
      "digital": 4992,
      "Erik": 4993,
      "Form": 4994,
      "Graham": 4995,
      "minister": 4996,
      "direct": 4997,
      "manager": 4998,
      "ayant": 4999,
      "Kreis": 5000,
      "don": 5001,
      "gjorde": 5002,
      "##च": 5003,
      "genom": 5004,
      "ag": 5005,
      "Lincoln": 5006,
      "Sein": 5007,
      "##aux": 5008,
      "jour": 5009,
      "Collins": 5010,
      "generale": 5011,
      "Adams": 5012,
      "bass": 5013,
      "bilan": 5014,
      "forte": 5015,
      "namn": 5016,
      "code": 5017,
      "river": 5018,
      "fatto": 5019,
      "bezeichnet": 5020,
      "123": 5021,
      "seines": 5022,
      "udalerrian": 5023,
      "Matt": 5024,
      "But": 5025,
      "114": 5026,
      "##skog": 5027,
      "Wright": 5028,
      "##ics": 5029,
      "label": 5030,
      "czerwca": 5031,
      "Songs": 5032,
      "Hy": 5033,
      "##ward": 5034,
      "113": 5035,
      "ami": 5036,
      "##dio": 5037,
      "grudnia": 5038,
      "##weg": 5039,
      "##rii": 5040,
      "tog": 5041,
      "success": 5042,
      "health": 5043,
      "Republik": 5044,
      "kimi": 5045,
      "ISSN": 5046,
      "owned": 5047,
      "Body": 5048,
      "nueva": 5049,
      "Prize": 5050,
      "quattro": 5051,
      "##umi": 5052,
      "##ned": 5053,
      "oan": 5054,
      "##xo": 5055,
      "##gal": 5056,
      "HMS": 5057,
      "review": 5058,
      "mission": 5059,
      "Tag": 5060,
      "author": 5061,
      "introduced": 5062,
      "ever": 5063,
      "##oma": 5064,
      "1821": 5065,
      "Sekolah": 5066,
      "upp": 5067,
      "ran": 5068,
      "arts": 5069,
      "americano": 5070,
      "##wer": 5071,
      "750": 5072,
      "##hl": 5073,
      "corpo": 5074,
      "Fu": 5075,
      "##ento": 5076,
      "erst": 5077,
      "##logie": 5078,
      "densidad": 5079,
      "Castle": 5080,
      "diesen": 5081,
      "stated": 5082,
      "tienen": 5083,
      "porte": 5084,
      "seis": 5085,
      "Baby": 5086,
      "rund": 5087,
      "taona": 5088,
      "##lles": 5089,
      "Champion": 5090,
      "Dipterorum": 5091,
      "mois": 5092,
      "Partido": 5093,
      "Justice": 5094,
      "reached": 5095,
      "orbit": 5096,
      "sedan": 5097,
      "##ides": 5098,
      "Nazionale": 5099,
      "dr": 5100,
      "116": 5101,
      "Libraries": 5102,
      "##lte": 5103,
      "Arizona": 5104,
      "Another": 5105,
      "bisa": 5106,
      "Welt": 5107,
      "februar": 5108,
      "norra": 5109,
      "##ह": 5110,
      "Colorado": 5111,
      "saw": 5112,
      "##gy": 5113,
      "Efter": 5114,
      "Just": 5115,
      "siguiente": 5116,
      "Jewish": 5117,
      "Now": 5118,
      "almost": 5119,
      "movement": 5120,
      "artista": 5121,
      "Regiment": 5122,
      "gebied": 5123,
      "Palgrave": 5124,
      "210": 5125,
      "Frederick": 5126,
      "Morgan": 5127,
      "aasta": 5128,
      "##skih": 5129,
      "##ets": 5130,
      "legal": 5131,
      "##bal": 5132,
      "Gustav": 5133,
      "tallet": 5134,
      "Let": 5135,
      "##isten": 5136,
      "agli": 5137,
      "rehiyon": 5138,
      "management": 5139,
      "Sainte": 5140,
      "petit": 5141,
      "behind": 5142,
      "southern": 5143,
      "Dalam": 5144,
      "Musik": 5145,
      "troch": 5146,
      "Today": 5147,
      "Morris": 5148,
      "units": 5149,
      "##kog": 5150,
      "Revolution": 5151,
      "letzten": 5152,
      "mempunyai": 5153,
      "basis": 5154,
      "Liste": 5155,
      "network": 5156,
      "Historical": 5157,
      "Robin": 5158,
      "##dus": 5159,
      "##igt": 5160,
      "skal": 5161,
      "maakt": 5162,
      "chiesa": 5163,
      "Charlotte": 5164,
      "Studios": 5165,
      "jordbruksmark": 5166,
      "proprio": 5167,
      "zegoen": 5168,
      "Selected": 5169,
      "neben": 5170,
      "UNESCO": 5171,
      "Pablo": 5172,
      "Bayern": 5173,
      "sve": 5174,
      "##ते": 5175,
      "##dig": 5176,
      "Guinea": 5177,
      "Object": 5178,
      "costa": 5179,
      "Apple": 5180,
      "complex": 5181,
      "Jeff": 5182,
      "nagy": 5183,
      "beide": 5184,
      "Santos": 5185,
      "##inin": 5186,
      "Cuba": 5187,
      "Gallery": 5188,
      "##sme": 5189,
      "##rde": 5190,
      "egyik": 5191,
      "quasi": 5192,
      "obce": 5193,
      "scored": 5194,
      "1200": 5195,
      "Express": 5196,
      "cantante": 5197,
      "cel": 5198,
      "##und": 5199,
      "Many": 5200,
      "epi": 5201,
      "Corps": 5202,
      "Wang": 5203,
      "##hausen": 5204,
      "Daily": 5205,
      "mat": 5206,
      "dieses": 5207,
      "Rusia": 5208,
      "##iai": 5209,
      "CIA": 5210,
      "Edwards": 5211,
      "Championships": 5212,
      "Christmas": 5213,
      "Contemporary": 5214,
      "faritr": 5215,
      "Luigi": 5216,
      "decided": 5217,
      "Danmark": 5218,
      "##sz": 5219,
      "निसें": 5220,
      "##ament": 5221,
      "steht": 5222,
      "##्या": 5223,
      "3D": 5224,
      "profesor": 5225,
      "1825": 5226,
      "length": 5227,
      "pak": 5228,
      "##ities": 5229,
      "Kilometer": 5230,
      "hui": 5231,
      "municipality": 5232,
      "Mars": 5233,
      "parents": 5234,
      "biasanya": 5235,
      "feet": 5236,
      "उत्तर": 5237,
      "##pin": 5238,
      "tinha": 5239,
      "besteht": 5240,
      "influence": 5241,
      "tale": 5242,
      "Remix": 5243,
      "ship": 5244,
      "souvent": 5245,
      "lipca": 5246,
      "oldu": 5247,
      "market": 5248,
      "Fritz": 5249,
      "conditions": 5250,
      "Dream": 5251,
      "zweiten": 5252,
      "1700": 5253,
      "campaign": 5254,
      "Raymond": 5255,
      "brought": 5256,
      "successful": 5257,
      "commercial": 5258,
      "##wane": 5259,
      "rest": 5260,
      "jeu": 5261,
      "northern": 5262,
      "Andreas": 5263,
      "Paolo": 5264,
      "Kiba": 5265,
      "ob": 5266,
      "Ces": 5267,
      "Survey": 5268,
      "Medal": 5269,
      "custodian": 5270,
      "provincie": 5271,
      "##sar": 5272,
      "island": 5273,
      "##lang": 5274,
      "Vilnius": 5275,
      "meses": 5276,
      "duas": 5277,
      "tutto": 5278,
      "doit": 5279,
      "Arab": 5280,
      "need": 5281,
      "produce": 5282,
      "##fica": 5283,
      "sierpnia": 5284,
      "abitanti": 5285,
      "Stati": 5286,
      "soll": 5287,
      "Doctor": 5288,
      "reste": 5289,
      "principales": 5290,
      "mans": 5291,
      "county": 5292,
      "approximately": 5293,
      "Age": 5294,
      "tournament": 5295,
      "luego": 5296,
      "##ord": 5297,
      "##aa": 5298,
      "udalerri": 5299,
      "1829": 5300,
      "Stefan": 5301,
      "Durch": 5302,
      "tetapi": 5303,
      "##tiva": 5304,
      "##sie": 5305,
      "ole": 5306,
      "Praha": 5307,
      "kW": 5308,
      "##ज": 5309,
      "##stan": 5310,
      "##any": 5311,
      "male": 5312,
      "sector": 5313,
      "121": 5314,
      "AS": 5315,
      "##kon": 5316,
      "Meksiko": 5317,
      "industry": 5318,
      "Bridge": 5319,
      "instead": 5320,
      "##gne": 5321,
      "Papa": 5322,
      "stati": 5323,
      "Sound": 5324,
      "enpresa": 5325,
      "Par": 5326,
      "5000": 5327,
      "##ip": 5328,
      "Cultural": 5329,
      "turno": 5330,
      "Champions": 5331,
      "##dis": 5332,
      "THE": 5333,
      "1828": 5334,
      "our": 5335,
      "Captain": 5336,
      "001": 5337,
      "Ett": 5338,
      "Place": 5339,
      "altro": 5340,
      "1806": 5341,
      "##czne": 5342,
      "mehrere": 5343,
      "popisu": 5344,
      "##kal": 5345,
      "elements": 5346,
      "results": 5347,
      "##sion": 5348,
      "required": 5349,
      "##kus": 5350,
      "Orchestra": 5351,
      "elevation": 5352,
      "Memorial": 5353,
      "aholi": 5354,
      "Pietro": 5355,
      "previously": 5356,
      "czasie": 5357,
      "##mat": 5358,
      "##wyd": 5359,
      "noin": 5360,
      "##cida": 5361,
      "122": 5362,
      "calciatore": 5363,
      "deutsche": 5364,
      "ua": 5365,
      "##pu": 5366,
      "especially": 5367,
      "dagat": 5368,
      "Stewart": 5369,
      "##gus": 5370,
      "Coast": 5371,
      "ihrem": 5372,
      "ruolo": 5373,
      "##jar": 5374,
      "Amerikaanse": 5375,
      "##cer": 5376,
      "Perancis": 5377,
      "rapport": 5378,
      "Laura": 5379,
      "edificio": 5380,
      "##bil": 5381,
      "##out": 5382,
      "118": 5383,
      "##non": 5384,
      "##teur": 5385,
      "LP": 5386,
      "Gemeinden": 5387,
      "varias": 5388,
      "##mm": 5389,
      "Euro": 5390,
      "figure": 5391,
      "##cje": 5392,
      "Sultan": 5393,
      "##ction": 5394,
      "traditional": 5395,
      "Gray": 5396,
      "lalawigan": 5397,
      "feat": 5398,
      "Get": 5399,
      "राज्यया": 5400,
      "below": 5401,
      "hatten": 5402,
      "Coupe": 5403,
      "Their": 5404,
      "internationale": 5405,
      "report": 5406,
      "jazz": 5407,
      "outside": 5408,
      "writer": 5409,
      "campionato": 5410,
      "##endo": 5411,
      "Anfang": 5412,
      "Pop": 5413,
      "Angel": 5414,
      "Steven": 5415,
      "basa": 5416,
      "Muhammad": 5417,
      "means": 5418,
      "Bishop": 5419,
      "Wrestling": 5420,
      "##esi": 5421,
      "organization": 5422,
      "listed": 5423,
      "olivat": 5424,
      "itself": 5425,
      "originale": 5426,
      "Garden": 5427,
      "127": 5428,
      "corps": 5429,
      "##nju": 5430,
      "honor": 5431,
      "Ez": 5432,
      "behoort": 5433,
      "lived": 5434,
      "serta": 5435,
      "Nella": 5436,
      "Grant": 5437,
      "Ao": 5438,
      "##nel": 5439,
      "##ib": 5440,
      "deres": 5441,
      "sometimes": 5442,
      "svensk": 5443,
      "kunnen": 5444,
      "##ical": 5445,
      "##ande": 5446,
      "menor": 5447,
      "veces": 5448,
      "outras": 5449,
      "Miami": 5450,
      "primary": 5451,
      "gouvernement": 5452,
      "Woman": 5453,
      "arbeitete": 5454,
      "engelsk": 5455,
      "Projektu": 5456,
      "writing": 5457,
      "Kr": 5458,
      "##eli": 5459,
      "UCB": 5460,
      "interest": 5461,
      "##stvo": 5462,
      "##०": 5463,
      "voe": 5464,
      "seves": 5465,
      "musique": 5466,
      "Bull": 5467,
      "##tivo": 5468,
      "##lie": 5469,
      "aki": 5470,
      "##nal": 5471,
      "departament": 5472,
      "afin": 5473,
      "YouTube": 5474,
      "Forest": 5475,
      "locuitori": 5476,
      "Berg": 5477,
      "kwietnia": 5478,
      "##ione": 5479,
      "rata": 5480,
      "Rafael": 5481,
      "dok": 5482,
      "Official": 5483,
      "Folge": 5484,
      "Route": 5485,
      "liste": 5486,
      "bit": 5487,
      "Jerry": 5488,
      "seat": 5489,
      "champion": 5490,
      "Republike": 5491,
      "Dutch": 5492,
      "Dom": 5493,
      "changed": 5494,
      "attended": 5495,
      "istiqomat": 5496,
      "fand": 5497,
      "Water": 5498,
      "##pel": 5499,
      "score": 5500,
      "Marshall": 5501,
      "drugi": 5502,
      "figura": 5503,
      "obec": 5504,
      "GovPubs": 5505,
      "Play": 5506,
      "SM": 5507,
      "##mba": 5508,
      "periode": 5509,
      "Collection": 5510,
      "donne": 5511,
      "torneo": 5512,
      "Silva": 5513,
      "##inde": 5514,
      "amely": 5515,
      "Catalunya": 5516,
      "ultimo": 5517,
      "plays": 5518,
      "award": 5519,
      "oeste": 5520,
      "nye": 5521,
      "Design": 5522,
      "Arnold": 5523,
      "continue": 5524,
      "Haute": 5525,
      "ih": 5526,
      "significa": 5527,
      "bizi": 5528,
      "invece": 5529,
      "minor": 5530,
      "Sons": 5531,
      "femme": 5532,
      "Jon": 5533,
      "##yer": 5534,
      "EU": 5535,
      "##aja": 5536,
      "vilket": 5537,
      "##ude": 5538,
      "FAQ": 5539,
      "eeuw": 5540,
      "jadi": 5541,
      "##nk": 5542,
      "anglais": 5543,
      "Mix": 5544,
      "##च्या": 5545,
      "train": 5546,
      "Airlines": 5547,
      "alebo": 5548,
      "##czy": 5549,
      "buildings": 5550,
      "##erung": 5551,
      "enn": 5552,
      "##dat": 5553,
      "Pas": 5554,
      "past": 5555,
      "Gli": 5556,
      "Melbourne": 5557,
      "libre": 5558,
      "##ologie": 5559,
      "str": 5560,
      "##jer": 5561,
      "1802": 5562,
      "##sos": 5563,
      "teatro": 5564,
      "थे": 5565,
      "sollte": 5566,
      "finales": 5567,
      "cola": 5568,
      "tuli": 5569,
      "Dame": 5570,
      "bland": 5571,
      "studierte": 5572,
      "Primera": 5573,
      "ayisyen": 5574,
      "126": 5575,
      "Area": 5576,
      "Kennedy": 5577,
      "theory": 5578,
      "Presidente": 5579,
      "##eurs": 5580,
      "museum": 5581,
      "तिथि": 5582,
      "Einwohner": 5583,
      "toujours": 5584,
      "##nici": 5585,
      "1824": 5586,
      "Extragalactic": 5587,
      "##य्": 5588,
      "blant": 5589,
      "dog": 5590,
      "lingua": 5591,
      "##pia": 5592,
      "trova": 5593,
      "conquest": 5594,
      "ofte": 5595,
      "senior": 5596,
      "stal": 5597,
      "allerdings": 5598,
      "featuring": 5599,
      "hizo": 5600,
      "Geiger": 5601,
      "issues": 5602,
      "aller": 5603,
      "Warner": 5604,
      "Springer": 5605,
      "##chten": 5606,
      "280": 5607,
      "find": 5608,
      "Standard": 5609,
      "145": 5610,
      "soon": 5611,
      "kuin": 5612,
      "##keit": 5613,
      "Sommer": 5614,
      "Chart": 5615,
      "complete": 5616,
      "Poland": 5617,
      "chaque": 5618,
      "Avenue": 5619,
      "##hip": 5620,
      "especial": 5621,
      "geboren": 5622,
      "1789": 5623,
      "##ein": 5624,
      "1813": 5625,
      "##erne": 5626,
      "paper": 5627,
      "Stars": 5628,
      "Academia": 5629,
      "nou": 5630,
      "##lly": 5631,
      "view": 5632,
      "Meksika": 5633,
      "##ual": 5634,
      "होते": 5635,
      "Wisconsin": 5636,
      "1826": 5637,
      "significant": 5638,
      "runs": 5639,
      "##town": 5640,
      "jours": 5641,
      "Murray": 5642,
      "Assembly": 5643,
      "Monitoring": 5644,
      "money": 5645,
      "tijdens": 5646,
      "sport": 5647,
      "Antoine": 5648,
      "##gon": 5649,
      "##worth": 5650,
      "bronze": 5651,
      "##zet": 5652,
      "1818": 5653,
      "Uniti": 5654,
      "AG": 5655,
      "board": 5656,
      "bang": 5657,
      "##ndi": 5658,
      "Families": 5659,
      "administration": 5660,
      "##tua": 5661,
      "Lucas": 5662,
      "124": 5663,
      "260": 5664,
      "hommes": 5665,
      "ieu": 5666,
      "Arena": 5667,
      "Olympic": 5668,
      "porta": 5669,
      "mes": 5670,
      "singer": 5671,
      "Larva": 5672,
      "estas": 5673,
      "INSEEren": 5674,
      "Gebiet": 5675,
      "119": 5676,
      "##our": 5677,
      "tracks": 5678,
      "Etter": 5679,
      "beginning": 5680,
      "Wolf": 5681,
      "opening": 5682,
      "army": 5683,
      "names": 5684,
      "dapek": 5685,
      "Lyon": 5686,
      "higher": 5687,
      "problema": 5688,
      "hemiboreala": 5689,
      "powiecie": 5690,
      "laut": 5691,
      "Bij": 5692,
      "tenien": 5693,
      "miasta": 5694,
      "summer": 5695,
      "Alle": 5696,
      "Peel": 5697,
      "##joje": 5698,
      "Lost": 5699,
      "Franklin": 5700,
      "##log": 5701,
      "pelos": 5702,
      "Alexandre": 5703,
      "##rato": 5704,
      "arrondissement": 5705,
      "Tengah": 5706,
      "Margaret": 5707,
      "Canal": 5708,
      "##rata": 5709,
      "Comets": 5710,
      "running": 5711,
      "Born": 5712,
      "155": 5713,
      "##borg": 5714,
      "Norden": 5715,
      "ji": 5716,
      "hanya": 5717,
      "Fame": 5718,
      "azonban": 5719,
      "kuitenkin": 5720,
      "##ttiin": 5721,
      "fall": 5722,
      "##bili": 5723,
      "setelah": 5724,
      "Carter": 5725,
      "child": 5726,
      "baru": 5727,
      "Police": 5728,
      "##stva": 5729,
      "mellan": 5730,
      "Kinder": 5731,
      "Classification": 5732,
      "defeated": 5733,
      "Sony": 5734,
      "association": 5735,
      "##ular": 5736,
      "wide": 5737,
      "pesar": 5738,
      "auteur": 5739,
      "##rios": 5740,
      "Municipal": 5741,
      "according": 5742,
      "##bert": 5743,
      "##ain": 5744,
      "evante": 5745,
      "zij": 5746,
      "Mal": 5747,
      "problem": 5748,
      "WWE": 5749,
      "Mitte": 5750,
      "generally": 5751,
      "Sen": 5752,
      "taking": 5753,
      "##eva": 5754,
      "##time": 5755,
      "Mei": 5756,
      "##ema": 5757,
      "give": 5758,
      "Tavakilian": 5759,
      "gebruikt": 5760,
      "strong": 5761,
      "valor": 5762,
      "towards": 5763,
      "##ology": 5764,
      "eru": 5765,
      "trabajo": 5766,
      "175": 5767,
      "Departement": 5768,
      "##side": 5769,
      "whom": 5770,
      "associated": 5771,
      "##esa": 5772,
      "##eko": 5773,
      "##rek": 5774,
      "##pat": 5775,
      "ned": 5776,
      "seizoen": 5777,
      "Updated": 5778,
      "muun": 5779,
      "Barry": 5780,
      "bar": 5781,
      "millions": 5782,
      "Vladimir": 5783,
      "1016": 5784,
      "outubro": 5785,
      "gold": 5786,
      "##yen": 5787,
      "AC": 5788,
      "1790": 5789,
      "highest": 5790,
      "SC": 5791,
      "industrial": 5792,
      "##owania": 5793,
      "##nske": 5794,
      "hospital": 5795,
      "amor": 5796,
      "Phil": 5797,
      "bezocht": 5798,
      "NHL": 5799,
      "setembro": 5800,
      "intentions": 5801,
      "Julie": 5802,
      "ahol": 5803,
      "maio": 5804,
      "Peru": 5805,
      "combat": 5806,
      "questi": 5807,
      "##nga": 5808,
      "allowed": 5809,
      "charge": 5810,
      "lower": 5811,
      "eli": 5812,
      "scene": 5813,
      "Matthew": 5814,
      "osa": 5815,
      "image": 5816,
      "muassa": 5817,
      "Campbell": 5818,
      "goals": 5819,
      "##ales": 5820,
      "vanaf": 5821,
      "corso": 5822,
      "##rdi": 5823,
      "tij": 5824,
      "Helsinki": 5825,
      "##nge": 5826,
      "alte": 5827,
      "ingkang": 5828,
      "origen": 5829,
      "##प": 5830,
      "Kurt": 5831,
      "temperatura": 5832,
      "##mt": 5833,
      "practice": 5834,
      "plans": 5835,
      "fiind": 5836,
      "USS": 5837,
      "sports": 5838,
      "Dal": 5839,
      "##ists": 5840,
      "poden": 5841,
      "mezvalora": 5842,
      "##cat": 5843,
      "vlinder": 5844,
      "##tiin": 5845,
      "Franse": 5846,
      "outcomes": 5847,
      "location": 5848,
      "tijd": 5849,
      "primi": 5850,
      "##oda": 5851,
      "pubblicato": 5852,
      "unique": 5853,
      "effet": 5854,
      "Asteroids": 5855,
      "mediante": 5856,
      "Dies": 5857,
      "##bat": 5858,
      "prix": 5859,
      "##eth": 5860,
      "Nakon": 5861,
      "##ost": 5862,
      "engine": 5863,
      "tuig": 5864,
      "##ून": 5865,
      "income": 5866,
      "Warren": 5867,
      "Here": 5868,
      "Cover": 5869,
      "encara": 5870,
      "auto": 5871,
      "matches": 5872,
      "ibn": 5873,
      "आदि": 5874,
      "Page": 5875,
      "tarixi": 5876,
      "Savannklimat": 5877,
      "Children": 5878,
      "groot": 5879,
      "totale": 5880,
      "railway": 5881,
      "Holland": 5882,
      "Brothers": 5883,
      "esto": 5884,
      "JPL": 5885,
      "pred": 5886,
      "##ndan": 5887,
      "contains": 5888,
      "##inger": 5889,
      "Vascular": 5890,
      "##ller": 5891,
      "Aus": 5892,
      "1801": 5893,
      "hingga": 5894,
      "heavy": 5895,
      "weiter": 5896,
      "woman": 5897,
      "food": 5898,
      "270": 5899,
      "millones": 5900,
      "esse": 5901,
      "##ac": 5902,
      "Selatan": 5903,
      "##zed": 5904,
      "Synonymic": 5905,
      "access": 5906,
      "Wood": 5907,
      "ATP": 5908,
      "Following": 5909,
      "oblasti": 5910,
      "1816": 5911,
      "##cies": 5912,
      "##्र": 5913,
      "better": 5914,
      "bao": 5915,
      "kreeg": 5916,
      "puntos": 5917,
      "##tir": 5918,
      "global": 5919,
      "Abu": 5920,
      "##mine": 5921,
      "1822": 5922,
      "##gd": 5923,
      "129": 5924,
      "PlayStation": 5925,
      "##els": 5926,
      "Turner": 5927,
      "Quando": 5928,
      "Unternehmen": 5929,
      "##mek": 5930,
      "wobei": 5931,
      "rate": 5932,
      "mejor": 5933,
      "##rant": 5934,
      "finalmente": 5935,
      "resto": 5936,
      "##ब": 5937,
      "egin": 5938,
      "lutego": 5939,
      "nous": 5940,
      "toutes": 5941,
      "operations": 5942,
      "##oje": 5943,
      "##iera": 5944,
      "Medical": 5945,
      "##ures": 5946,
      "##ador": 5947,
      "##yle": 5948,
      "hari": 5949,
      "131": 5950,
      "Madonna": 5951,
      "enfants": 5952,
      "##istes": 5953,
      "Liverpool": 5954,
      "especialmente": 5955,
      "movie": 5956,
      "rural": 5957,
      "property": 5958,
      "132": 5959,
      "##har": 5960,
      "gebruik": 5961,
      "Amor": 5962,
      "##cis": 5963,
      "poeta": 5964,
      "144": 5965,
      "wojny": 5966,
      "##cas": 5967,
      "OS": 5968,
      "Metal": 5969,
      "administrative": 5970,
      "Evans": 5971,
      "troba": 5972,
      "mesma": 5973,
      "##ती": 5974,
      "phim": 5975,
      "##tter": 5976,
      "hace": 5977,
      "articles": 5978,
      "mode": 5979,
      "keversoort": 5980,
      "inoltre": 5981,
      "Iowa": 5982,
      "##gte": 5983,
      "Plan": 5984,
      "##lands": 5985,
      "##iendo": 5986,
      "ended": 5987,
      "##iana": 5988,
      "##azione": 5989,
      "Racing": 5990,
      "papa": 5991,
      "tok": 5992,
      "##ै": 5993,
      "closed": 5994,
      "figlio": 5995,
      "##bt": 5996,
      "key": 5997,
      "1819": 5998,
      "ministre": 5999,
      "thus": 6000,
      "##etan": 6001,
      "coma": 6002,
      "##hal": 6003,
      "Denis": 6004,
      "##niu": 6005,
      "cinema": 6006,
      "capita": 6007,
      "##iska": 6008,
      "##ijos": 6009,
      "Our": 6010,
      "Astronomical": 6011,
      "Roberts": 6012,
      "norske": 6013,
      "##ieren": 6014,
      "1827": 6015,
      "Marcel": 6016,
      "distribution": 6017,
      "blandskog": 6018,
      "हिन्दी": 6019,
      "metro": 6020,
      "Ar": 6021,
      "##mie": 6022,
      "##esta": 6023,
      "fille": 6024,
      "##itas": 6025,
      "##ence": 6026,
      "Tennessee": 6027,
      "oft": 6028,
      "##uda": 6029,
      "Archived": 6030,
      "Statistics": 6031,
      "hold": 6032,
      "Durant": 6033,
      "Java": 6034,
      "dazu": 6035,
      "droit": 6036,
      "##kai": 6037,
      "effect": 6038,
      "##tina": 6039,
      "Bis": 6040,
      "personnes": 6041,
      "amerikansk": 6042,
      "##nier": 6043,
      "##vit": 6044,
      "Pictures": 6045,
      "Pauly": 6046,
      "distance": 6047,
      "##aka": 6048,
      "Beccaloni": 6049,
      "##jet": 6050,
      "Television": 6051,
      "euro": 6052,
      "JR": 6053,
      "prend": 6054,
      "selv": 6055,
      "omdat": 6056,
      "##bie": 6057,
      "134": 6058,
      "Wayne": 6059,
      "##nut": 6060,
      "sex": 6061,
      "menggunakan": 6062,
      "Houston": 6063,
      "Dia": 6064,
      "Community": 6065,
      "dunia": 6066,
      "Zur": 6067,
      "##kor": 6068,
      "Jay": 6069,
      "bersama": 6070,
      "liga": 6071,
      "1758": 6072,
      "erfolgte": 6073,
      "additional": 6074,
      "तक्क": 6075,
      "##ric": 6076,
      "spent": 6077,
      "छ्येलिगु": 6078,
      "##mp": 6079,
      "##vio": 6080,
      "noted": 6081,
      "loss": 6082,
      "move": 6083,
      "TRMM": 6084,
      "##logy": 6085,
      "matag": 6086,
      "kinabasaan": 6087,
      "situation": 6088,
      "kinaugahan": 6089,
      "novembro": 6090,
      "152": 6091,
      "stations": 6092,
      "##uh": 6093,
      "sina": 6094,
      "Checklists": 6095,
      "##rad": 6096,
      "jeune": 6097,
      "viele": 6098,
      "energy": 6099,
      "20th": 6100,
      "Louise": 6101,
      "##ciu": 6102,
      "1792": 6103,
      "Gilbert": 6104,
      "Early": 6105,
      "hijo": 6106,
      "insect": 6107,
      "ligt": 6108,
      "VM": 6109,
      "##essa": 6110,
      "##larda": 6111,
      "Tras": 6112,
      "jedan": 6113,
      "mostra": 6114,
      "Fra": 6115,
      "Deeds": 6116,
      "##owym": 6117,
      "Universidade": 6118,
      "fact": 6119,
      "##atan": 6120,
      "conocido": 6121,
      "Cape": 6122,
      "ch": 6123,
      "Seite": 6124,
      "fyrir": 6125,
      "mjesto": 6126,
      "##idos": 6127,
      "logo": 6128,
      "mateix": 6129,
      "Dean": 6130,
      "##yd": 6131,
      "Pan": 6132,
      "Highway": 6133,
      "diverses": 6134,
      "133": 6135,
      "##back": 6136,
      "Provinsi": 6137,
      "Lima": 6138,
      "quals": 6139,
      "retired": 6140,
      "##cks": 6141,
      "eastern": 6142,
      "##cido": 6143,
      "##usa": 6144,
      "premiers": 6145,
      "Vater": 6146,
      "##TV": 6147,
      "##eni": 6148,
      "famous": 6149,
      "igual": 6150,
      "protein": 6151,
      "folk": 6152,
      "1817": 6153,
      "##aba": 6154,
      "Spring": 6155,
      "tener": 6156,
      "Julius": 6157,
      "parties": 6158,
      "Catalog": 6159,
      "Popular": 6160,
      "lite": 6161,
      "Stuart": 6162,
      "evidence": 6163,
      "peuvent": 6164,
      "Kirkwood": 6165,
      "Brookings": 6166,
      "Delhi": 6167,
      "batang": 6168,
      "भारतीय": 6169,
      "Bau": 6170,
      "ingen": 6171,
      "Lalek": 6172,
      "Hockey": 6173,
      "cet": 6174,
      "##tig": 6175,
      "alcune": 6176,
      "Only": 6177,
      "Eva": 6178,
      "Moscow": 6179,
      "today": 6180,
      "basen": 6181,
      "Allan": 6182,
      "Pitkin": 6183,
      "##rade": 6184,
      "Marina": 6185,
      "Zweiten": 6186,
      "seria": 6187,
      "older": 6188,
      "battle": 6189,
      "Castro": 6190,
      "##bahn": 6191,
      "##kiego": 6192,
      "##owany": 6193,
      "computer": 6194,
      "##cki": 6195,
      "projet": 6196,
      "Broadway": 6197,
      "Zagreb": 6198,
      "protagonista": 6199,
      "##wania": 6200,
      "Afghanistan": 6201,
      "##rede": 6202,
      "##rado": 6203,
      "Lorenzo": 6204,
      "kommt": 6205,
      "##rium": 6206,
      "Parker": 6207,
      "Chr": 6208,
      "filmu": 6209,
      "dintre": 6210,
      "sechs": 6211,
      "records": 6212,
      "sexe": 6213,
      "przed": 6214,
      "apud": 6215,
      "##lsen": 6216,
      "adalwyd": 6217,
      "dansk": 6218,
      "##ings": 6219,
      "Temple": 6220,
      "podjela": 6221,
      "Schweiz": 6222,
      "livre": 6223,
      "##wana": 6224,
      "batalla": 6225,
      "ana": 6226,
      "casos": 6227,
      "Record": 6228,
      "Araneae": 6229,
      "136": 6230,
      "##gin": 6231,
      "daar": 6232,
      "छगु": 6233,
      "Mrs": 6234,
      "##ged": 6235,
      "misma": 6236,
      "orden": 6237,
      "1808": 6238,
      "Yang": 6239,
      "represented": 6240,
      "kon": 6241,
      "1809": 6242,
      "create": 6243,
      "pueblo": 6244,
      "demi": 6245,
      "##kos": 6246,
      "Austin": 6247,
      "##nant": 6248,
      "##itz": 6249,
      "cost": 6250,
      "launched": 6251,
      "Blood": 6252,
      "kahaboga": 6253,
      "ambos": 6254,
      "mesto": 6255,
      "Hulyo": 6256,
      "cele": 6257,
      "Om": 6258,
      "fir": 6259,
      "companies": 6260,
      "बाद": 6261,
      "##्स": 6262,
      "Scoble": 6263,
      "terms": 6264,
      "sino": 6265,
      "CBS": 6266,
      "particolare": 6267,
      "Earl": 6268,
      "Polen": 6269,
      "Scottish": 6270,
      "matoari": 6271,
      "Perennial": 6272,
      "animal": 6273,
      "edhe": 6274,
      "##zat": 6275,
      "cosa": 6276,
      "Hills": 6277,
      "Cooper": 6278,
      "Deep": 6279,
      "sv": 6280,
      "grado": 6281,
      "Alto": 6282,
      "rundt": 6283,
      "Valencia": 6284,
      "font": 6285,
      "##nger": 6286,
      "earlier": 6287,
      "##ओं": 6288,
      "Political": 6289,
      "trade": 6290,
      "Jana": 6291,
      "dek": 6292,
      "primeros": 6293,
      "biti": 6294,
      "Hrsg": 6295,
      "voir": 6296,
      "320": 6297,
      "cast": 6298,
      "turn": 6299,
      "##iko": 6300,
      "vote": 6301,
      "staff": 6302,
      "smrti": 6303,
      "lahir": 6304,
      "tylko": 6305,
      "LepIndex": 6306,
      "lagu": 6307,
      "##enia": 6308,
      "internet": 6309,
      "cha": 6310,
      "Krauze": 6311,
      "##lijke": 6312,
      "137": 6313,
      "territoire": 6314,
      "Years": 6315,
      "Engineering": 6316,
      "Systems": 6317,
      "vain": 6318,
      "thought": 6319,
      "poste": 6320,
      "1795": 6321,
      "welche": 6322,
      "rey": 6323,
      "##ator": 6324,
      "nes": 6325,
      "Bach": 6326,
      "ollut": 6327,
      "Duitse": 6328,
      "##ame": 6329,
      "mana": 6330,
      "##adi": 6331,
      "Federation": 6332,
      "albums": 6333,
      "agent": 6334,
      "hann": 6335,
      "militaire": 6336,
      "Zone": 6337,
      "##icos": 6338,
      "##lerin": 6339,
      "Administrativna": 6340,
      "HD": 6341,
      "1803": 6342,
      "##icu": 6343,
      "##num": 6344,
      "Bot": 6345,
      "##vre": 6346,
      "##all": 6347,
      "Allemagne": 6348,
      "##ont": 6349,
      "toen": 6350,
      "htm": 6351,
      "##atu": 6352,
      "Arbeit": 6353,
      "##nski": 6354,
      "##vala": 6355,
      "aikana": 6356,
      "Nachdem": 6357,
      "changes": 6358,
      "notable": 6359,
      "Silver": 6360,
      "Guerre": 6361,
      "sources": 6362,
      "informality": 6363,
      "yoktur": 6364,
      "estate": 6365,
      "##ney": 6366,
      "##चे": 6367,
      "##ues": 6368,
      "153": 6369,
      "already": 6370,
      "Beezley": 6371,
      "Mexiko": 6372,
      "recent": 6373,
      "092917": 6374,
      "511228": 6375,
      "87237": 6376,
      "0815752199": 6377,
      "1403962588": 6378,
      "1884964311": 6379,
      "1579583377": 6380,
      "##uer": 6381,
      "##eus": 6382,
      "##tak": 6383,
      "Elisabeth": 6384,
      "##nse": 6385,
      "meist": 6386,
      "E0": 6387,
      "Tyskland": 6388,
      "kedua": 6389,
      "journal": 6390,
      "tina": 6391,
      "##skiej": 6392,
      "Arte": 6393,
      "##uti": 6394,
      "musste": 6395,
      "Christ": 6396,
      "decide": 6397,
      "Ernest": 6398,
      "feature": 6399,
      "maison": 6400,
      "ataupun": 6401,
      "Sau": 6402,
      "Economic": 6403,
      "numerous": 6404,
      "voi": 6405,
      "speed": 6406,
      "haber": 6407,
      "anh": 6408,
      "##IS": 6409,
      "##wego": 6410,
      "going": 6411,
      "##pet": 6412,
      "nunca": 6413,
      "maggiore": 6414,
      "appearance": 6415,
      "broj": 6416,
      "partes": 6417,
      "conjunto": 6418,
      "localidad": 6419,
      "985": 6420,
      "bas": 6421,
      "1823": 6422,
      "##cing": 6423,
      "##dag": 6424,
      "hard": 6425,
      "Fischer": 6426,
      "favor": 6427,
      "nuova": 6428,
      "Tochter": 6429,
      "analysis": 6430,
      "zaman": 6431,
      "Eduardo": 6432,
      "tom": 6433,
      "takes": 6434,
      "aujourd": 6435,
      "##olo": 6436,
      "lungo": 6437,
      "Kunst": 6438,
      "eigen": 6439,
      "##eria": 6440,
      "##ime": 6441,
      "##cker": 6442,
      "##til": 6443,
      "hotel": 6444,
      "Bereich": 6445,
      "Valle": 6446,
      "samen": 6447,
      "##rada": 6448,
      "types": 6449,
      "Days": 6450,
      "Ministry": 6451,
      "##ega": 6452,
      "Parliament": 6453,
      "characters": 6454,
      "Wars": 6455,
      "##hat": 6456,
      "##ize": 6457,
      "specific": 6458,
      "Olympics": 6459,
      "muchos": 6460,
      "znajduje": 6461,
      "regio": 6462,
      "entire": 6463,
      "bawah": 6464,
      "संस्कृत": 6465,
      "Froese": 6466,
      "##dit": 6467,
      "192": 6468,
      "annat": 6469,
      "value": 6470,
      "Vice": 6471,
      "fosse": 6472,
      "esposa": 6473,
      "##bury": 6474,
      "Italien": 6475,
      "Class": 6476,
      "DDR": 6477,
      "##tique": 6478,
      "Bulletin": 6479,
      "entered": 6480,
      "##stes": 6481,
      "concept": 6482,
      "Watson": 6483,
      "Nintendo": 6484,
      "decision": 6485,
      "##ering": 6486,
      "165": 6487,
      "##aje": 6488,
      "##oto": 6489,
      "##pie": 6490,
      "##ciju": 6491,
      "Front": 6492,
      "alatt": 6493,
      "##rre": 6494,
      "annual": 6495,
      "Iron": 6496,
      "##lom": 6497,
      "tierra": 6498,
      "versione": 6499,
      "tendo": 6500,
      "तक": 6501,
      "Tropiskt": 6502,
      "Plus": 6503,
      "Jest": 6504,
      "blieb": 6505,
      "places": 6506,
      "onun": 6507,
      "dire": 6508,
      "limited": 6509,
      "##ust": 6510,
      "condado": 6511,
      "Cuando": 6512,
      "Five": 6513,
      "jedna": 6514,
      "mano": 6515,
      "cambio": 6516,
      "##taa": 6517,
      "##hy": 6518,
      "##licher": 6519,
      "sociale": 6520,
      "noong": 6521,
      "Democratic": 6522,
      "##Q": 6523,
      "##ulu": 6524,
      "formar": 6525,
      "sit": 6526,
      "activities": 6527,
      "prime": 6528,
      "officer": 6529,
      "Nicholas": 6530,
      "musica": 6531,
      "Linux": 6532,
      "##eve": 6533,
      "jeweils": 6534,
      "1811": 6535,
      "increased": 6536,
      "operated": 6537,
      "sound": 6538,
      "villages": 6539,
      "utama": 6540,
      "##zing": 6541,
      "letter": 6542,
      "Segundo": 6543,
      "Complete": 6544,
      "weiteren": 6545,
      "kay": 6546,
      "Partei": 6547,
      "programs": 6548,
      "host": 6549,
      "Before": 6550,
      "Bir": 6551,
      "Parks": 6552,
      "laatste": 6553,
      "voitti": 6554,
      "##zin": 6555,
      "censo": 6556,
      "linea": 6557,
      "Rhestr": 6558,
      "Inglaterra": 6559,
      "Julia": 6560,
      "Hrvatske": 6561,
      "##iri": 6562,
      "fet": 6563,
      "Kota": 6564,
      "##mica": 6565,
      "terug": 6566,
      "Spider": 6567,
      "##rm": 6568,
      "##end": 6569,
      "##lem": 6570,
      "Lloyd": 6571,
      "अपने": 6572,
      "Conservation": 6573,
      "maps": 6574,
      "volgende": 6575,
      "here": 6576,
      "Ken": 6577,
      "##aga": 6578,
      "travail": 6579,
      "wechselte": 6580,
      "##vor": 6581,
      "separate": 6582,
      "##rel": 6583,
      "Ari": 6584,
      "religious": 6585,
      "function": 6586,
      "bus": 6587,
      "Bobby": 6588,
      "Or": 6589,
      "Rolling": 6590,
      "BC": 6591,
      "hidup": 6592,
      "WCSP": 6593,
      "Domenico": 6594,
      "Secretary": 6595,
      "tranh": 6596,
      "volkstelling": 6597,
      "verwendet": 6598,
      "Yu": 6599,
      "Negeri": 6600,
      "##mel": 6601,
      "Istwa": 6602,
      "Finlayson": 6603,
      "Kent": 6604,
      "teve": 6605,
      "Reich": 6606,
      "folgenden": 6607,
      "##af": 6608,
      "##isa": 6609,
      "##riu": 6610,
      "Prozent": 6611,
      "Leon": 6612,
      "certains": 6613,
      "infatti": 6614,
      "Eddie": 6615,
      "Ne": 6616,
      "Januari": 6617,
      "concert": 6618,
      "marine": 6619,
      "chief": 6620,
      "bank": 6621,
      "Military": 6622,
      "##kiej": 6623,
      "##iel": 6624,
      "serve": 6625,
      "Hon": 6626,
      "##zel": 6627,
      "vrijeme": 6628,
      "##rz": 6629,
      "medical": 6630,
      "Singapore": 6631,
      "149": 6632,
      "blitt": 6633,
      "Motor": 6634,
      "Som": 6635,
      "informatie": 6636,
      "##कर": 6637,
      "anime": 6638,
      "toga": 6639,
      "Taiwan": 6640,
      "Westen": 6641,
      "Raja": 6642,
      "erhalten": 6643,
      "energia": 6644,
      "Jerman": 6645,
      "bli": 6646,
      "pierwszy": 6647,
      "championnat": 6648,
      "artists": 6649,
      "138": 6650,
      "Square": 6651,
      "##ration": 6652,
      "Napoli": 6653,
      "politik": 6654,
      "majority": 6655,
      "Mont": 6656,
      "Editors": 6657,
      "omgivande": 6658,
      "zerbitzu": 6659,
      "##cle": 6660,
      "Ball": 6661,
      "Language": 6662,
      "situato": 6663,
      "Desa": 6664,
      "Frankreich": 6665,
      "Guatemala": 6666,
      "Site": 6667,
      "Rolle": 6668,
      "veya": 6669,
      "2019": 6670,
      "##lne": 6671,
      "polski": 6672,
      "yeni": 6673,
      "Secret": 6674,
      "wraz": 6675,
      "Position": 6676,
      "mille": 6677,
      "##zik": 6678,
      "##ill": 6679,
      "##lad": 6680,
      "148": 6681,
      "1804": 6682,
      "shot": 6683,
      "content": 6684,
      "143": 6685,
      "Bergen": 6686,
      "caused": 6687,
      "lines": 6688,
      "nazionale": 6689,
      "municipi": 6690,
      "Sankt": 6691,
      "##etta": 6692,
      "mae": 6693,
      "Wall": 6694,
      "miembros": 6695,
      "element": 6696,
      "##bs": 6697,
      "valamint": 6698,
      "Hydrology": 6699,
      "Films": 6700,
      "##tant": 6701,
      "##sm": 6702,
      "5194": 6703,
      "Nouvelle": 6704,
      "Dragon": 6705,
      "always": 6706,
      "baino": 6707,
      "selected": 6708,
      "studied": 6709,
      "Frankrike": 6710,
      "##pun": 6711,
      "room": 6712,
      "got": 6713,
      "edir": 6714,
      "Ve": 6715,
      "erreichte": 6716,
      "##ksen": 6717,
      "hess": 6718,
      "kommer": 6719,
      "ishte": 6720,
      "Gikuha": 6721,
      "hours": 6722,
      "datos": 6723,
      "141": 6724,
      "##zes": 6725,
      "miatt": 6726,
      "Platnick": 6727,
      "##wen": 6728,
      "Oklahoma": 6729,
      "classes": 6730,
      "Ancient": 6731,
      "Lisa": 6732,
      "Ciudad": 6733,
      "Discovery": 6734,
      "##more": 6735,
      "GmbH": 6736,
      "1807": 6737,
      "Atlanta": 6738,
      "remains": 6739,
      "temple": 6740,
      "tim": 6741,
      "##stadt": 6742,
      "Gruppen": 6743,
      "joueur": 6744,
      "latin": 6745,
      "programme": 6746,
      "hecho": 6747,
      "139": 6748,
      "sexual": 6749,
      "##cznych": 6750,
      "##ieron": 6751,
      "Thailand": 6752,
      "Schmidt": 6753,
      "Maryland": 6754,
      "us": 6755,
      "Kentucky": 6756,
      "Larry": 6757,
      "cross": 6758,
      "husband": 6759,
      "mundial": 6760,
      "##ois": 6761,
      "Mannschaft": 6762,
      "forms": 6763,
      "modelo": 6764,
      "##aal": 6765,
      "pie": 6766,
      "Imperial": 6767,
      "Parti": 6768,
      "maakte": 6769,
      "ak": 6770,
      "idi": 6771,
      "gilt": 6772,
      "voz": 6773,
      "verschillende": 6774,
      "Sol": 6775,
      "lahko": 6776,
      "plaza": 6777,
      "particularly": 6778,
      "##une": 6779,
      "1805": 6780,
      "Bredden": 6781,
      "##tem": 6782,
      "Weltkrieg": 6783,
      "detta": 6784,
      "Lan": 6785,
      "Ai": 6786,
      "Italie": 6787,
      "Harold": 6788,
      "werk": 6789,
      "kaip": 6790,
      "146": 6791,
      "nello": 6792,
      "lloc": 6793,
      "##shire": 6794,
      "bem": 6795,
      "Kenya": 6796,
      "Neil": 6797,
      "organisation": 6798,
      "1794": 6799,
      "##bare": 6800,
      "ito": 6801,
      "eles": 6802,
      "voce": 6803,
      "##for": 6804,
      "scale": 6805,
      "comarca": 6806,
      "Histoire": 6807,
      "##eau": 6808,
      "Verein": 6809,
      "##lation": 6810,
      "Mayor": 6811,
      "monument": 6812,
      "Soul": 6813,
      "membro": 6814,
      "Oregon": 6815,
      "Detroit": 6816,
      "Met": 6817,
      "Sunday": 6818,
      "Dabei": 6819,
      "victory": 6820,
      "positive": 6821,
      "##mise": 6822,
      "Hannover": 6823,
      "Sebastian": 6824,
      "##ग": 6825,
      "##ines": 6826,
      "Torino": 6827,
      "termasuk": 6828,
      "##vou": 6829,
      "romana": 6830,
      "##erna": 6831,
      "university": 6832,
      "##form": 6833,
      "Box": 6834,
      "Original": 6835,
      "kort": 6836,
      "technology": 6837,
      "Magic": 6838,
      "tv": 6839,
      "OL": 6840,
      "sola": 6841,
      "nombreuses": 6842,
      "Mississippi": 6843,
      "Urban": 6844,
      "mostly": 6845,
      "index": 6846,
      "##ally": 6847,
      "aid": 6848,
      "##rate": 6849,
      "Alfonso": 6850,
      "tarihinde": 6851,
      "##zt": 6852,
      "partidos": 6853,
      "verschiedenen": 6854,
      "##rem": 6855,
      "Australien": 6856,
      "leis": 6857,
      "##ridae": 6858,
      "##hon": 6859,
      "sehingga": 6860,
      "19th": 6861,
      "Profile": 6862,
      "Bird": 6863,
      "toe": 6864,
      "application": 6865,
      "acht": 6866,
      "Mi": 6867,
      "##bos": 6868,
      "##ball": 6869,
      "sister": 6870,
      "NHK": 6871,
      "relationship": 6872,
      "Roland": 6873,
      "##नी": 6874,
      "147": 6875,
      "rugby": 6876,
      "kishi": 6877,
      "minangka": 6878,
      "Wagner": 6879,
      "meeting": 6880,
      "vivien": 6881,
      "relations": 6882,
      "sekitar": 6883,
      "lot": 6884,
      "posteriormente": 6885,
      "kur": 6886,
      "Mabibilngan": 6887,
      "act": 6888,
      "moun": 6889,
      "miejscu": 6890,
      "cities": 6891,
      "##hoz": 6892,
      "altitude": 6893,
      "Harrison": 6894,
      "deve": 6895,
      "Knight": 6896,
      "Ligue": 6897,
      "Geographic": 6898,
      "Ayisyen": 6899,
      "tzv": 6900,
      "185": 6901,
      "elementos": 6902,
      "keer": 6903,
      "##ierung": 6904,
      "villa": 6905,
      "note": 6906,
      "multiple": 6907,
      "Alabama": 6908,
      "rus": 6909,
      "extra": 6910,
      "negeri": 6911,
      "Polish": 6912,
      "historical": 6913,
      "orde": 6914,
      "uses": 6915,
      "Dennis": 6916,
      "beliau": 6917,
      "recording": 6918,
      "becoming": 6919,
      "Ralph": 6920,
      "Ukraine": 6921,
      "referred": 6922,
      "##ार": 6923,
      "altura": 6924,
      "byli": 6925,
      "medlem": 6926,
      "##elijke": 6927,
      "142": 6928,
      "kjent": 6929,
      "Shakespeare": 6930,
      "Publications": 6931,
      "notes": 6932,
      "Terry": 6933,
      "yil": 6934,
      "##hes": 6935,
      "Mitchell": 6936,
      "##fied": 6937,
      "hin": 6938,
      "society": 6939,
      "incolarum": 6940,
      "jejich": 6941,
      "Jeho": 6942,
      "deal": 6943,
      "Unit": 6944,
      "##nem": 6945,
      "Prime": 6946,
      "##icus": 6947,
      "tutte": 6948,
      "##ace": 6949,
      "llamado": 6950,
      "fik": 6951,
      "Base": 6952,
      "Isabel": 6953,
      "ketika": 6954,
      "Preis": 6955,
      "Abraham": 6956,
      "augustus": 6957,
      "Inggris": 6958,
      "##ug": 6959,
      "Mans": 6960,
      "Provinz": 6961,
      "esempio": 6962,
      "paling": 6963,
      "fuera": 6964,
      "ime": 6965,
      "##gn": 6966,
      "nine": 6967,
      "Henrik": 6968,
      "##ियों": 6969,
      "capitale": 6970,
      "directeur": 6971,
      "##iano": 6972,
      "Osten": 6973,
      "##stra": 6974,
      "eingesetzt": 6975,
      "speelde": 6976,
      "acordo": 6977,
      "##ization": 6978,
      "aufgrund": 6979,
      "Laurent": 6980,
      "Aquesta": 6981,
      "##ep": 6982,
      "##stu": 6983,
      "Dick": 6984,
      "shown": 6985,
      "relasyon": 6986,
      "supported": 6987,
      "Hier": 6988,
      "##die": 6989,
      "kaksi": 6990,
      "##jn": 6991,
      "##nsa": 6992,
      "broju": 6993,
      "थन": 6994,
      "entstand": 6995,
      "Dallas": 6996,
      "passed": 6997,
      "Queensland": 6998,
      "horien": 6999,
      "versi": 7000,
      "##tische": 7001,
      "पूर्व": 7002,
      "Hughes": 7003,
      "Camp": 7004,
      "Kaiser": 7005,
      "##taan": 7006,
      "##kk": 7007,
      "comte": 7008,
      "presented": 7009,
      "empreses": 7010,
      "native": 7011,
      "Din": 7012,
      "gare": 7013,
      "##cem": 7014,
      "canton": 7015,
      "subject": 7016,
      "##air": 7017,
      "##dea": 7018,
      "Hunter": 7019,
      "##nischen": 7020,
      "##lja": 7021,
      "allen": 7022,
      "tradition": 7023,
      "jotka": 7024,
      "forced": 7025,
      "dwa": 7026,
      "##cca": 7027,
      "situat": 7028,
      "Hi": 7029,
      "sull": 7030,
      "insgesamt": 7031,
      "Nancy": 7032,
      "obci": 7033,
      "Kina": 7034,
      "Novi": 7035,
      "operation": 7036,
      "toimi": 7037,
      "errichtet": 7038,
      "Control": 7039,
      "##pas": 7040,
      "##oe": 7041,
      "problemas": 7042,
      "tham": 7043,
      "hau": 7044,
      "##zado": 7045,
      "Rick": 7046,
      "##sat": 7047,
      "bakarrik": 7048,
      "1798": 7049,
      "Schule": 7050,
      "Beispiel": 7051,
      "##slag": 7052,
      "friend": 7053,
      "pouvoir": 7054,
      "Tu": 7055,
      "entrada": 7056,
      "Singles": 7057,
      "campus": 7058,
      "diri": 7059,
      "Selon": 7060,
      "Threatened": 7061,
      "stark": 7062,
      "inizio": 7063,
      "equipos": 7064,
      "##tone": 7065,
      "##bet": 7066,
      "kilometres": 7067,
      "Langau": 7068,
      "##oz": 7069,
      "molti": 7070,
      "yaitu": 7071,
      "mula": 7072,
      "inglese": 7073,
      "Tommy": 7074,
      "UA": 7075,
      "Richtung": 7076,
      "Serbia": 7077,
      "amo": 7078,
      "individuals": 7079,
      "Dieser": 7080,
      "##nic": 7081,
      "##ligt": 7082,
      "categoria": 7083,
      "tenir": 7084,
      "uomo": 7085,
      "oggi": 7086,
      "estudios": 7087,
      "##teen": 7088,
      "pr": 7089,
      "Sint": 7090,
      "##री": 7091,
      "##als": 7092,
      "##sas": 7093,
      "longer": 7094,
      "stat": 7095,
      "melalui": 7096,
      "lea": 7097,
      "Boeing": 7098,
      "alan": 7099,
      "bergig": 7100,
      "NFL": 7101,
      "mientres": 7102,
      "middle": 7103,
      "themselves": 7104,
      "##ores": 7105,
      "sota": 7106,
      "Fe": 7107,
      "Dort": 7108,
      "प्रभाव": 7109,
      "Perry": 7110,
      "##dh": 7111,
      "pat": 7112,
      "muss": 7113,
      "emakume": 7114,
      "##ppen": 7115,
      "Independent": 7116,
      "Jules": 7117,
      "ancienne": 7118,
      "##hof": 7119,
      "kulle": 7120,
      "seguinte": 7121,
      "Guardian": 7122,
      "engl": 7123,
      "question": 7124,
      "radius": 7125,
      "##oso": 7126,
      "avea": 7127,
      "##rou": 7128,
      "successo": 7129,
      "Millionen": 7130,
      "Ho": 7131,
      "diversi": 7132,
      "ejemplo": 7133,
      "दिया": 7134,
      "##yla": 7135,
      "Services": 7136,
      "resultado": 7137,
      "yels": 7138,
      "Note": 7139,
      "cualquier": 7140,
      "203": 7141,
      "dus": 7142,
      "fill": 7143,
      "##eda": 7144,
      "provides": 7145,
      "##yt": 7146,
      "politico": 7147,
      "##tein": 7148,
      "##rung": 7149,
      "##rg": 7150,
      "serving": 7151,
      "dato": 7152,
      "pages": 7153,
      "nota": 7154,
      "Dorf": 7155,
      "##nz": 7156,
      "meno": 7157,
      "Ricardo": 7158,
      "##see": 7159,
      "biri": 7160,
      "gian": 7161,
      "##rka": 7162,
      "##kommen": 7163,
      "Foreign": 7164,
      "Carmen": 7165,
      "lomanefs": 7166,
      "volte": 7167,
      "programma": 7168,
      "##lot": 7169,
      "voms": 7170,
      "jer": 7171,
      "##ako": 7172,
      "##skom": 7173,
      "appears": 7174,
      "##iers": 7175,
      "increase": 7176,
      "enkele": 7177,
      "yera": 7178,
      "1799": 7179,
      "Lemesed": 7180,
      "Re": 7181,
      "##10": 7182,
      "##por": 7183,
      "variety": 7184,
      "##isation": 7185,
      "possono": 7186,
      "grazie": 7187,
      "##osi": 7188,
      "Leonard": 7189,
      "episodi": 7190,
      "हा": 7191,
      "##tien": 7192,
      "##of": 7193,
      "##ole": 7194,
      "Klasse": 7195,
      "Rahmen": 7196,
      "Prima": 7197,
      "ministro": 7198,
      "151": 7199,
      "erschien": 7200,
      "##yang": 7201,
      "थाय्या": 7202,
      "##gua": 7203,
      "##mana": 7204,
      "statistiku": 7205,
      "Danny": 7206,
      "vengono": 7207,
      "protection": 7208,
      "darauf": 7209,
      "tek": 7210,
      "Rey": 7211,
      "isla": 7212,
      "politician": 7213,
      "furent": 7214,
      "##unda": 7215,
      "##tate": 7216,
      "1791": 7217,
      "GMT": 7218,
      "sort": 7219,
      "sangat": 7220,
      "processo": 7221,
      "klubu": 7222,
      "Ron": 7223,
      "ultima": 7224,
      "nekoliko": 7225,
      "Klimatet": 7226,
      "done": 7227,
      "Ingelesez": 7228,
      "Rob": 7229,
      "insbesondere": 7230,
      "langs": 7231,
      "problems": 7232,
      "##head": 7233,
      "4th": 7234,
      "phase": 7235,
      "##wn": 7236,
      "punika": 7237,
      "metatra": 7238,
      "Statistik": 7239,
      "virus": 7240,
      "##gie": 7241,
      "vest": 7242,
      "haavon": 7243,
      "159": 7244,
      "publicado": 7245,
      "Unter": 7246,
      "156": 7247,
      "dance": 7248,
      "##pur": 7249,
      "##trice": 7250,
      "Dei": 7251,
      "sik": 7252,
      "composed": 7253,
      "1400": 7254,
      "Entwicklung": 7255,
      "Muslim": 7256,
      "##्": 7257,
      "waarin": 7258,
      "udalerriko": 7259,
      "##lage": 7260,
      "larger": 7261,
      "168": 7262,
      "zones": 7263,
      "Egypt": 7264,
      "your": 7265,
      "Baron": 7266,
      "Alain": 7267,
      "seul": 7268,
      "Galicia": 7269,
      "Comics": 7270,
      "diversas": 7271,
      "Never": 7272,
      "ligg": 7273,
      "##zas": 7274,
      "fiction": 7275,
      "apie": 7276,
      "ongeveer": 7277,
      "##dung": 7278,
      "assim": 7279,
      "Units": 7280,
      "##anie": 7281,
      "Governor": 7282,
      "magnitudo": 7283,
      "IMDb": 7284,
      "initially": 7285,
      "Schloss": 7286,
      "##ume": 7287,
      "##vanja": 7288,
      "Naval": 7289,
      "##imento": 7290,
      "loi": 7291,
      "Felipe": 7292,
      "Limited": 7293,
      "Ecuador": 7294,
      "##dou": 7295,
      "154": 7296,
      "##zenia": 7297,
      "Neben": 7298,
      "1797": 7299,
      "##५": 7300,
      "pois": 7301,
      "Frauen": 7302,
      "Notre": 7303,
      "Jahres": 7304,
      "##cco": 7305,
      "azt": 7306,
      "Dublin": 7307,
      "##uz": 7308,
      "Ocean": 7309,
      "Korean": 7310,
      "bo": 7311,
      "Natur": 7312,
      "sala": 7313,
      "metri": 7314,
      "stock": 7315,
      "sou": 7316,
      "stop": 7317,
      "navn": 7318,
      "bestaat": 7319,
      "raised": 7320,
      "singles": 7321,
      "##maa": 7322,
      "##chte": 7323,
      "##gem": 7324,
      "##lara": 7325,
      "masih": 7326,
      "Mercedes": 7327,
      "cadre": 7328,
      "prison": 7329,
      "cukup": 7330,
      "Uruguay": 7331,
      "Classic": 7332,
      "Emma": 7333,
      "होती": 7334,
      "Singh": 7335,
      "Nederlands": 7336,
      "lalek": 7337,
      "Orange": 7338,
      "##stad": 7339,
      "premio": 7340,
      "makes": 7341,
      "330": 7342,
      "finden": 7343,
      "Ye": 7344,
      "religion": 7345,
      "EM": 7346,
      "financial": 7347,
      "##lum": 7348,
      "##xi": 7349,
      "call": 7350,
      "rond": 7351,
      "##has": 7352,
      "algunas": 7353,
      "##bank": 7354,
      "##off": 7355,
      "fem": 7356,
      "Ferrari": 7357,
      "Krieg": 7358,
      "Alaska": 7359,
      "##iet": 7360,
      "Vienna": 7361,
      "##uch": 7362,
      "gift": 7363,
      "Also": 7364,
      "ditamukan": 7365,
      "Jerusalem": 7366,
      "laquelle": 7367,
      "vuosina": 7368,
      "##zada": 7369,
      "spesso": 7370,
      "Flora": 7371,
      "##jana": 7372,
      "produzione": 7373,
      "biztanleak": 7374,
      "Maine": 7375,
      "Six": 7376,
      "existence": 7377,
      "Graf": 7378,
      "pilot": 7379,
      "Guillaume": 7380,
      "populations": 7381,
      "##rica": 7382,
      "Masters": 7383,
      "races": 7384,
      "experience": 7385,
      "Politiker": 7386,
      "Torre": 7387,
      "##unt": 7388,
      "Congo": 7389,
      "juego": 7390,
      "king": 7391,
      "contact": 7392,
      "rispetto": 7393,
      "Metro": 7394,
      "Chemistry": 7395,
      "edizione": 7396,
      "gizon": 7397,
      "##seen": 7398,
      "pl": 7399,
      "connu": 7400,
      "धुंका": 7401,
      "punt": 7402,
      "puesto": 7403,
      "vara": 7404,
      "deu": 7405,
      "Buch": 7406,
      "epoca": 7407,
      "##ub": 7408,
      "##ised": 7409,
      "PGC": 7410,
      "devant": 7411,
      "Medicine": 7412,
      "Berliner": 7413,
      "##wald": 7414,
      "550": 7415,
      "MBC": 7416,
      "Computer": 7417,
      "saka": 7418,
      "terre": 7419,
      "##ght": 7420,
      "konnten": 7421,
      "##ड": 7422,
      "sat": 7423,
      "representa": 7424,
      "Bar": 7425,
      "massa": 7426,
      "Peace": 7427,
      "##wel": 7428,
      "typu": 7429,
      "##ved": 7430,
      "raz": 7431,
      "##oy": 7432,
      "versions": 7433,
      "##dne": 7434,
      "##tok": 7435,
      "believed": 7436,
      "evento": 7437,
      "Oriental": 7438,
      "mag": 7439,
      "ball": 7440,
      "201": 7441,
      "animalia": 7442,
      "##yr": 7443,
      "dice": 7444,
      "##platz": 7445,
      "Burg": 7446,
      "agit": 7447,
      "claimed": 7448,
      "parish": 7449,
      "Utara": 7450,
      "podle": 7451,
      "Republika": 7452,
      "cell": 7453,
      "Hand": 7454,
      "weeks": 7455,
      "Anders": 7456,
      "Side": 7457,
      "Mare": 7458,
      "championship": 7459,
      "stars": 7460,
      "vila": 7461,
      "##fu": 7462,
      "Philippines": 7463,
      "nuclear": 7464,
      "union": 7465,
      "##rian": 7466,
      "Colin": 7467,
      "##bit": 7468,
      "Production": 7469,
      "jogo": 7470,
      "Introduction": 7471,
      "failed": 7472,
      "giorno": 7473,
      "allo": 7474,
      "fight": 7475,
      "Latvijas": 7476,
      "oedd": 7477,
      "architecture": 7478,
      "domaine": 7479,
      "duke": 7480,
      "Historic": 7481,
      "kdy": 7482,
      "##band": 7483,
      "##kap": 7484,
      "FA": 7485,
      "quand": 7486,
      "foreign": 7487,
      "##nska": 7488,
      "##ann": 7489,
      "Gunung": 7490,
      "stessa": 7491,
      "gouf": 7492,
      "teki": 7493,
      "Federico": 7494,
      "1796": 7495,
      "Meister": 7496,
      "baten": 7497,
      "davon": 7498,
      "##iger": 7499,
      "command": 7500,
      "yuta": 7501,
      "##mir": 7502,
      "winner": 7503,
      "mainly": 7504,
      "Lanka": 7505,
      "etxetan": 7506,
      "jumlah": 7507,
      "Rica": 7508,
      "troops": 7509,
      "electronic": 7510,
      "##bility": 7511,
      "nave": 7512,
      "offered": 7513,
      "225": 7514,
      "Lane": 7515,
      "1775": 7516,
      "Hugh": 7517,
      "Theo": 7518,
      "sampai": 7519,
      "##chaft": 7520,
      "ceux": 7521,
      "##dere": 7522,
      "205": 7523,
      "Primary": 7524,
      "##cz": 7525,
      "Joachim": 7526,
      "##rkan": 7527,
      "bal": 7528,
      "nhau": 7529,
      "##nidae": 7530,
      "##elijk": 7531,
      "##kka": 7532,
      "kembali": 7533,
      "denn": 7534,
      "polos": 7535,
      "vivo": 7536,
      "locale": 7537,
      "moi": 7538,
      "helped": 7539,
      "Affairs": 7540,
      "proceso": 7541,
      "Dresden": 7542,
      "boli": 7543,
      "products": 7544,
      "Due": 7545,
      "##iki": 7546,
      "##ick": 7547,
      "saj": 7548,
      "vert": 7549,
      "carriera": 7550,
      "Seattle": 7551,
      "Willem": 7552,
      "167": 7553,
      "##rana": 7554,
      "fivondronan": 7555,
      "##nat": 7556,
      "musik": 7557,
      "Einsatz": 7558,
      "##recht": 7559,
      "firma": 7560,
      "tysk": 7561,
      "Unido": 7562,
      "##bro": 7563,
      "Security": 7564,
      "Karel": 7565,
      "Kanton": 7566,
      "mam": 7567,
      "##imi": 7568,
      "##yk": 7569,
      "novela": 7570,
      "Sweden": 7571,
      "anggota": 7572,
      "siguientes": 7573,
      "tennis": 7574,
      "dituzten": 7575,
      "Hudson": 7576,
      "overall": 7577,
      "border": 7578,
      "fans": 7579,
      "Werk": 7580,
      "numbers": 7581,
      "##oko": 7582,
      "Lors": 7583,
      "vann": 7584,
      "##kie": 7585,
      "Agosto": 7586,
      "Grammy": 7587,
      "subsequently": 7588,
      "aparece": 7589,
      "consists": 7590,
      "##ggi": 7591,
      "Kate": 7592,
      "1300": 7593,
      "couple": 7594,
      "might": 7595,
      "vezes": 7596,
      "prior": 7597,
      "Both": 7598,
      "##baar": 7599,
      "##idas": 7600,
      "Jo": 7601,
      "annet": 7602,
      "sulle": 7603,
      "##gli": 7604,
      "mellem": 7605,
      "aire": 7606,
      "Montreal": 7607,
      "lavoro": 7608,
      "Dam": 7609,
      "##zos": 7610,
      "osoba": 7611,
      "drug": 7612,
      "assistant": 7613,
      "pessoas": 7614,
      "response": 7615,
      "Edgar": 7616,
      "Giorgio": 7617,
      "##onia": 7618,
      "leaving": 7619,
      "hall": 7620,
      "दूगु": 7621,
      "ubicado": 7622,
      "acquired": 7623,
      "Rico": 7624,
      "##gut": 7625,
      "MS": 7626,
      "sacaro": 7627,
      "barruko": 7628,
      "521": 7629,
      "Ich": 7630,
      "157": 7631,
      "opere": 7632,
      "##dent": 7633,
      "TITAN": 7634,
      "turned": 7635,
      "Ayiti": 7636,
      "projekt": 7637,
      "##lingen": 7638,
      "estudio": 7639,
      "##ctor": 7640,
      "press": 7641,
      "selama": 7642,
      "तो": 7643,
      "hockey": 7644,
      "##scher": 7645,
      "whole": 7646,
      "Belgique": 7647,
      "##onal": 7648,
      "##tou": 7649,
      "sui": 7650,
      "Spiel": 7651,
      "##eb": 7652,
      "Energy": 7653,
      "##zug": 7654,
      "figures": 7655,
      "##00": 7656,
      "alleen": 7657,
      "oil": 7658,
      "हिन्दू": 7659,
      "Seven": 7660,
      "Newton": 7661,
      "department": 7662,
      "sam": 7663,
      "##rra": 7664,
      "carried": 7665,
      "##ars": 7666,
      "Vicente": 7667,
      "lungsod": 7668,
      "##ppe": 7669,
      "cuales": 7670,
      "Istituto": 7671,
      "allemand": 7672,
      "kamen": 7673,
      "##water": 7674,
      "Phoenix": 7675,
      "Regierung": 7676,
      "innerhalb": 7677,
      "kwadrado": 7678,
      "oppervlakte": 7679,
      "transfer": 7680,
      "eigenen": 7681,
      "##lam": 7682,
      "Cook": 7683,
      "vinden": 7684,
      "lenga": 7685,
      "##nun": 7686,
      "bridge": 7687,
      "##gg": 7688,
      "mile": 7689,
      "lagi": 7690,
      "kinh": 7691,
      "doch": 7692,
      "650": 7693,
      "mind": 7694,
      "nego": 7695,
      "Ved": 7696,
      "290": 7697,
      "erneut": 7698,
      "##iones": 7699,
      "Electric": 7700,
      "generoko": 7701,
      "raison": 7702,
      "Bush": 7703,
      "##vil": 7704,
      "ला": 7705,
      "Angola": 7706,
      "viz": 7707,
      "##gna": 7708,
      "desarrollo": 7709,
      "ikkje": 7710,
      "meaning": 7711,
      "stories": 7712,
      "vocal": 7713,
      "##mina": 7714,
      "161": 7715,
      "Browser": 7716,
      "Batman": 7717,
      "berada": 7718,
      "sekolah": 7719,
      "##aj": 7720,
      "treba": 7721,
      "houses": 7722,
      "##ove": 7723,
      "Software": 7724,
      "dela": 7725,
      "Marvel": 7726,
      "##cken": 7727,
      "familian": 7728,
      "exemplo": 7729,
      "teil": 7730,
      "##uo": 7731,
      "Operation": 7732,
      "Emmanuel": 7733,
      "Zum": 7734,
      "Feb": 7735,
      "cabo": 7736,
      "Delta": 7737,
      "##gde": 7738,
      "Take": 7739,
      "Solo": 7740,
      "##ान": 7741,
      "centrum": 7742,
      "##nud": 7743,
      "Warszawa": 7744,
      "fora": 7745,
      "Action": 7746,
      "##mme": 7747,
      "Drama": 7748,
      "interview": 7749,
      "##ssen": 7750,
      "1980s": 7751,
      "Teresa": 7752,
      "escritor": 7753,
      "stort": 7754,
      "Estats": 7755,
      "ancient": 7756,
      "opposition": 7757,
      "dagli": 7758,
      "Despite": 7759,
      "habitantaro": 7760,
      "##lje": 7761,
      "Bas": 7762,
      "nim": 7763,
      "Rom": 7764,
      "158": 7765,
      "Sus": 7766,
      "Braun": 7767,
      "Zijn": 7768,
      "multi": 7769,
      "olla": 7770,
      "direkt": 7771,
      "disebut": 7772,
      "sing": 7773,
      "grada": 7774,
      "finally": 7775,
      "##stica": 7776,
      "Alemania": 7777,
      "Caroline": 7778,
      "Jego": 7779,
      "membuat": 7780,
      "Galerie": 7781,
      "voice": 7782,
      "SBS": 7783,
      "hacer": 7784,
      "163": 7785,
      "Jepang": 7786,
      "Theory": 7787,
      "##owanie": 7788,
      "effects": 7789,
      "SK": 7790,
      "##ktor": 7791,
      "aproximadamente": 7792,
      "Via": 7793,
      "sortie": 7794,
      "##lina": 7795,
      "teoria": 7796,
      "##rda": 7797,
      "Sean": 7798,
      "marriage": 7799,
      "##schap": 7800,
      "PS": 7801,
      "Wiley": 7802,
      "sien": 7803,
      "earned": 7804,
      "Railways": 7805,
      "permanent": 7806,
      "words": 7807,
      "comercial": 7808,
      "Beatles": 7809,
      "Type": 7810,
      "##gate": 7811,
      "Petit": 7812,
      "##lica": 7813,
      "damals": 7814,
      "##nze": 7815,
      "##aya": 7816,
      "impact": 7817,
      "SA": 7818,
      "toerana": 7819,
      "जुइ": 7820,
      "##bas": 7821,
      "passa": 7822,
      "np": 7823,
      "pole": 7824,
      "##rst": 7825,
      "soprattutto": 7826,
      "##fo": 7827,
      "##jin": 7828,
      "Ba": 7829,
      "occasion": 7830,
      "escola": 7831,
      "Insel": 7832,
      "Helen": 7833,
      "attention": 7834,
      "Cleveland": 7835,
      "terdapat": 7836,
      "Ward": 7837,
      "Grace": 7838,
      "tropical": 7839,
      "Sachsen": 7840,
      "Klaus": 7841,
      "##ike": 7842,
      "Afrique": 7843,
      "Statistical": 7844,
      "voix": 7845,
      "Bremen": 7846,
      "Jennifer": 7847,
      "Depuis": 7848,
      "basso": 7849,
      "literatura": 7850,
      "renda": 7851,
      "Edinburgh": 7852,
      "manga": 7853,
      "kurz": 7854,
      "nearly": 7855,
      "treatment": 7856,
      "Sophie": 7857,
      "Swedish": 7858,
      "languages": 7859,
      "passe": 7860,
      "kes": 7861,
      "broadcast": 7862,
      "Conform": 7863,
      "##िया": 7864,
      "attempt": 7865,
      "seasons": 7866,
      "MODIS": 7867,
      "conocida": 7868,
      "Sarajevo": 7869,
      "habe": 7870,
      "comes": 7871,
      "pernah": 7872,
      "enough": 7873,
      "Baltimore": 7874,
      "Personen": 7875,
      "illetve": 7876,
      "Sofia": 7877,
      "conhecido": 7878,
      "lives": 7879,
      "Tower": 7880,
      "terhadap": 7881,
      "plants": 7882,
      "##dik": 7883,
      "busklandskap": 7884,
      "##vam": 7885,
      "##wr": 7886,
      "Beginn": 7887,
      "machine": 7888,
      "Capital": 7889,
      "Pero": 7890,
      "Dakota": 7891,
      "Bundesliga": 7892,
      "weg": 7893,
      "torre": 7894,
      "Eduard": 7895,
      "Sevilla": 7896,
      "Minh": 7897,
      "##rina": 7898,
      "Sweet": 7899,
      "genere": 7900,
      "##gung": 7901,
      "remaining": 7902,
      "##meister": 7903,
      "Chelsea": 7904,
      "Te": 7905,
      "OCLC": 7906,
      "##row": 7907,
      "Iraq": 7908,
      "KBS": 7909,
      "reference": 7910,
      "milieu": 7911,
      "Formula": 7912,
      "##rius": 7913,
      "Boris": 7914,
      "Napoleon": 7915,
      "Potter": 7916,
      "zavatra": 7917,
      "Tra": 7918,
      "mizaka": 7919,
      "Ronald": 7920,
      "256": 7921,
      "##list": 7922,
      "Round": 7923,
      "##iros": 7924,
      "maken": 7925,
      "kerk": 7926,
      "bl": 7927,
      "Run": 7928,
      "channel": 7929,
      "militare": 7930,
      "Luke": 7931,
      "Leta": 7932,
      "Sex": 7933,
      "zweite": 7934,
      "##ory": 7935,
      "kini": 7936,
      "carreira": 7937,
      "##iar": 7938,
      "incluso": 7939,
      "166": 7940,
      "Editorial": 7941,
      "Future": 7942,
      "box": 7943,
      "##lit": 7944,
      "##ncies": 7945,
      "##noj": 7946,
      "nl": 7947,
      "Nation": 7948,
      "strane": 7949,
      "desember": 7950,
      "danas": 7951,
      "kommunadir": 7952,
      "##lista": 7953,
      "want": 7954,
      "outro": 7955,
      "starb": 7956,
      "##vik": 7957,
      "asteroide": 7958,
      "product": 7959,
      "nay": 7960,
      "Hapit": 7961,
      "nalukop": 7962,
      "Mundo": 7963,
      "Vancouver": 7964,
      "sens": 7965,
      "covered": 7966,
      "##ship": 7967,
      "वह": 7968,
      "ehemaligen": 7969,
      "ring": 7970,
      "gav": 7971,
      "essa": 7972,
      "Ring": 7973,
      "levels": 7974,
      "femmes": 7975,
      "##skej": 7976,
      "Sitz": 7977,
      "dapit": 7978,
      "helt": 7979,
      "fills": 7980,
      "##tri": 7981,
      "##ीय": 7982,
      "Mart": 7983,
      "jen": 7984,
      "Lars": 7985,
      "164": 7986,
      "Wiener": 7987,
      "252": 7988,
      "क्षेत्र": 7989,
      "leven": 7990,
      "podem": 7991,
      "responsible": 7992,
      "persone": 7993,
      "Vegas": 7994,
      "prendre": 7995,
      "Chiesa": 7996,
      "eram": 7997,
      "##hez": 7998,
      "##ded": 7999,
      "##uf": 8000,
      "moderna": 8001,
      "Cymru": 8002,
      "##spiel": 8003,
      "nen": 8004,
      "##sation": 8005,
      "Japon": 8006,
      "cut": 8007,
      "176": 8008,
      "principios": 8009,
      "##zenie": 8010,
      "Bretagne": 8011,
      "proposed": 8012,
      "##cke": 8013,
      "##lata": 8014,
      "tin": 8015,
      "Building": 8016,
      "Ban": 8017,
      "fuit": 8018,
      "##wym": 8019,
      "fit": 8020,
      "162": 8021,
      "Isaac": 8022,
      "Child": 8023,
      "dina": 8024,
      "Heritage": 8025,
      "##rico": 8026,
      "AB": 8027,
      "नाम": 8028,
      "Orden": 8029,
      "##psis": 8030,
      "मध्य": 8031,
      "217": 8032,
      "224": 8033,
      "##८": 8034,
      "4000": 8035,
      "Wide": 8036,
      "Holy": 8037,
      "NATO": 8038,
      "Key": 8039,
      "chanson": 8040,
      "sajtu": 8041,
      "##hold": 8042,
      "kontsultatua": 8043,
      "sabagai": 8044,
      "Cameron": 8045,
      "gaan": 8046,
      "Felix": 8047,
      "sendiri": 8048,
      "##enti": 8049,
      "IBM": 8050,
      "Canton": 8051,
      "latter": 8052,
      "issued": 8053,
      "ata": 8054,
      "joue": 8055,
      "##tation": 8056,
      "Hal": 8057,
      "clima": 8058,
      "technique": 8059,
      "rencontre": 8060,
      "Craig": 8061,
      "jos": 8062,
      "Emil": 8063,
      "##pte": 8064,
      "##istas": 8065,
      "##uga": 8066,
      "initial": 8067,
      "meilleur": 8068,
      "Density": 8069,
      "206": 8070,
      "matrimonio": 8071,
      "regions": 8072,
      "heutigen": 8073,
      "familiak": 8074,
      "competed": 8075,
      "Hawaii": 8076,
      "Noiz": 8077,
      "heart": 8078,
      "ala": 8079,
      "Connecticut": 8080,
      "##eid": 8081,
      "asi": 8082,
      "chart": 8083,
      "participe": 8084,
      "fez": 8085,
      "llamada": 8086,
      "debe": 8087,
      "tradicional": 8088,
      "coa": 8089,
      "discovered": 8090,
      "##jat": 8091,
      "finals": 8092,
      "minute": 8093,
      "NBC": 8094,
      "Espagne": 8095,
      "Kane": 8096,
      "bare": 8097,
      "##lay": 8098,
      "Alessandro": 8099,
      "xa": 8100,
      "sorti": 8101,
      "urtean": 8102,
      "Republican": 8103,
      "extended": 8104,
      "Staaten": 8105,
      "Ouest": 8106,
      "table": 8107,
      "documents": 8108,
      "##ilo": 8109,
      "Stato": 8110,
      "##kiem": 8111,
      "##OS": 8112,
      "estructura": 8113,
      "##oj": 8114,
      "zavod": 8115,
      "retour": 8116,
      "Rugby": 8117,
      "##rier": 8118,
      "##lade": 8119,
      "bilang": 8120,
      "##lainen": 8121,
      "Spanien": 8122,
      "Store": 8123,
      "##३": 8124,
      "travers": 8125,
      "वेबथाय्": 8126,
      "Transport": 8127,
      "utan": 8128,
      "Website": 8129,
      "Justin": 8130,
      "ailleurs": 8131,
      "195": 8132,
      "attraverso": 8133,
      "Indonesien": 8134,
      "1780": 8135,
      "manjadi": 8136,
      "yet": 8137,
      "factor": 8138,
      "##श": 8139,
      "Again": 8140,
      "##enne": 8141,
      "Renault": 8142,
      "##hir": 8143,
      "1784": 8144,
      "1970s": 8145,
      "Door": 8146,
      "security": 8147,
      "एवं": 8148,
      "Cet": 8149,
      "know": 8150,
      "##uro": 8151,
      "junior": 8152,
      "luvun": 8153,
      "presenza": 8154,
      "Archive": 8155,
      "vel": 8156,
      "235": 8157,
      "##ock": 8158,
      "1787": 8159,
      "Holstein": 8160,
      "starting": 8161,
      "futuro": 8162,
      "preko": 8163,
      "protiv": 8164,
      "##cka": 8165,
      "dock": 8166,
      "hombres": 8167,
      "208": 8168,
      "wsi": 8169,
      "whether": 8170,
      "##ston": 8171,
      "##kes": 8172,
      "Agency": 8173,
      "Shaw": 8174,
      "##ters": 8175,
      "Alliance": 8176,
      "Forum": 8177,
      "sciences": 8178,
      "##२": 8179,
      "##stas": 8180,
      "##igo": 8181,
      "ebbe": 8182,
      "findet": 8183,
      "quality": 8184,
      "172": 8185,
      "kata": 8186,
      "Brigade": 8187,
      "disease": 8188,
      "importance": 8189,
      "##rien": 8190,
      "Polonia": 8191,
      "lor": 8192,
      "tyske": 8193,
      "Places": 8194,
      "lid": 8195,
      "182": 8196,
      "tercer": 8197,
      "considerado": 8198,
      "evit": 8199,
      "##wanie": 8200,
      "tiga": 8201,
      "Plaza": 8202,
      "beaucoup": 8203,
      "Bulgaria": 8204,
      "##mma": 8205,
      "told": 8206,
      "##jska": 8207,
      "indak": 8208,
      "##rni": 8209,
      "Bee": 8210,
      "Chi": 8211,
      "##hos": 8212,
      "1783": 8213,
      "geht": 8214,
      "Lisboa": 8215,
      "grade": 8216,
      "pouze": 8217,
      "##aar": 8218,
      "tergolong": 8219,
      "leave": 8220,
      "##este": 8221,
      "travaux": 8222,
      "zog": 8223,
      "natomiast": 8224,
      "Alter": 8225,
      "हुआ": 8226,
      "cos": 8227,
      "quest": 8228,
      "177": 8229,
      "luz": 8230,
      "Butler": 8231,
      "Bonn": 8232,
      "rule": 8233,
      "##mont": 8234,
      "##etti": 8235,
      "##med": 8236,
      "buah": 8237,
      "Kings": 8238,
      "प्रदेश": 8239,
      "allow": 8240,
      "remporte": 8241,
      "##lak": 8242,
      "friends": 8243,
      "lies": 8244,
      "Administration": 8245,
      "##iny": 8246,
      "gadang": 8247,
      "सरकारया": 8248,
      "god": 8249,
      "tawo": 8250,
      "VF": 8251,
      "master": 8252,
      "Palace": 8253,
      "toont": 8254,
      "Steinicke": 8255,
      "binnen": 8256,
      "inter": 8257,
      "कुछ": 8258,
      "212": 8259,
      "true": 8260,
      "inga": 8261,
      "Cristo": 8262,
      "berasal": 8263,
      "flera": 8264,
      "kuten": 8265,
      "##seite": 8266,
      "Was": 8267,
      "Between": 8268,
      "##kem": 8269,
      "mass": 8270,
      "Uma": 8271,
      "marcapada": 8272,
      "Porifera": 8273,
      "Netherlands": 8274,
      "##ttu": 8275,
      "Nigeria": 8276,
      "households": 8277,
      "newspaper": 8278,
      "tedesco": 8279,
      "215": 8280,
      "nahimutangan": 8281,
      "Spencer": 8282,
      "1788": 8283,
      "elections": 8284,
      "##ctus": 8285,
      "haut": 8286,
      "residents": 8287,
      "##fication": 8288,
      "drums": 8289,
      "directly": 8290,
      "diretto": 8291,
      "alabak": 8292,
      "213": 8293,
      "##tako": 8294,
      "americana": 8295,
      "orixinal": 8296,
      "Dels": 8297,
      "genoemd": 8298,
      "minden": 8299,
      "musicale": 8300,
      "Metropolitan": 8301,
      "visto": 8302,
      "##चा": 8303,
      "Calais": 8304,
      "169": 8305,
      "##jonen": 8306,
      "##ikan": 8307,
      "##fel": 8308,
      "despite": 8309,
      "Hindu": 8310,
      "Hope": 8311,
      "##ess": 8312,
      "##iset": 8313,
      "##tidae": 8314,
      "candidate": 8315,
      "##czny": 8316,
      "##गु": 8317,
      "Jakob": 8318,
      "basketball": 8319,
      "##elo": 8320,
      "Emperor": 8321,
      "actions": 8322,
      "efforts": 8323,
      "Suid": 8324,
      "नोभेम्बर": 8325,
      "##zzi": 8326,
      "Hansen": 8327,
      "lugha": 8328,
      "Grupo": 8329,
      "noen": 8330,
      "hod": 8331,
      "##oir": 8332,
      "Sergio": 8333,
      "completamente": 8334,
      "Study": 8335,
      "constructed": 8336,
      "birlikte": 8337,
      "Glasgow": 8338,
      "Czech": 8339,
      "Hrvatskoj": 8340,
      "Islamic": 8341,
      "asked": 8342,
      "says": 8343,
      "selle": 8344,
      "Wallace": 8345,
      "livello": 8346,
      "##ago": 8347,
      "produit": 8348,
      "Hell": 8349,
      "jamais": 8350,
      "utanas": 8351,
      "propio": 8352,
      "202": 8353,
      "grandi": 8354,
      "Domingo": 8355,
      "##iji": 8356,
      "Chen": 8357,
      "##vina": 8358,
      "alten": 8359,
      "Warszawie": 8360,
      "compositor": 8361,
      "big": 8362,
      "politica": 8363,
      "crear": 8364,
      "Campo": 8365,
      "gihabogon": 8366,
      "##tischen": 8367,
      "recherche": 8368,
      "besonders": 8369,
      "Challenge": 8370,
      "Tartu": 8371,
      "commence": 8372,
      "##pio": 8373,
      "अन्य": 8374,
      "##lies": 8375,
      "Akademie": 8376,
      "activity": 8377,
      "hal": 8378,
      "miasto": 8379,
      "Youth": 8380,
      "##raum": 8381,
      "Rainer": 8382,
      "##skie": 8383,
      "coast": 8384,
      "Berkeley": 8385,
      "##alo": 8386,
      "Organisation": 8387,
      "Linda": 8388,
      "formato": 8389,
      "##ees": 8390,
      "barn": 8391,
      "profesional": 8392,
      "##eit": 8393,
      "fifth": 8394,
      "##ple": 8395,
      "formerly": 8396,
      "senare": 8397,
      "Works": 8398,
      "consiste": 8399,
      "##dde": 8400,
      "komun": 8401,
      "WoRMS": 8402,
      "bile": 8403,
      "graduated": 8404,
      "inferior": 8405,
      "onda": 8406,
      "204": 8407,
      "danh": 8408,
      "weil": 8409,
      "Diarsipan": 8410,
      "ea": 8411,
      "planetesimal": 8412,
      "tanan": 8413,
      "##rf": 8414,
      "mellett": 8415,
      "cine": 8416,
      "##vali": 8417,
      "eesti": 8418,
      "nuk": 8419,
      "corte": 8420,
      "tabantuak": 8421,
      "Trust": 8422,
      "seconde": 8423,
      "nation": 8424,
      "aktiv": 8425,
      "Nepal": 8426,
      "##care": 8427,
      "ud": 8428,
      "Productions": 8429,
      "Kiss": 8430,
      "kasaluruahan": 8431,
      "kind": 8432,
      "MM": 8433,
      "Liberal": 8434,
      "Sarupo": 8435,
      "Short": 8436,
      "ngaran": 8437,
      "Princess": 8438,
      "Senate": 8439,
      "Helena": 8440,
      "380": 8441,
      "##itu": 8442,
      "Saesneg": 8443,
      "पहाडी": 8444,
      "nearby": 8445,
      "Herman": 8446,
      "Roll": 8447,
      "Rights": 8448,
      "kasnije": 8449,
      "innych": 8450,
      "indica": 8451,
      "gitara": 8452,
      "promoted": 8453,
      "median": 8454,
      "##enden": 8455,
      "##ivi": 8456,
      "Forces": 8457,
      "divenne": 8458,
      "petite": 8459,
      "seulement": 8460,
      "Freedom": 8461,
      "Facebook": 8462,
      "##tten": 8463,
      "Bedeutung": 8464,
      "mere": 8465,
      "##bora": 8466,
      "Fernsehserie": 8467,
      "lehen": 8468,
      "pai": 8469,
      "Elena": 8470,
      "Artens": 8471,
      "188": 8472,
      "Hart": 8473,
      "mogu": 8474,
      "Francuske": 8475,
      "spons": 8476,
      "mujeres": 8477,
      "##punkt": 8478,
      "dezembro": 8479,
      "olyan": 8480,
      "percent": 8481,
      "Diana": 8482,
      "##okat": 8483,
      "quatro": 8484,
      "Kenneth": 8485,
      "suatu": 8486,
      "abad": 8487,
      "Brooklyn": 8488,
      "menyebabkan": 8489,
      "जुल": 8490,
      "vegada": 8491,
      "Bolivia": 8492,
      "Olivier": 8493,
      "langue": 8494,
      "bulunan": 8495,
      "tiden": 8496,
      "##ierten": 8497,
      "managed": 8498,
      "Gregory": 8499,
      "maximum": 8500,
      "##hs": 8501,
      "##cima": 8502,
      "179": 8503,
      "##sco": 8504,
      "340": 8505,
      "resmi": 8506,
      "##gens": 8507,
      "##cznej": 8508,
      "method": 8509,
      "Deux": 8510,
      "olika": 8511,
      "Utah": 8512,
      "search": 8513,
      "parfois": 8514,
      "tropas": 8515,
      "donna": 8516,
      "medieval": 8517,
      "##rati": 8518,
      "primarily": 8519,
      "czy": 8520,
      "pakigbingkil": 8521,
      "Murphy": 8522,
      "bois": 8523,
      "SEDAC": 8524,
      "num": 8525,
      "janeiro": 8526,
      "Greg": 8527,
      "models": 8528,
      "Player": 8529,
      "##kla": 8530,
      "211": 8531,
      "dana": 8532,
      "baseball": 8533,
      "##ome": 8534,
      "mudo": 8535,
      "##iten": 8536,
      "titel": 8537,
      "Facts": 8538,
      "##nji": 8539,
      "Russland": 8540,
      "ton": 8541,
      "ll": 8542,
      "sezonie": 8543,
      "##aki": 8544,
      "##ioni": 8545,
      "techniques": 8546,
      "mapa": 8547,
      "178": 8548,
      "dess": 8549,
      "171": 8550,
      "popolazione": 8551,
      "noe": 8552,
      "calcio": 8553,
      "females": 8554,
      "gikk": 8555,
      "Tamil": 8556,
      "##bla": 8557,
      "यक्व": 8558,
      "images": 8559,
      "Test": 8560,
      "Theodor": 8561,
      "likely": 8562,
      "##gent": 8563,
      "##js": 8564,
      "eux": 8565,
      "183": 8566,
      "##dale": 8567,
      "Marne": 8568,
      "##skich": 8569,
      "IATA": 8570,
      "ships": 8571,
      "servir": 8572,
      "enquanto": 8573,
      "जनगणना": 8574,
      "Turkey": 8575,
      "193": 8576,
      "##ated": 8577,
      "quel": 8578,
      "animals": 8579,
      "##ible": 8580,
      "##com": 8581,
      "exterior": 8582,
      "Leopold": 8583,
      "181": 8584,
      "skrev": 8585,
      "siempre": 8586,
      "Londra": 8587,
      "##ulo": 8588,
      "breve": 8589,
      "arter": 8590,
      "thay": 8591,
      "guitarra": 8592,
      "##rca": 8593,
      "NY": 8594,
      "##sza": 8595,
      "1785": 8596,
      "गां": 8597,
      "ID": 8598,
      "zahlreiche": 8599,
      "TBS": 8600,
      "crime": 8601,
      "##iere": 8602,
      "##mektedir": 8603,
      "##वर": 8604,
      "भाय्": 8605,
      "SP": 8606,
      "wing": 8607,
      "##bon": 8608,
      "Leonardo": 8609,
      "##itet": 8610,
      "argent": 8611,
      "##owi": 8612,
      "Tanzania": 8613,
      "Squadron": 8614,
      "Norway": 8615,
      "penduduk": 8616,
      "arrived": 8617,
      "संकिपा": 8618,
      "wanted": 8619,
      "posizione": 8620,
      "##ants": 8621,
      "alternative": 8622,
      "##ए": 8623,
      "Espanya": 8624,
      "Commonwealth": 8625,
      "partire": 8626,
      "pare": 8627,
      "##पुर": 8628,
      "origin": 8629,
      "##ensis": 8630,
      "sowohl": 8631,
      "##rno": 8632,
      "abans": 8633,
      "Rebecca": 8634,
      "darunter": 8635,
      "Bologna": 8636,
      "1776": 8637,
      "##eel": 8638,
      "##ldi": 8639,
      "duc": 8640,
      "##ther": 8641,
      "highly": 8642,
      "diferents": 8643,
      "savo": 8644,
      "commerce": 8645,
      "terzo": 8646,
      "##schule": 8647,
      "appear": 8648,
      "Mutter": 8649,
      "Alla": 8650,
      "julho": 8651,
      "##१": 8652,
      "##20": 8653,
      "suya": 8654,
      "Jonas": 8655,
      "journalist": 8656,
      "##vent": 8657,
      "posterior": 8658,
      "##oo": 8659,
      "antiga": 8660,
      "184": 8661,
      "tornou": 8662,
      "Venezia": 8663,
      "govori": 8664,
      "Reihe": 8665,
      "verschiedene": 8666,
      "Bond": 8667,
      "hulle": 8668,
      "executive": 8669,
      "catalog": 8670,
      "Happy": 8671,
      "trains": 8672,
      "Avec": 8673,
      "ello": 8674,
      "Local": 8675,
      "Ice": 8676,
      "पनि": 8677,
      "Haaptacteuren": 8678,
      "##rol": 8679,
      "samym": 8680,
      "Source": 8681,
      "principio": 8682,
      "grands": 8683,
      "Fantasy": 8684,
      "strada": 8685,
      "##nation": 8686,
      "Birmingham": 8687,
      "wedi": 8688,
      "acteur": 8689,
      "Lucky": 8690,
      "222": 8691,
      "passage": 8692,
      "##mark": 8693,
      "groep": 8694,
      "propria": 8695,
      "cancer": 8696,
      "Frans": 8697,
      "##gis": 8698,
      "##nsi": 8699,
      "##bol": 8700,
      "207": 8701,
      "sejak": 8702,
      "कुमाँउ": 8703,
      "Torres": 8704,
      "Allah": 8705,
      "hoe": 8706,
      "namun": 8707,
      "koju": 8708,
      "Harvey": 8709,
      "luvulla": 8710,
      "rumah": 8711,
      "omborida": 8712,
      "##zon": 8713,
      "performances": 8714,
      "occidental": 8715,
      "##ismus": 8716,
      "kuid": 8717,
      "##tva": 8718,
      "platform": 8719,
      "sob": 8720,
      "edad": 8721,
      "horas": 8722,
      "ganz": 8723,
      "Publishers": 8724,
      "174": 8725,
      "Tot": 8726,
      "vitin": 8727,
      "विकास": 8728,
      "Race": 8729,
      "##arna": 8730,
      "Conseil": 8731,
      "Werke": 8732,
      "posible": 8733,
      "romano": 8734,
      "vastaan": 8735,
      "Auguste": 8736,
      "temas": 8737,
      "ambiente": 8738,
      "particulier": 8739,
      "##par": 8740,
      "Gene": 8741,
      "Titre": 8742,
      "iba": 8743,
      "IPAC": 8744,
      "tat": 8745,
      "bataille": 8746,
      "langau": 8747,
      "Alta": 8748,
      "Oh": 8749,
      "Petersburg": 8750,
      "Counties": 8751,
      "##nent": 8752,
      "FK": 8753,
      "saying": 8754,
      "Mind": 8755,
      "Cultura": 8756,
      "Turkish": 8757,
      "##pos": 8758,
      "173": 8759,
      "Orleans": 8760,
      "1960s": 8761,
      "niya": 8762,
      "##jus": 8763,
      "Ain": 8764,
      "Synopsis": 8765,
      "partner": 8766,
      "founder": 8767,
      "1990s": 8768,
      "Wind": 8769,
      "##lare": 8770,
      "##tera": 8771,
      "beispielsweise": 8772,
      "movimento": 8773,
      "timp": 8774,
      "Francji": 8775,
      "##ologia": 8776,
      "projects": 8777,
      "##iente": 8778,
      "##cina": 8779,
      "Weg": 8780,
      "haver": 8781,
      "##४": 8782,
      "197": 8783,
      "brasileiro": 8784,
      "Javier": 8785,
      "crisis": 8786,
      "prominent": 8787,
      "bestand": 8788,
      "minutos": 8789,
      "quelle": 8790,
      "kallt": 8791,
      "lainnya": 8792,
      "Supreme": 8793,
      "bon": 8794,
      "Klein": 8795,
      "svoj": 8796,
      "nouvelles": 8797,
      "##fte": 8798,
      "##lls": 8799,
      "##chu": 8800,
      "##tiques": 8801,
      "##dora": 8802,
      "Louisiana": 8803,
      "##ffer": 8804,
      "permite": 8805,
      "skupiny": 8806,
      "Aircraft": 8807,
      "ljudi": 8808,
      "giorni": 8809,
      "##alt": 8810,
      "gemeinsam": 8811,
      "physical": 8812,
      "Senior": 8813,
      "dikenal": 8814,
      "appearances": 8815,
      "prej": 8816,
      "Indien": 8817,
      "abord": 8818,
      "Upper": 8819,
      "Marx": 8820,
      "kampung": 8821,
      "oriental": 8822,
      "Clarke": 8823,
      "folgte": 8824,
      "Provence": 8825,
      "Universitas": 8826,
      "umumiy": 8827,
      "historique": 8828,
      "tiek": 8829,
      "pont": 8830,
      "Magnus": 8831,
      "olaraq": 8832,
      "ina": 8833,
      "artikkelen": 8834,
      "Nombre": 8835,
      "##्न": 8836,
      "Luna": 8837,
      "यो": 8838,
      "waktu": 8839,
      "##yar": 8840,
      "##ossa": 8841,
      "##eron": 8842,
      "Heaven": 8843,
      "danach": 8844,
      "slik": 8845,
      "sinds": 8846,
      "Uni": 8847,
      "Angelo": 8848,
      "Ted": 8849,
      "Member": 8850,
      "medios": 8851,
      "knowledge": 8852,
      "##gere": 8853,
      "inside": 8854,
      "jugador": 8855,
      "##erer": 8856,
      "obres": 8857,
      "Swiss": 8858,
      "illa": 8859,
      "realizar": 8860,
      "allora": 8861,
      "AD": 8862,
      "vooral": 8863,
      "##nau": 8864,
      "departementet": 8865,
      "trabalho": 8866,
      "duo": 8867,
      "Price": 8868,
      "##cional": 8869,
      "ju": 8870,
      "filem": 8871,
      "Bowl": 8872,
      "kus": 8873,
      "miembro": 8874,
      "prova": 8875,
      "##heden": 8876,
      "extension": 8877,
      "conta": 8878,
      "Xbox": 8879,
      "##ining": 8880,
      "Jose": 8881,
      "samma": 8882,
      "##asa": 8883,
      "SR": 8884,
      "##ovat": 8885,
      "वर्ग": 8886,
      "Baptiste": 8887,
      "edu": 8888,
      "##inu": 8889,
      "wi": 8890,
      "##vne": 8891,
      "Rangers": 8892,
      "##fort": 8893,
      "chamado": 8894,
      "moet": 8895,
      "card": 8896,
      "Pulau": 8897,
      "objet": 8898,
      "navnet": 8899,
      "SE": 8900,
      "tinggi": 8901,
      "##idea": 8902,
      "Carol": 8903,
      "punti": 8904,
      "olup": 8905,
      "Common": 8906,
      "approach": 8907,
      "literature": 8908,
      "populasyon": 8909,
      "Wu": 8910,
      "peso": 8911,
      "करते": 8912,
      "Once": 8913,
      "Creative": 8914,
      "potential": 8915,
      "boleh": 8916,
      "Sara": 8917,
      "##aron": 8918,
      "binh": 8919,
      "Clara": 8920,
      "##rze": 8921,
      "##tung": 8922,
      "gminy": 8923,
      "meisten": 8924,
      "capacity": 8925,
      "siste": 8926,
      "lassen": 8927,
      "verde": 8928,
      "pikeun": 8929,
      "gun": 8930,
      "Soc": 8931,
      "nde": 8932,
      "Pete": 8933,
      "proyecto": 8934,
      "bolo": 8935,
      "Armee": 8936,
      "Albums": 8937,
      "Friends": 8938,
      "Manhattan": 8939,
      "Vila": 8940,
      "Falls": 8941,
      "Reserve": 8942,
      "kaum": 8943,
      "##pta": 8944,
      "rules": 8945,
      "##uni": 8946,
      "unui": 8947,
      "##buch": 8948,
      "revealed": 8949,
      "formal": 8950,
      "##ery": 8951,
      "junho": 8952,
      "aide": 8953,
      "Questo": 8954,
      "Nell": 8955,
      "sole": 8956,
      "समय": 8957,
      "##weise": 8958,
      "Arean": 8959,
      "480": 8960,
      "dun": 8961,
      "Gerhard": 8962,
      "Amy": 8963,
      "##juk": 8964,
      "eri": 8965,
      "##cznego": 8966,
      "Julian": 8967,
      "##wskiego": 8968,
      "commonly": 8969,
      "egen": 8970,
      "objekata": 8971,
      "##but": 8972,
      "अंग्रेजी": 8973,
      "promotion": 8974,
      "plantas": 8975,
      "##eto": 8976,
      "Season": 8977,
      "##७": 8978,
      "cells": 8979,
      "##else": 8980,
      "##ode": 8981,
      "##zne": 8982,
      "library": 8983,
      "positions": 8984,
      "formas": 8985,
      "Grund": 8986,
      "transferred": 8987,
      "materials": 8988,
      "tree": 8989,
      "focus": 8990,
      "file": 8991,
      "account": 8992,
      "##oka": 8993,
      "rodziny": 8994,
      "##eet": 8995,
      "sastavu": 8996,
      "acuerdo": 8997,
      "aurait": 8998,
      "bases": 8999,
      "dix": 9000,
      "ancak": 9001,
      "amore": 9002,
      "Each": 9003,
      "industria": 9004,
      "आहेत": 9005,
      "187": 9006,
      "##rov": 9007,
      "longitud": 9008,
      "##zan": 9009,
      "Noord": 9010,
      "Notes": 9011,
      "Paz": 9012,
      "##gle": 9013,
      "OF": 9014,
      "##iad": 9015,
      "Landes": 9016,
      "studi": 9017,
      "poor": 9018,
      "punk": 9019,
      "fare": 9020,
      "vielen": 9021,
      "blue": 9022,
      "5th": 9023,
      "##iidae": 9024,
      "Malta": 9025,
      "Auto": 9026,
      "vant": 9027,
      "meet": 9028,
      "ataque": 9029,
      "Toledo": 9030,
      "Spieler": 9031,
      "Studium": 9032,
      "vittoria": 9033,
      "##uden": 9034,
      "surtout": 9035,
      "probably": 9036,
      "Florence": 9037,
      "bandar": 9038,
      "##skap": 9039,
      "Rain": 9040,
      "Philipp": 9041,
      "officially": 9042,
      "teilweise": 9043,
      "186": 9044,
      "scientific": 9045,
      "##lma": 9046,
      "##kunde": 9047,
      "Change": 9048,
      "forward": 9049,
      "smaller": 9050,
      "##nium": 9051,
      "grupy": 9052,
      "##stone": 9053,
      "##sha": 9054,
      "parmi": 9055,
      "Dog": 9056,
      "Pod": 9057,
      "green": 9058,
      "participar": 9059,
      "soldiers": 9060,
      "tots": 9061,
      "SPD": 9062,
      "Irlanda": 9063,
      "Through": 9064,
      "build": 9065,
      "Nash": 9066,
      "ander": 9067,
      "kecil": 9068,
      "Finale": 9069,
      "tentang": 9070,
      "Lieutenant": 9071,
      "attore": 9072,
      "autour": 9073,
      "urban": 9074,
      "waarbij": 9075,
      "##eten": 9076,
      "Chapter": 9077,
      "Questa": 9078,
      "Autor": 9079,
      "Sci": 9080,
      "221": 9081,
      "dedicated": 9082,
      "Stein": 9083,
      "199": 9084,
      "semua": 9085,
      "Halle": 9086,
      "tumani": 9087,
      "density": 9088,
      "Musical": 9089,
      "kommen": 9090,
      "Verenigde": 9091,
      "##ln": 9092,
      "kein": 9093,
      "Zeitschrift": 9094,
      "##nova": 9095,
      "designated": 9096,
      "Ses": 9097,
      "##lda": 9098,
      "tekst": 9099,
      "pass": 9100,
      "silver": 9101,
      "1100": 9102,
      "Proceedings": 9103,
      "Madison": 9104,
      "renamed": 9105,
      "meget": 9106,
      "209": 9107,
      "Heinz": 9108,
      "Generation": 9109,
      "construit": 9110,
      "firm": 9111,
      "Pink": 9112,
      "segons": 9113,
      "Rogers": 9114,
      "binne": 9115,
      "steeds": 9116,
      "##enta": 9117,
      "hebbt": 9118,
      "except": 9119,
      "servizio": 9120,
      "Alejandro": 9121,
      "principe": 9122,
      "Bahn": 9123,
      "blanc": 9124,
      "##ray": 9125,
      "##ever": 9126,
      "Holmes": 9127,
      "Alexandra": 9128,
      "divided": 9129,
      "##km": 9130,
      "awards": 9131,
      "##geschichte": 9132,
      "primero": 9133,
      "vis": 9134,
      "amerikanske": 9135,
      "vaak": 9136,
      "198": 9137,
      "tych": 9138,
      "Minas": 9139,
      "lac": 9140,
      "Liu": 9141,
      "dead": 9142,
      "pressure": 9143,
      "##zeko": 9144,
      "seda": 9145,
      "1786": 9146,
      "brand": 9147,
      "situado": 9148,
      "svenska": 9149,
      "Christoph": 9150,
      "Sullivan": 9151,
      "ireo": 9152,
      "urbo": 9153,
      "1770": 9154,
      "##kia": 9155,
      "Persian": 9156,
      "##con": 9157,
      "Right": 9158,
      "Off": 9159,
      "pou": 9160,
      "algo": 9161,
      "Episode": 9162,
      "##rah": 9163,
      "nimi": 9164,
      "sons": 9165,
      "council": 9166,
      "komen": 9167,
      "Mobile": 9168,
      "Henta": 9169,
      "##ijas": 9170,
      "temperature": 9171,
      "##kej": 9172,
      "filho": 9173,
      "bestelako": 9174,
      "Biblioteca": 9175,
      "expression": 9176,
      "##tit": 9177,
      "solar": 9178,
      "objetivo": 9179,
      "collaboration": 9180,
      "Where": 9181,
      "jih": 9182,
      "दक्षिण": 9183,
      "1750": 9184,
      "##czna": 9185,
      "localizada": 9186,
      "189": 9187,
      "241": 9188,
      "Davies": 9189,
      "escrita": 9190,
      "##lagt": 9191,
      "Desember": 9192,
      "terminal": 9193,
      "Call": 9194,
      "druge": 9195,
      "moving": 9196,
      "kama": 9197,
      "ibi": 9198,
      "Gmina": 9199,
      "parc": 9200,
      "grave": 9201,
      "singolo": 9202,
      "##zka": 9203,
      "evitar": 9204,
      "##ningar": 9205,
      "flight": 9206,
      "officers": 9207,
      "lack": 9208,
      "quais": 9209,
      "अधिक": 9210,
      "incluyendo": 9211,
      "Christine": 9212,
      "quickly": 9213,
      "danske": 9214,
      "travel": 9215,
      "viel": 9216,
      "sets": 9217,
      "ability": 9218,
      "melhor": 9219,
      "ig": 9220,
      "Miles": 9221,
      "episodes": 9222,
      "awal": 9223,
      "2020": 9224,
      "links": 9225,
      "pemain": 9226,
      "##mai": 9227,
      "Executive": 9228,
      "##zni": 9229,
      "191": 9230,
      "bestaan": 9231,
      "grew": 9232,
      "Julio": 9233,
      "insee": 9234,
      "##isti": 9235,
      "titled": 9236,
      "Mother": 9237,
      "trial": 9238,
      "job": 9239,
      "zeigt": 9240,
      "Cinema": 9241,
      "##tif": 9242,
      "desse": 9243,
      "lane": 9244,
      "##album": 9245,
      "gut": 9246,
      "कारण": 9247,
      "##ave": 9248,
      "Abdul": 9249,
      "##ense": 9250,
      "actualmente": 9251,
      "Segons": 9252,
      "unde": 9253,
      "Full": 9254,
      "tuttavia": 9255,
      "##eken": 9256,
      "Double": 9257,
      "avrebbe": 9258,
      "secret": 9259,
      "##anza": 9260,
      "quartier": 9261,
      "zonas": 9262,
      "cukuik": 9263,
      "sebelum": 9264,
      "loc": 9265,
      "##mientu": 9266,
      "Evolution": 9267,
      "196": 9268,
      "sydlig": 9269,
      "Morning": 9270,
      "216": 9271,
      "##९": 9272,
      "moral": 9273,
      "Serra": 9274,
      "Beck": 9275,
      "audio": 9276,
      "planeta": 9277,
      "gyda": 9278,
      "Nga": 9279,
      "barubah": 9280,
      "##tja": 9281,
      "Heidelberg": 9282,
      "follows": 9283,
      "Text": 9284,
      "kuni": 9285,
      "historic": 9286,
      "join": 9287,
      "sasuatu": 9288,
      "pacahan": 9289,
      "Punta": 9290,
      "XXI": 9291,
      "considera": 9292,
      "auteurs": 9293,
      "##cum": 9294,
      "##bou": 9295,
      "Jefferson": 9296,
      "actriz": 9297,
      "Eurovision": 9298,
      "Peak": 9299,
      "Katalog": 9300,
      "conducted": 9301,
      "##onen": 9302,
      "भाषाया": 9303,
      "Angleterre": 9304,
      "mixed": 9305,
      "naseljeno": 9306,
      "HC": 9307,
      "recently": 9308,
      "mouvement": 9309,
      "##ional": 9310,
      "luogo": 9311,
      "sieben": 9312,
      "monte": 9313,
      "Cina": 9314,
      "214": 9315,
      "##rim": 9316,
      "mesta": 9317,
      "Rachel": 9318,
      "say": 9319,
      "letzte": 9320,
      "academic": 9321,
      "Xavier": 9322,
      "antalet": 9323,
      "mewn": 9324,
      "##verk": 9325,
      "diffusion": 9326,
      "gdy": 9327,
      "mercado": 9328,
      "226": 9329,
      "pelasi": 9330,
      "menys": 9331,
[...]
