[PAD]
[unused1]
[unused2]
[unused3]
[unused4]
[unused5]
[unused6]
[unused7]
[unused8]
[unused9]
[unused10]
[unused11]
[unused12]
[unused13]
[unused14]
[unused15]
[unused16]
[unused17]
[unused18]
[unused19]
[unused20]
[unused21]
[unused22]
[unused23]
[unused24]
[unused25]
[unused26]
[unused27]
[unused28]
[unused29]
[unused30]
[unused31]
[unused32]
[unused33]
[unused34]
[unused35]
[unused36]
[unused37]
[unused38]
[unused39]
[unused40]
[unused41]
[unused42]
[unused43]
[unused44]
[unused45]
[unused46]
[unused47]
[unused48]
[unused49]
[unused50]
[unused51]
[unused52]
[unused53]
[unused54]
[unused55]
[unused56]
[unused57]
[unused58]
[unused59]
[unused60]
[unused61]
[unused62]
[unused63]
[unused64]
[unused65]
[unused66]
[unused67]
[unused68]
[unused69]
[unused70]
[unused71]
[unused72]
[unused73]
[unused74]
[unused75]
[unused76]
[unused77]
[unused78]
[unused79]
[unused80]
[unused81]
[unused82]
[unused83]
[unused84]
[unused85]
[unused86]
[unused87]
[unused88]
[unused89]
[unused90]
[unused91]
[unused92]
[unused93]
[unused94]
[unused95]
[unused96]
[unused97]
[unused98]
[unused99]
[UNK]
[CLS]
[SEP]
[MASK]
<S>
<T>
!
"
#
$
%
&
'
(
)
*
+
,
-
.
/
0
1
2
3
4
5
6
7
8
9
:
;
<
=
>
?
@
A
B
C
D
E
F
G
H
I
J
K
L
M
N
O
P
Q
R
S
T
U
V
W
X
Y
Z
[
\
]
^
_
a
b
c
d
e
f
g
h
i
j
k
l
m
n
o
p
q
r
s
t
u
v
w
x
y
z
{
|
}
~
ँ
ं
ः
अ
आ
इ
ई
उ
ऊ
ऋ
ऍ
ऎ
ए
ऐ
ऑ
ओ
औ
क
ख
ग
घ
ङ
च
छ
ज
झ
ञ
ट
ठ
ड
ढ
ण
त
थ
द
ध
न
प
फ
ब
भ
म
य
र
ऱ
ल
ळ
व
श
ष
स
ह
़
ऽ
ा
ि
ी
ु
ू
ृ
ॄ
ॅ
ॆ
े
ै
ॉ
ो
ौ
्
ॐ
॓
ॠ
।
॥
०
१
२
३
४
५
६
७
८
९
॰
ॲ
de
the
in
##s
of
la
en
and
##e
##a
to
##n
##i
The
der
un
di
que
##t
is
el
se
del
die
##r
und
et
na
##o
was
on
##en
##u
des
den
le
for
da
je
van
as
##m
sa
do
10
an
les
una
il
by
og
##y
2011
La
at
##l
##d
er
al
##er
von
In
du
with
av
##es
med
con
##k
2010
est
och
per
2000
som
los
por
nga
2012
12
het
from
that
De
no
11
2014
2009
es
20
su
ISBN
een
ja
2007
2008
km
##an
2013
15
om
im
com
##ta
2006
dan
##te
18
##na
para
mit
2015
als
El
como
his
ha
##da
##ing
une
...
24
Den
Die
##h
##ne
##g
das
En
30
##in
##re
14
par
13
16
##us
2005
##de
2016
au
25
000
dans
he
che
##on
2004
yang
em
dem
##ch
19
it
2001
17
til
2002
han
##ia
Le
Il
wurde
##le
las
della
New
##ra
ein
##is
um
si
2003
21
ist
var
Species
are
2017
op
zu
##z
22
##et
were
##os
od
son
An
26
World
##do
which
##ja
va
pour
ve
1999
##ti
sur
23
auf
##la
II
##ed
Life
war
za
##to
##se
##ni
##no
or
nel
be
28
det
##c
##ar
qui
He
eine
az
te
##va
1998
27
mm
##nt
##ma
finns
##ka
sich
Catalogue
had
##ng
It
also
so
##je
29
1996
##li
1997
am
has
roku
dari
dos
ur
##ie
##ri
entre
##as
University
lo
100
eta
##p
era
के
31
ni
##al
##j
##ce
1990
John
first
voor
##ca
##ment
os
met
ou
2018
all
1995
uma
##ko
aus
1991
1994
Der
non
foi
##si
1992
##em
af
har
##ly
their
ar
##b
film
avec
50
1993
one
##um
##sa
bis
Les
San
not
but
its
##v
ir
who
ny
York
##ga
her
##it
ang
Mexico
over
bei
ser
www
nach
dei
##mi
trakten
trong
##ki
ligger
alla
po
auch
History
yn
door
UK
1989
##ge
##at
dat
runt
have
this
में
40
American
##ba
1980
ed
uit
species
##ur
este
1988
ya
##ke
two
parte
fue
ne
Checklist
http
Ang
amb
bir
##st
plus
ITIS
##ro
Press
है
##el
under
zijn
##f
On
1986
werd
zum
1987
1985
978
pada
meter
men
##man
been
dell
ini
familia
din
September
1984
##ci
einer
Orrell
Saint
sua
##ul
##ndo
album
1970
qu
United
ao
##mente
##ve
mais
werden
Annual
seu
Panoramas
Viewfinder
genus
september
Kirk
oli
##me
fra
Reading
Los
Michael
sie
##den
time
##za
##io
Bourgoin
NASA
1982
1983
Bailly
ngan
sont
Roskov
Baillargeon
III
Paglinawan
1981
National
No
dengan
DEM
after
dalam
ett
1975
Det
##or
part
01
1945
dia
Das
1979
##nya
1972
come
##ya
red
##ten
els
other
Na
##x
France
they
sobre
##om
1978
William
tot
1968
1960
jako
##di
delen
1976
##kan
##ek
into
60
##ak
till
durch
##lo
##ung
ble
06
1977
1974
1973
May
nicht
aan
Paris
##2
ka
##S
1971
org
Mer
August
zur
mai
##A
dal
up
ng
einem
This
nahilalakip
new
थ्व
aux
##ny
500
##ho
##1
oder
##ju
sind
landet
1969
Jean
algoritmen
Algoritmer
Lsjbot
International
Paul
City
##lar
##ji
200
April
untuk
adalah
hij
uska
ziren
att
wird
iz
ce
sin
Im
##go
more
nan
1967
pas
havet
35
David
ei
##ts
nella
US
hini
1950
##co
TV
04
##ler
man
Han
November
Robert
Nicolson
##tion
ma
1944
की
45
1962
London
lui
05
80
she
dels
##ir
delle
St
1965
ad
when
32
65
sus
subspecies
due
##ku
cu
years
1964
1966
##C
States
familjen
fan
NGC
Ouvrard
Het
Bisby
##ze
ginhulagway
later
##w
1961
##ter
07
ki
1941
As
Al
##3
County
Waray
1940
huvudstaden
nakalista
##ns
only
would
1939
##ik
einen
James
##ers
godine
1963
kan
03
##ry
januari
me
Es
##ी
Er
##sen
90
##des
##ha
70
year
Charles
##ban
##0
blev
pa
varmaste
kallaste
beskrevs
medeltemperaturen
during
where
ze
eller
##rs
can
underarter
1958
between
out
Bronnen
wie
George
him
Inga
sono
millimeter
noten
##ben
juli
referenties
alle
##ren
##sta
jest
ses
1956
##rt
और
about
Peter
1959
listade
02
School
vun
comme
1943
tahun
##tu
most
genomsnitt
wurden
torraste
Genomsnittlig
regnigaste
33
three
1948
fu
##am
kvadratkilometer
##ou
##4
Earth
anche
ben
1942
made
##ria
ye
##ov
00
1957
1930
1920
##il
used
1954
##mo
dhe
09
vom
##wa
Un
##jo
sebagai
forma
##ica
##be
Se
##ion
durante
przez
such
deux
08
known
ved
36
South
ta
nie
then
USA
##ken
1946
dass
You
Maria
##ina
34
final
1955
से
League
population
##land
का
1938
##lla
than
nu
1953
##ine
naam
##T
300
IV
1949
Thomas
1918
India
1952
All
State
merupakan
##un
Oxford
familie
club
July
1947
##zione
elle
Richard
##che
June
team
Az
1936
unter
44
##P
##ner
##ic
care
second
zen
ca
mga
Nel
Retrieved
##ok
##ig
##th
March
inom
##nu
She
some
##ada
Santa
there
oleh
##ste
GeoNames
##ut
British
pe
Film
ke
West
data
##5
gli
area
co
38
1937
born
400
kao
any
became
##dos
##ton
serie
एक
ook
##que
vor
place
Berlin
##ty
soort
##tes
including
1951
pod
##ble
37
##das
well
cm
##ा
##gi
##6
October
egy
##nen
Jahr
koji
General
oraz
through
being
North
season
##nte
waren
noch
##ll
doi
##ea
##res
Martin
##ant
hadton
January
Park
eerst
##vo
1933
Love
##id
hat
ko
##ssa
database
Po
Society
cho
##E
##ck
tra
fost
pero
को
##les
##ning
##lle
1935
##ado
##R
##B
##ske
42
War
##gen
##I
##zi
1934
pro
1919
December
Em
##ot
##ist
64
bij
##nie
##ista
many
48
After
sebuah
39
##der
##7
1914
nord
pp
##vi
Database
Europa
suo
Club
Music
radie
Grand
ci
name
Museum
against
prima
fait
volt
1932
Louis
##nia
1929
will
total
One
bi
Man
1928
them
ai
##berg
41
hogy
dalla
nur
##pe
world
ab
55
##pa
before
amin
original
family
series
won
1917
##L
43
while
ale
##9
single
ont
Joseph
commune
uno
##nde
1931
cui
may
state
general
##tas
Records
desde
school
sous
solo
##8
Art
byl
For
##ski
juni
##O
base
##ent
via
nom
both
roce
hasta
seiner
stato
47
sowie
1924
75
##men
ex
naar
work
worden
people
gepubliceerd
Encyclopedia
gran
wetenschappelijke
##lu
local
mars
grande
America
Lake
1927
until
##ky
##ger
##G
geldig
##न
College
Union
Ny
##du
1922
##cia
1925
cette
##ura
1921
zeuden
To
Trakten
wa
1926
contra
Van
##ii
##sk
sein
##ol
##ska
history
number
##ad
##D
nombre
seine
Jahre
##nes
##ों
##mento
bu
Am
primer
esta
Nach
1912
February
System
Award
King
anni
##M
Las
bat
hi
1923
partir
51
52
Nacional
##tt
46
FC
##by
sem
##lt
##nd
juga
##N
ay
released
##ien
##ai
Elle
Cup
House
sig
provinsen
##र
bagian
called
played
##े
Italia
nem
seus
same
stanovnika
##F
aber
1900
hatte
band
end
nos
River
49
asteroid
Sie
city
1910
Washington
##ach
Me
My
##are
China
Tour
Royal
His
four
##son
ing
Henry
ile
##ert
1913
village
##len
Pierre
based
##ischen
Dr
li
zwei
English
tre
vid
Italy
##ron
California
##ita
##ies
##ire
56
##ian
##ana
nome
Canada
ikke
re
##cht
Red
##he
##bi
CD
IC
namngivna
principal
54
Routledge
eines
wordt
Indonesia
kilometer
sud
game
degli
##lich
Italian
##so
niet
anno
##ische
Smith
version
vez
##ks
ug
##ud
##ru
tres
1915
public
khoa
Juan
dit
december
long
They
Cambridge
At
England
##q
Air
##au
izd
sistema
##ier
##cy
##ल
nun
हैं
##mu
Center
BBC
There
vuonna
november
##ida
Madrid
Runt
Australia
Best
sau
early
##K
ut
several
1911
Company
Don
Si
ville
ans
enligt
##ls
pentru
Black
Association
olan
atau
53
Christian
dont
##im
use
84
these
Hall
since
nog
150
Europe
Hans
ten
Festival
olarak
land
former
##ini
##V
UTC
##han
cada
go
Mai
1916
seva
system
zwischen
guerra
##bo
Do
Daniel
pela
Roma
group
600
Francisco
##nin
wat
regia
Jan
leur
oktober
##ation
maar
1905
##tor
home
57
Da
1908
##dae
##ciones
found
58
station
fin
##ius
Census
East
Marie
Star
augusti
music
post
donde
national
##त
high
set
Island
##dor
like
1907
दु
##ux
mas
##vat
now
ra
punkten
##nda
Karl
##lik
Jahren
##idae
59
tidak
fut
Frank
Antonio
april
dopo
primera
##iu
Stadt
##ker
Insecta
Central
ga
nei
##ang
Japan
French
kg
XIX
show
off
800
following
Estados
pelo
dieser
##ige
##ua
##chen
itu
##ico
##ted
premier
European
ban
Bu
##ice
Open
site
major
Observations
##hi
vida
adolah
Band
Journal
gegen
februari
1906
Od
art
1904
day
began
##ive
century
1909
##ling
each
##ity
##ej
we
##ata
telah
located
High
##dir
District
ili
Street
##sti
estado
Als
Oktober
Unidos
havia
quando
##gan
seit
##ven
Zeit
95
novembre
Per
nasod
Edward
##zen
भाषा
Division
net
service
##ui
held
autres
Population
Mark
##ei
menjadi
Time
Land
aussi
Nord
Lee
member
song
##rio
back
##era
85
agosto
Times
hans
##U
##rd
anos
German
##nik
bien
Institute
deze
Is
sul
named
hun
seg
##ville
##sch
andere
onder
government
120
Carlos
Group
##lan
depuis
unha
onde
##tan
nad
##ene
alors
Alexander
Live
62
XX
khi
88
Hij
large
video
Modern
lugar
mot
Radio
Os
casa
age
##lor
##zo
##cie
essere
company
##ure
jeho
life
##ley
binon
district
Rio
##ran
Barcelona
production
line
72
meg
##ere
palibot
##ris
main
fr
First
eerste
##kin
##tte
mi
gikan
ali
Index
White
ainsi
efter
Team
##ting
social
latach
Information
##dan
Science
Una
took
##nce
##क
left
Rock
Data
Op
jedoch
ordo
around
huvudsak
did
habitantes
could
1903
Mary
##bu
82
built
capital
1000
99
form
nell
pado
या
joka
dla
habitants
##ului
##tta
Diptera
Friedrich
abril
However
Ein
fa
##ber
पर
250
66
News
region
town
From
##ale
86
Carl
ersten
variansen
lan
pre
zona
Angeles
##val
Simon
tempo
finale
kom
famili
When
INSEE
etter
##zioni
##burg
rock
side
hadde
play
present
1901
63
##ah
terletak
partie
sy
VI
PMID
Brasil
viene
Pada
Su
Von
banda
Tom
##age
if
##sche
##tus
grupo
primo
Atlas
water
##ksi
etwa
Hill
##ique
kingdom
received
bio
Jones
Anna
##ano
zich
1902
published
##ido
word
96
1890
61
67
Chicago
mar
ciudad
loro
iki
81
served
98
97
point
##ros
drei
Santiago
##liche
mort
List
Championship
Jack
Bureau
Coleoptera
##cji
##मा
Diakses
##ino
##mann
##cu
##nek
##dy
match
Awards
temps
Roman
Day
mu
include
top
heeft
Juli
700
cuando
68
##mer
because
Cerambycidae
etc
Juni
pri
mens
within
kann
Real
bulan
##ms
##ito
##tet
mentre
Son
##H
central
##inen
Por
along
marzo
##nej
five
Sa
byla
Animalia
83
record
ning
jego
##jen
said
Internet
fueron
##ego
sonra
Albert
Culture
Marine
wieder
76
radio
orang
provincia
andre
##ate
kam
obra
##nje
##ima
engleski
filum
six
puis
important
##ium
##ens
92
##jos
director
italiano
PDF
members
##nih
Texas
Januar
last
mehr
million
small
Album
##ari
sido
Young
93
Big
died
program
vart
football
buvo
What
1898
78
pel
Williams
##kt
kelas
Arthropoda
Football
best
Walter
##ono
contre
##को
71
Este
bila
media
91
##aan
quan
##wy
otros
77
Party
Amerika
international
74
##lis
##leri
lors
jo
own
Indian
73
Vol
##zy
1897
During
1896
##rat
##lig
zo
vo
death
very
nalazi
milimetro
##ver
DVD
air
marupokan
peut
koja
1899
##gt
69
##ceae
vers
##we
Academy
87
##nja
building
##sten
##gu
yr
satu
Great
ela
Under
Sant
importante
##nis
1895
popular
Lac
lang
id
mis
##iert
control
Of
naselje
With
mereka
##ld
Brown
jaar
anys
third
##let
Johann
beim
##ques
ele
services
dall
tanggal
89
esis
tym
Nam
Werner
still
Road
seinem
trois
todo
todos
jsou
##rum
mei
Bei
Kunze
Wilhelm
centre
##X
##pi
those
##ara
col
Cerro
##od
थाय्
##ys
##tti
kilometro
Top
fou
And
Church
Wever
children
kayu
Mit
Culham
Night
##ite
meer
##pen
##per
vol
##ez
By
##og
ter
##ato
1889
country
seinen
vier
1880
##nak
ia
##use
agus
haar
Version
##ele
tak
included
jusqu
Jacques
mayor
book
94
diese
##nti
##ser
liegt
north
Army
lat
##ster
plaats
##schen
##ue
Germany
mindre
zuen
##sia
eds
Asia
##ras
##ret
Super
causa
points
izan
79
Dezember
centro
wo
ano
1870
Grande
##ova
##sko
##chi
type
##ile
ihre
President
Scott
cidade
tai
Luis
##isch
##sse
##tar
just
Council
##ane
##ija
Social
juo
Australian
tiene
##iva
Prix
Guerra
##nych
Centre
twee
dove
tour
ces
Con
antes
tersebut
Pedro
avant
Sir
Argentina
Max
led
Kanada
Ende
another
We
questo
##bar
##ye
metros
comune
piano
##ि
Africa
comuna
So
near
ovat
title
see
norte
cual
##su
Liga
1886
koje
old
often
tem
Iran
different
##rie
Windows
jej
1885
ako
##kom
venne
##sel
Harry
Mr
Verlag
##ona
tanto
##mas
dar
##lichen
1894
##one
player
information
##ade
president
Department
down
Little
Arts
Portugal
gada
segundo
Di
leta
nas
Power
##line
sen
##van
position
temporada
Research
1893
##ft
live
Meyer
##cha
Jr
1892
##dd
groupe
role
Blue
isang
##cions
what
##net
ich
fins
qual
Sciences
1891
##ais
##eur
omgivningarna
VII
order
Israel
puede
Francia
##aren
web
car
late
tout
##ey
hoa
##ira
bet
described
Deutschland
##uk
poi
किया
Spesies
##lin
career
grand
##ore
heute
Men
you
Dans
##ena
##W
Global
Durante
##ise
Teil
poder
sunt
##vu
jak
##est
vattendrag
eran
1888
tu
dann
110
XVIII
moved
##ika
##rn
Joe
nelle
##uje
plan
durant
gemeente
Green
Lo
Adam
Good
Els
fel
##zu
hai
Wilson
volta
make
XVI
ने
spesies
आहे
##uri
grandes
studio
##able
Co
hvor
caso
plusieurs
presidente
Creek
aastal
Manuel
##sis
monde
ez
tipo
Ed
sans
glesbefolkat
again
Nova
IUCN
period
##vel
##een
erste
ihm
##ali
Arthur
##ring
##ves
mundo
Instituto
south
support
Bay
##ses
Copa
Chris
iko
##ges
kun
Bill
avril
quatre
Western
jorden
Prema
##ard
Jackson
way
Afrika
much
ho
Gemeinde
sitt
vum
##ente
ils
Song
लिए
power
##ित
Eine
##ih
women
gant
model
konnte
father
musical
##ham
Decock
##ende
Abucay
mismo
##tra
Au
Serie
##ncia
similar
Two
house
Law
##lia
Chile
हो
##ps
html
gia
fois
ary
##eri
Her
1878
##rea
berg
Series
Mae
Johnson
Names
sulla
established
even
1883
maj
These
law
vagy
Li
##ati
kuperad
article
##sh
##ds
miejsce
Mike
Platz
Gran
Michel
##ix
##tic
level
1887
Kirche
anderen
भी
Thompson
haben
mutta
##nom
face
fler
Giovanni
Cette
Chinese
far
##cije
Ben
Register
Long
Steve
##ami
##ula
suite
##ide
norr
##tos
vil
##ee
##ala
Philip
##ons
among
hier
##cs
games
opera
1860
cap
Ce
Media
Dit
Geraadpleegd
Office
##met
style
Sud
community
circa
Wikimedia
##het
Paulo
tudi
##op
memiliki
sempre
##tik
1884
##fa
fino
##nza
##via
Heinrich
full
dapat
##yn
deel
syahan
using
came
Force
##mos
##ford
130
inwoners
lebih
foram
##cher
##ism
written
Taylor
kot
ganska
ovanligt
##issa
development
construction
##field
natural
sai
gan
Februar
list
php
historia
weer
##ss
ilk
1848
debut
1882
1881
nebo
juin
stata
##स
produced
##tis
fine
muy
kasarangang
##ici
Lord
centrala
went
genomsnittlig
right
quale
Show
next
Signifikant
##heid
lub
modern
started
become
Russian
avait
times
##ने
famille
Columbia
##nan
##rna
primeiro
case
##eg
tous
##urs
Russell
kepada
ru
min
##tat
real
Service
Anne
Are
##cija
tema
##tura
Para
##ous
students
ihrer
##ell
##ados
bereits
given
avoir
Une
1st
1871
Roger
lain
Ali
##po
Billboard
nordost
married
यह
##mus
UEFA
janvier
uz
zituzten
##rer
Bank
marca
Women
##ता
##nn
Kim
material
encuentra
mesmo
900
##mes
various
akan
##nim
average
dins
Your
yra
fire
septembre
Plants
##ingen
##ese
Year
round
Otto
take
website
head
##bra
Bob
##cio
gov
nin
origine
secondo
morte
dort
let
class
junto
##ht
##ral
persones
Inc
hay
saison
Ohio
octobre
1861
samt
Henri
kumbang
Lietuvos
story
ihn
ac
1864
Malaysia
tussen
ging
1857
1879
Virginia
zuten
modo
##tica
##yi
Empire
Entre
That
1800
##nego
##ket
plu
##eren
1876
Jahrhundert
Up
altres
fer
Wien
##llo
Victoria
without
date
##ले
Esta
Florida
equipo
##िक
yo
siglo
huvudsakligen
tal
having
Reference
Republic
Seine
Boston
design
election
sia
##ismo
Special
beiden
##ungen
bahin
##tz
mer
cerca
altri
language
padre
Queen
punto
dai
FIFA
store
VIII
##iem
Program
short
pop
##ो
term
contro
##hu
##bre
lifayelas
Foi
forces
Alfred
Ottawa
##rte
west
political
download
Francis
##ero
Ha
##igen
katika
Ma
created
Francesco
##ement
Tony
segunda
division
Franz
Unis
##gang
nuo
Lewis
##bus
Een
##bel
oficial
vie
Old
cc
1877
titre
##rin
autre
momento
suoi
##ili
ara
ft
juillet
##los
1873
1863
1810
etxek
था
metal
Je
1875
nr
##ila
however
Book
ihr
1633
##ging
Des
##idad
Commons
1865
programa
Natural
##nosti
##erd
##ff
1867
Frantsesez
skulle
few
mellom
east
Digital
uso
Diese
communes
stesso
eren
African
naselju
##म
Sky
##vis
##ram
Japanese
160
pays
aos
##dia
professor
announced
arte
manera
worked
##rar
1868
bez
##ede
Stephen
Patrick
sei
Saison
primeira
Ray
ima
##य
Villa
half
daha
1850
##iv
Some
Toppen
Google
##ong
XIII
online
Robinson
Taxonomic
bil
Home
Universidad
Costa
##iti
##ando
Miguel
dy
seperti
Johannes
180
joined
eit
##jas
##if
Region
project
1500
##rus
See
economic
structure
Romania
##iques
Buenos
dello
route
eo
ass
hanno
Nature
field
gibt
1866
1872
SS
erhielt
XVII
1859
theo
vita
vir
wrote
vi
sos
140
Ia
Aires
free
Airport
notamment
##Z
Sun
Act
##nym
Rainfall
##ding
beste
updated
seorang
Brian
1869
##ern
##heim
ulan
##las
##ett
##nika
sub
1862
days
lieu
Geschichte
##jon
Georg
##nas
Wikipedia
##ay
Andrew
##elle
diesem
tarde
Books
Lady
maart
Jawa
works
##ness
Mario
actual
##ani
God
Amsterdam
##ं
Consultado
Pro
Fernando
Canadian
Studies
race
Bad
returned
nije
1874
aquest
Oscar
quien
bol
party
military
status
fi
waar
aj
125
Seit
XIV
przy
professional
enpresak
Online
Eric
##ella
municipio
Game
month
kde
actor
##tre
Enero
##ु
release
##nts
Za
##lus
Institut
founded
##tive
ही
Londres
octubre
##cja
##dad
sendo
Guide
open
##lli
salah
Fue
Hot
Publishing
run
Korea
XII
XV
Regie
Court
##nus
tiempo
2nd
lead
research
Dictionary
EP
dessen
Meksiku
##owy
Ludwig
कि
##uta
https
101
win
possible
faire
##way
##nica
##bach
color
Wales
Oslo
##vas
regionen
Point
Library
miles
pola
##owych
homes
business
According
Mission
guerre
kanssa
Marco
civil
television
omkring
Jakarta
hem
inte
Mundial
Elizabeth
lost
Victor
nationale
dag
Jim
human
Pour
Second
##erte
Auf
Prince
forme
Mitglied
Entertainment
##tal
##ae
denne
##owej
##ties
Como
church
action
##her
molto
visini
##zer
cours
##una
##iro
secolo
##xa
tant
eus
gab
magyar
hett
recorded
sede
together
superficie
siendo
every
People
aveva
sydost
##tro
seguito
गया
rei
Set
dette
Miss
Ta
anti
##illa
##्य
pertama
elected
Ford
stagione
leurs
##owe
Dan
Century
hade
erano
इस
kwa
estaven
Sam
##osa
##amente
##bles
empresa
continued
films
Davis
dio
nouveau
Mount
considered
Wolfgang
zituen
making
Station
menos
deutschen
Project
office
ok
platt
nadmorskoj
principale
Alan
track
भारत
moment
Claude
##cus
episode
Be
bylo
yon
chi
Fort
roman
Carolina
jednak
vai
body
##ला
##ori
IX
province
Nueva
##bia
example
nacional
Nr
Minister
Line
Estado
Most
##isk
Gold
bajo
##rne
policy
edition
encore
##jan
opened
ere
syn
Town
algoritmo
ti
##hin
wife
##nos
Professor
Valley
autor
##wan
campo
Model
kas
##ich
##fi
teams
stad
kaominina
##ins
dende
##gar
event
##lui
##ille
sinh
news
##lige
Auch
Golden
performance
##lse
##san
Cruz
Spisak
Carlo
prema
Go
nam
Enrique
moins
eu
poco
##ful
DC
Jersey
geographical
Bernard
Zealand
joylashgan
Sur
Naselje
Corporation
##feld
active
bug
bola
##nost
yw
##haus
##ntes
Stone
sama
Sydney
outros
iku
Susan
special
Austria
ora
Committee
Namen
sehr
##uar
Britannica
##set
Other
Federal
result
##del
##bb
##lio
##isme
put
Games
Development
histoire
Out
questa
altre
##kel
Princeton
##ण
Familie
tego
Who
qua
Um
105
##ag
Roy
Girl
##ct
dva
##kou
zusammen
periodo
1830
If
Post
oko
sent
##ments
estat
areas
bahasa
flere
##zie
Trung
pode
##isi
##dal
damit
Foundation
Ernst
Eesti
Sin
mange
appeared
##nog
Space
##ose
Factbook
hag
peu
Kong
available
kada
Government
##nar
soit
##ces
further
lag
yari
front
##up
private
Rome
Pacific
##ait
While
##fe
stand
Stockholm
san
growth
Master
tard
Miller
working
Latin
keine
common
living
XI
developed
formed
august
others
secara
Web
Ireland
##oi
##oni
##ante
Hollywood
ligne
##gas
estaba
Public
Kingdom
Sverige
##sson
labon
##ean
Story
lu
Spanish
zif
Russia
Diego
dago
embargo
census
novel
blir
nebula
खः
##mar
ise
veel
mondiale
delstaten
Bruce
study
ialah
dinhi
Review
anaa
bilo
tako
1840
mint
##Y
Magnoliopsida
dentro
Hymenoptera
##pus
nafar
Order
eng
Premier
##rono
entry
Va
##eta
Pennsylvania
Islam
Alex
science
Yn
official
##nta
aquesta
Port
##kat
negara
young
Sea
Premio
Board
Budapest
militar
Anthony
##and
kad
Lepidoptera
##ggio
mycket
##wood
obefolkad
patedik
addition
himself
tuvo
##ete
##zia
Part
##dores
great
2009an
signed
gruppo
although
Navy
##oa
Network
Movie
##hen
bahwa
mare
furono
recensement
never
how
Regional
gradova
interior
tras
devient
Battle
deren
Last
Milano
cultural
102
should
Can
Janeiro
otras
Samuel
Family
posto
bija
##ट
##sku
topon
##isen
Geonames
कथं
##ette
maior
Biography
Ort
lett
##fer
alta
NBA
##tie
Douglas
neu
तथा
Its
##ivo
court
parti
Sohn
celui
Rose
bekannt
##ao
map
1858
wieku
playing
Fox
Main
disco
ihren
staat
personas
Non
csak
##dt
section
appointed
##nou
Gordon
ente
park
distrito
collection
##werk
tutti
Civil
once
##get
Disney
pendant
2007an
Monte
zm
ant
tam
Illinois
hon
Final
Du
##ary
personal
sea
idea
municipal
talet
Commission
away
education
selon
##ora
hit
masa
Roberto
filme
##ych
##dra
Georges
Santo
##lag
Deze
##min
Summer
##vano
How
havde
bzw
Country
FishBase
exemple
##pt
territorio
befindet
current
standard
must
donc
komt
##less
vs
Major
cas
##iya
majd
350
Video
##my
cuenta
nich
allem
##zza
quella
punkt
Trade
Anderson
##ans
francesa
Norte
leader
dois
fils
particular
enw
Hamburg
Microsoft
##cos
##tions
##vet
politique
force
ohne
mil
police
kasadpan
fast
person
black
ese
Integrated
pot
Pristupljeno
1856
lifayels
dua
proceni
gitas
Sport
Education
##owa
mest
Leipzig
Dopo
polo
##व
1854
Report
classification
Casa
kilometers
Hong
return
##don
diverse
Howard
kang
suas
##nto
yer
character
Deutschen
Heart
besar
daerah
File
Allen
though
##zh
Like
does
##ela
taken
Internacional
Plant
principalmente
104
cinco
##pan
Southern
ella
aver
Massachusetts
aunque
my
ham
Ltd
across
weitere
जो
Mountain
especie
process
Three
nakon
##tto
Nations
Campeonato
bere
start
##ama
1849
opp
##ola
gdzie
chef
Theatre
culture
square
hy
pueden
##या
fase
diversos
##ast
##det
situada
books
banyak
tan
stor
##ava
sine
samo
aby
##tek
##lari
##iste
mal
##kar
letech
##ota
good
Joan
tid
inn
##cion
Planet
partido
sang
Concise
geen
Anh
Village
help
Colombia
1855
Frankfurt
deur
guitar
dies
hand
Georgia
रूप
Volume
##mis
##rsi
festival
daughter
Christopher
zone
source
nuevo
##iin
genre
Marc
Toronto
motor
fick
ulohan
##iden
white
homme
Catherine
Nahimutang
klimatzonen
Soviet
Business
performed
events
Greek
थासय्
todas
ada
maja
mother
klub
families
papel
minutes
kawasan
less
1852
Tokyo
cause
presente
currently
saveznoj
Tim
dira
Mexican
klima
kod
get
gen
Norman
beberapa
3000
terra
sold
lei
##sto
cao
##iga
##vy
drama
antara
alcuni
course
Manchester
Northern
deutscher
nama
415
gave
largest
##tin
stage
cuatro
##ije
##sin
Magazine
Moore
features
kunne
Kevin
upon
begann
Will
Boy
kui
##ries
Deutsche
Harper
##art
mayo
ancora
##tzen
##ping
##का
Stanley
bekend
alto
Minor
##vos
Kalkulado
wilayah
Philippe
170
Hotel
nouvelle
##gia
उत्तराखण्ड
##J
##stand
आणि
##aria
जाता
Human
italiana
pristupljeno
Walker
includes
##ott
Pakistan
magazine
ebenfalls
Middle
obras
ani
##ningen
directed
Gabriel
change
grad
oa
भारतया
songs
seconda
FM
##dar
Omgivningarna
##ias
Death
##lta
##hus
Catholic
Hoa
Michigan
##vin
Director
Universal
hacia
kommun
road
andra
##imo
sale
##nne
ouest
quello
sense
Finland
ins
alt
cultura
kako
statunitense
Sports
ditu
##its
quali
diferentes
designed
Burton
Gary
DNA
varios
##port
Bell
selbst
##ierte
##asi
neue
##ish
quelques
Ze
Small
1851
text
##heit
ordre
ona
lange
Jane
Johnny
##द
103
ger
months
originally
issue
gol
##fen
Maurice
##dom
##house
1853
sol
famiglia
libro
parts
hebben
shows
tae
ensemble
##wie
Coppa
depois
##leg
7th
celle
maggio
settembre
##tore
##ios
Since
##yo
Ab
Est
direction
range
Beach
altra
quindi
mid
mod
usa
##din
grup
league
##ient
##ial
format
apenas
katalog
Irish
low
digunakan
##king
center
Ivan
vu
tri
##tel
Hitler
tegen
regione
##bile
neuen
groups
climate
toda
Denne
seen
anderem
nova
##ली
1846
sammen
Way
giugno
Province
Cross
regular
anterior
##tum
Vuonna
##erde
Arten
##liga
Giuseppe
115
roi
Light
##mia
aantal
ba
followed
planet
Venezuela
ku
quanto
##tur
Centro
coach
classe
##gs
Over
##ev
Johan
##lon
##red
departamento
##jes
##ngen
disse
##menti
stycznia
Norge
training
Historia
##ngan
Name
septiembre
Mar
vocals
denen
brother
Clark
##tori
taun
Mais
Josef
Fall
statt
Suomen
1847
julio
medio
gennaio
light
telt
seven
numero
biztanle
##mit
##gh
1815
lado
##oval
##ू
pels
##usi
episodio
completed
Although
karena
Kelly
##lijk
double
jeden
##rak
##cal
Alberto
##hn
dabei
##ई
##zar
riktning
##like
Milan
mientras
Meter
Loire
हे
lenghe
dalle
220
Marcus
Institution
##yon
111
gdje
Macmillan
Ontario
januar
uns
Jahrhunderts
importantes
Alpes
terme
Jesus
Hermann
##iz
Dance
segle
थी
bad
test
pag
lista
107
108
Hamilton
##oli
size
zou
##gio
superior
cargo
senere
mise
ISO
##well
pedig
cinq
ante
negli
Frantziako
szerint
junio
##bau
permet
featured
killed
##zeit
Popis
Ann
##ions
senza
presenta
Stand
habagatan
governo
luglio
ottobre
##owego
sue
Billy
dir
Mann
Wild
semi
volume
cara
tej
##smo
panjang
nahm
usually
countries
spielte
##rik
throughout
1845
daripada
##ात
##tico
bod
Back
##wi
Ferdinand
desa
Health
##lde
Provincia
360
moderne
ciutat
##oon
Vietnam
bagi
verso
reported
Hugo
More
fikk
lokala
carrera
1842
##ec
tidligere
ibabaw
Nelson
##zio
alguns
Technology
immer
Puerto
trouve
##uit
finished
Del
page
##yan
Philadelphia
remained
##car
Congress
Edition
enero
jonka
unos
dicembre
##eo
amihanan
oro
Field
surface
Down
membres
cum
schools
Barbara
Fire
asli
##ades
240
leading
players
sumala
##ture
transport
Hospital
khu
Britain
sotto
norsk
platsen
above
##gel
Not
kommunen
software
Studio
##idade
1844
Stuttgart
Sul
##dem
ABC
sites
DJ
byly
Nederland
vuoden
Alice
mondo
biasonyo
close
##wych
molt
cover
##ones
##ap
Dave
##xe
membre
Titel
ainda
individual
##hed
wenn
college
106
##miento
Moon
geslacht
gas
##uan
##adas
foar
podczas
Sri
edo
Andrea
debido
##sy
either
##tud
contract
prin
##jem
kemudian
##dade
##ule
##sky
week
##shi
##mal
estos
Free
Nick
Directory
112
##ony
begin
francese
love
Near
##kte
sistem
SAD
Jazz
1814
Spain
awarded
dernier
jeung
gewann
muito
elles
aircraft
1837
ellos
drie
Jorge
tika
aprile
Vincent
##tia
Leben
bay
diciembre
esa
mezi
##skiego
Val
कर
Dark
128
able
Lawrence
space
##ech
chez
Dat
##ult
Rudolf
simple
##stein
साथ
##nden
saat
termine
##bes
tenia
##sed
##fall
1839
eight
Theater
specie
Jimmy
Nederlandse
syns
Zu
##wski
Et
Adolf
Orthoptera
##rse
Anton
Med
involved
##uto
Hun
bili
##skim
##lah
1834
करने
niveau
frente
About
##int
Polski
kadar
Single
Sherman
hab
primordial
noviembre
1835
agua
##ches
ogni
waard
Code
##mon
Missouri
Nobel
Baden
madre
esas
added
interno
bin
federal
##rta
109
##ving
least
##rk
mukaan
Township
Charlie
pol
nuovo
Minnesota
##dur
kiradi
Eastern
##ort
##itat
estava
states
##nh
persona
Khan
##oja
Systema
eventually
gang
wegen
ek
Come
Barat
द्वारा
gobierno
fram
attack
pertsona
formation
1838
porque
Dead
Menschen
##pes
PC
##sing
Guy
schon
135
horisonten
Jordan
##bor
##nio
नं
Era
##led
Ana
listopada
##ors
##ना
##gue
related
kali
##gos
कुल
Blues
metres
Jonathan
trung
Later
nivel
##film
especies
giiniton
storia
##ming
##tle
habitatges
Porto
artist
Ten
artean
Junior
kinabugnawan
kinainitan
kwam
##dre
Pape
##ab
##nice
Mas
Conference
tarkibiga
plant
Boys
##kov
Ook
godina
1843
Donald
##kas
##nna
Nicolas
anak
##rice
अभिगमन
gibi
regional
degree
##ance
Trong
Ryan
kota
student
##bin
replaced
cases
jaren
Management
muerte
##eti
provided
Jacob
rok
svoje
##nder
1831
huet
grupos
rue
existe
marinespecies
unit
wis
Amt
sondern
genannt
Course
Gruppe
Duke
##iske
untuak
centrale
sta
##iche
jossa
##sal
medal
SIMBAD
eau
otra
winning
vice
छगू
kraju
erstmals
Tod
Sarah
Asteroid
sera
casi
##aire
proti
Channel
##wany
byen
Ele
Magyar
Indiana
prvi
titolo
self
hos
Desde
revista
Terra
##cho
jezik
Ian
independent
Tropical
goal
##pp
##ized
1812
1836
Dette
editor
echter
##rit
ul
##wej
##ow
nieuwe
1644
producer
Levy
dones
vista
nature
खने
presso
gjennom
Reino
certain
competition
1841
star
normal
estar
117
Maydoni
##dorf
Stadium
planta
kommune
zde
internacional
anu
Franco
sidlakan
##kim
Winter
##var
algunos
##maan
##ovi
होता
aphia
taxdetails
Museo
Bruno
190
##over
Harris
studies
praefecturae
Rosa
grote
western
compte
##vad
Com
too
squadra
Keith
##amento
mediana
Ross
rights
##jski
otro
atas
Greenwood
##lat
camp
सन्
sulod
einige
clubs
1600
future
zoals
siden
seme
sabuah
450
ver
entonces
ensuite
##az
Gesellschaft
##ania
Chief
Kansas
etapa
fort
Atlantic
##py
previous
Harvard
little
##uma
Railway
mao
estilo
1832
Girls
Apollo
##hr
1833
tweede
female
Pays
Brazil
samme
etxebizitza
systems
##elt
##logia
Four
Landkreis
insieme
1820
End
ancien
##ario
estadounidense
Germania
Frau
febbraio
MTV
Third
oma
नहीं
Jason
Haus
Timur
Teatro
3rd
Polsce
Andy
uk
hele
##ute
Benjamin
gmina
Renaissance
##bio
febrero
##llen
##vanje
##eno
trat
qiladi
##ef
##sus
##pis
##wo
wel
Head
##eu
oltre
##ires
Gwefan
Opera
Salvador
Ils
Machine
iar
Kabupaten
Segunda
environ
indrindra
novo
##ischer
anul
tempat
Herbert
zbog
rather
Baker
##schaft
pay
provide
Islands
kecamatan
port
Oliver
publication
whose
rol
nombreux
##ats
Leo
tien
Fred
230
##ym
pdf
1793
##ase
##ped
Sierra
Asian
Scotland
night
kleine
nummer
placed
##och
canal
ground
dues
राज्य
Mac
fourth
toute
largo
digital
Erik
Form
Graham
minister
direct
manager
ayant
Kreis
don
gjorde
##च
genom
ag
Lincoln
Sein
##aux
jour
Collins
generale
Adams
bass
bilan
forte
namn
code
river
fatto
bezeichnet
123
seines
udalerrian
Matt
But
114
##skog
Wright
##ics
label
czerwca
Songs
Hy
##ward
113
ami
##dio
grudnia
##weg
##rii
tog
success
health
Republik
kimi
ISSN
owned
Body
nueva
Prize
quattro
##umi
##ned
oan
##xo
##gal
HMS
review
mission
Tag
author
introduced
ever
##oma
1821
Sekolah
upp
ran
arts
americano
##wer
750
##hl
corpo
Fu
##ento
erst
##logie
densidad
Castle
diesen
stated
tienen
porte
seis
Baby
rund
taona
##lles
Champion
Dipterorum
mois
Partido
Justice
reached
orbit
sedan
##ides
Nazionale
dr
116
Libraries
##lte
Arizona
Another
bisa
Welt
februar
norra
##ह
Colorado
saw
##gy
Efter
Just
siguiente
Jewish
Now
almost
movement
artista
Regiment
gebied
Palgrave
210
Frederick
Morgan
aasta
##skih
##ets
legal
##bal
Gustav
tallet
Let
##isten
agli
rehiyon
management
Sainte
petit
behind
southern
Dalam
Musik
troch
Today
Morris
units
##kog
Revolution
letzten
mempunyai
basis
Liste
network
Historical
Robin
##dus
##igt
skal
maakt
chiesa
Charlotte
Studios
jordbruksmark
proprio
zegoen
Selected
neben
UNESCO
Pablo
Bayern
sve
##ते
##dig
Guinea
Object
costa
Apple
complex
Jeff
nagy
beide
Santos
##inin
Cuba
Gallery
##sme
##rde
egyik
quasi
obce
scored
1200
Express
cantante
cel
##und
Many
epi
Corps
Wang
##hausen
Daily
mat
dieses
Rusia
##iai
CIA
Edwards
Championships
Christmas
Contemporary
faritr
Luigi
decided
Danmark
##sz
निसें
##ament
steht
##्या
3D
profesor
1825
length
pak
##ities
Kilometer
hui
municipality
Mars
parents
biasanya
feet
उत्तर
##pin
tinha
besteht
influence
tale
Remix
ship
souvent
lipca
oldu
market
Fritz
conditions
Dream
zweiten
1700
campaign
Raymond
brought
successful
commercial
##wane
rest
jeu
northern
Andreas
Paolo
Kiba
ob
Ces
Survey
Medal
custodian
provincie
##sar
island
##lang
Vilnius
meses
duas
tutto
doit
Arab
need
produce
##fica
sierpnia
abitanti
Stati
soll
Doctor
reste
principales
mans
county
approximately
Age
tournament
luego
##ord
##aa
udalerri
1829
Stefan
Durch
tetapi
##tiva
##sie
ole
Praha
kW
##ज
##stan
##any
male
sector
121
AS
##kon
Meksiko
industry
Bridge
instead
##gne
Papa
stati
Sound
enpresa
Par
5000
##ip
Cultural
turno
Champions
##dis
THE
1828
our
Captain
001
Ett
Place
altro
1806
##czne
mehrere
popisu
##kal
elements
results
##sion
required
##kus
Orchestra
elevation
Memorial
aholi
Pietro
previously
czasie
##mat
##wyd
noin
##cida
122
calciatore
deutsche
ua
##pu
especially
dagat
Stewart
##gus
Coast
ihrem
ruolo
##jar
Amerikaanse
##cer
Perancis
rapport
Laura
edificio
##bil
##out
118
##non
##teur
LP
Gemeinden
varias
##mm
Euro
figure
##cje
Sultan
##ction
traditional
Gray
lalawigan
feat
Get
राज्यया
below
hatten
Coupe
Their
internationale
report
jazz
outside
writer
campionato
##endo
Anfang
Pop
Angel
Steven
basa
Muhammad
means
Bishop
Wrestling
##esi
organization
listed
olivat
itself
originale
Garden
127
corps
##nju
honor
Ez
behoort
lived
serta
Nella
Grant
Ao
##nel
##ib
deres
sometimes
svensk
kunnen
##ical
##ande
menor
veces
outras
Miami
primary
gouvernement
Woman
arbeitete
engelsk
Projektu
writing
Kr
##eli
UCB
interest
##stvo
##०
voe
seves
musique
Bull
##tivo
##lie
aki
##nal
departament
afin
YouTube
Forest
locuitori
Berg
kwietnia
##ione
rata
Rafael
dok
Official
Folge
Route
liste
bit
Jerry
seat
champion
Republike
Dutch
Dom
changed
attended
istiqomat
fand
Water
##pel
score
Marshall
drugi
figura
obec
GovPubs
Play
SM
##mba
periode
Collection
donne
torneo
Silva
##inde
amely
Catalunya
ultimo
plays
award
oeste
nye
Design
Arnold
continue
Haute
ih
significa
bizi
invece
minor
Sons
femme
Jon
##yer
EU
##aja
vilket
##ude
FAQ
eeuw
jadi
##nk
anglais
Mix
##च्या
train
Airlines
alebo
##czy
buildings
##erung
enn
##dat
Pas
past
Gli
Melbourne
libre
##ologie
str
##jer
1802
##sos
teatro
थे
sollte
finales
cola
tuli
Dame
bland
studierte
Primera
ayisyen
126
Area
Kennedy
theory
Presidente
##eurs
museum
तिथि
Einwohner
toujours
##nici
1824
Extragalactic
##य्
blant
dog
lingua
##pia
trova
conquest
ofte
senior
stal
allerdings
featuring
hizo
Geiger
issues
aller
Warner
Springer
##chten
280
find
Standard
145
soon
kuin
##keit
Sommer
Chart
complete
Poland
chaque
Avenue
##hip
especial
geboren
1789
##ein
1813
##erne
paper
Stars
Academia
nou
##lly
view
Meksika
##ual
होते
Wisconsin
1826
significant
runs
##town
jours
Murray
Assembly
Monitoring
money
tijdens
sport
Antoine
##gon
##worth
bronze
##zet
1818
Uniti
AG
board
bang
##ndi
Families
administration
##tua
Lucas
124
260
hommes
ieu
Arena
Olympic
porta
mes
singer
Larva
estas
INSEEren
Gebiet
119
##our
tracks
Etter
beginning
Wolf
opening
army
names
dapek
Lyon
higher
problema
hemiboreala
powiecie
laut
Bij
tenien
miasta
summer
Alle
Peel
##joje
Lost
Franklin
##log
pelos
Alexandre
##rato
arrondissement
Tengah
Margaret
Canal
##rata
Comets
running
Born
155
##borg
Norden
ji
hanya
Fame
azonban
kuitenkin
##ttiin
fall
##bili
setelah
Carter
child
baru
Police
##stva
mellan
Kinder
Classification
defeated
Sony
association
##ular
wide
pesar
auteur
##rios
Municipal
according
##bert
##ain
evante
zij
Mal
problem
WWE
Mitte
generally
Sen
taking
##eva
##time
Mei
##ema
give
Tavakilian
gebruikt
strong
valor
towards
##ology
eru
trabajo
175
Departement
##side
whom
associated
##esa
##eko
##rek
##pat
ned
seizoen
Updated
muun
Barry
bar
millions
Vladimir
1016
outubro
gold
##yen
AC
1790
highest
SC
industrial
##owania
##nske
hospital
amor
Phil
bezocht
NHL
setembro
intentions
Julie
ahol
maio
Peru
combat
questi
##nga
allowed
charge
lower
eli
scene
Matthew
osa
image
muassa
Campbell
goals
##ales
vanaf
corso
##rdi
tij
Helsinki
##nge
alte
ingkang
origen
##प
Kurt
temperatura
##mt
practice
plans
fiind
USS
sports
Dal
##ists
poden
mezvalora
##cat
vlinder
##tiin
Franse
outcomes
location
tijd
primi
##oda
pubblicato
unique
effet
Asteroids
mediante
Dies
##bat
prix
##eth
Nakon
##ost
engine
tuig
##ून
income
Warren
Here
Cover
encara
auto
matches
ibn
आदि
Page
tarixi
Savannklimat
Children
groot
totale
railway
Holland
Brothers
esto
JPL
pred
##ndan
contains
##inger
Vascular
##ller
Aus
1801
hingga
heavy
weiter
woman
food
270
millones
esse
##ac
Selatan
##zed
Synonymic
access
Wood
ATP
Following
oblasti
1816
##cies
##्र
better
bao
kreeg
puntos
##tir
global
Abu
##mine
1822
##gd
129
PlayStation
##els
Turner
Quando
Unternehmen
##mek
wobei
rate
mejor
##rant
finalmente
resto
##ब
egin
lutego
nous
toutes
operations
##oje
##iera
Medical
##ures
##ador
##yle
hari
131
Madonna
enfants
##istes
Liverpool
especialmente
movie
rural
property
132
##har
gebruik
Amor
##cis
poeta
144
wojny
##cas
OS
Metal
administrative
Evans
troba
mesma
##ती
phim
##tter
hace
articles
mode
keversoort
inoltre
Iowa
##gte
Plan
##lands
##iendo
ended
##iana
##azione
Racing
papa
tok
##ै
closed
figlio
##bt
key
1819
ministre
thus
##etan
coma
##hal
Denis
##niu
cinema
capita
##iska
##ijos
Our
Astronomical
Roberts
norske
##ieren
1827
Marcel
distribution
blandskog
हिन्दी
metro
Ar
##mie
##esta
fille
##itas
##ence
Tennessee
oft
##uda
Archived
Statistics
hold
Durant
Java
dazu
droit
##kai
effect
##tina
Bis
personnes
amerikansk
##nier
##vit
Pictures
Pauly
distance
##aka
Beccaloni
##jet
Television
euro
JR
prend
selv
omdat
##bie
134
Wayne
##nut
sex
menggunakan
Houston
Dia
Community
dunia
Zur
##kor
Jay
bersama
liga
1758
erfolgte
additional
तक्क
##ric
spent
छ्येलिगु
##mp
##vio
noted
loss
move
TRMM
##logy
matag
kinabasaan
situation
kinaugahan
novembro
152
stations
##uh
sina
Checklists
##rad
jeune
viele
energy
20th
Louise
##ciu
1792
Gilbert
Early
hijo
insect
ligt
VM
##essa
##larda
Tras
jedan
mostra
Fra
Deeds
##owym
Universidade
fact
##atan
conocido
Cape
ch
Seite
fyrir
mjesto
##idos
logo
mateix
Dean
##yd
Pan
Highway
diverses
133
##back
Provinsi
Lima
quals
retired
##cks
eastern
##cido
##usa
premiers
Vater
##TV
##eni
famous
igual
protein
folk
1817
##aba
Spring
tener
Julius
parties
Catalog
Popular
lite
Stuart
evidence
peuvent
Kirkwood
Brookings
Delhi
batang
भारतीय
Bau
ingen
Lalek
Hockey
cet
##tig
alcune
Only
Eva
Moscow
today
basen
Allan
Pitkin
##rade
Marina
Zweiten
seria
older
battle
Castro
##bahn
##kiego
##owany
computer
##cki
projet
Broadway
Zagreb
protagonista
##wania
Afghanistan
##rede
##rado
Lorenzo
kommt
##rium
Parker
Chr
filmu
dintre
sechs
records
sexe
przed
apud
##lsen
adalwyd
dansk
##ings
Temple
podjela
Schweiz
livre
##wana
batalla
ana
casos
Record
Araneae
136
##gin
daar
छगु
Mrs
##ged
misma
orden
1808
Yang
represented
kon
1809
create
pueblo
demi
##kos
Austin
##nant
##itz
cost
launched
Blood
kahaboga
ambos
mesto
Hulyo
cele
Om
fir
companies
बाद
##्स
Scoble
terms
sino
CBS
particolare
Earl
Polen
Scottish
matoari
Perennial
animal
edhe
##zat
cosa
Hills
Cooper
Deep
sv
grado
Alto
rundt
Valencia
font
##nger
earlier
##ओं
Political
trade
Jana
dek
primeros
biti
Hrsg
voir
320
cast
turn
##iko
vote
staff
smrti
lahir
tylko
LepIndex
lagu
##enia
internet
cha
Krauze
##lijke
137
territoire
Years
Engineering
Systems
vain
thought
poste
1795
welche
rey
##ator
nes
Bach
ollut
Duitse
##ame
mana
##adi
Federation
albums
agent
hann
militaire
Zone
##icos
##lerin
Administrativna
HD
1803
##icu
##num
Bot
##vre
##all
Allemagne
##ont
toen
htm
##atu
Arbeit
##nski
##vala
aikana
Nachdem
changes
notable
Silver
Guerre
sources
informality
yoktur
estate
##ney
##चे
##ues
153
already
Beezley
Mexiko
recent
092917
511228
87237
0815752199
1403962588
1884964311
1579583377
##uer
##eus
##tak
Elisabeth
##nse
meist
E0
Tyskland
kedua
journal
tina
##skiej
Arte
##uti
musste
Christ
decide
Ernest
feature
maison
ataupun
Sau
Economic
numerous
voi
speed
haber
anh
##IS
##wego
going
##pet
nunca
maggiore
appearance
broj
partes
conjunto
localidad
985
bas
1823
##cing
##dag
hard
Fischer
favor
nuova
Tochter
analysis
zaman
Eduardo
tom
takes
aujourd
##olo
lungo
Kunst
eigen
##eria
##ime
##cker
##til
hotel
Bereich
Valle
samen
##rada
types
Days
Ministry
##ega
Parliament
characters
Wars
##hat
##ize
specific
Olympics
muchos
znajduje
regio
entire
bawah
संस्कृत
Froese
##dit
192
annat
value
Vice
fosse
esposa
##bury
Italien
Class
DDR
##tique
Bulletin
entered
##stes
concept
Watson
Nintendo
decision
##ering
165
##aje
##oto
##pie
##ciju
Front
alatt
##rre
annual
Iron
##lom
tierra
versione
tendo
तक
Tropiskt
Plus
Jest
blieb
places
onun
dire
limited
##ust
condado
Cuando
Five
jedna
mano
cambio
##taa
##hy
##licher
sociale
noong
Democratic
##Q
##ulu
formar
sit
activities
prime
officer
Nicholas
musica
Linux
##eve
jeweils
1811
increased
operated
sound
villages
utama
##zing
letter
Segundo
Complete
weiteren
kay
Partei
programs
host
Before
Bir
Parks
laatste
voitti
##zin
censo
linea
Rhestr
Inglaterra
Julia
Hrvatske
##iri
fet
Kota
##mica
terug
Spider
##rm
##end
##lem
Lloyd
अपने
Conservation
maps
volgende
here
Ken
##aga
travail
wechselte
##vor
separate
##rel
Ari
religious
function
bus
Bobby
Or
Rolling
BC
hidup
WCSP
Domenico
Secretary
tranh
volkstelling
verwendet
Yu
Negeri
##mel
Istwa
Finlayson
Kent
teve
Reich
folgenden
##af
##isa
##riu
Prozent
Leon
certains
infatti
Eddie
Ne
Januari
concert
marine
chief
bank
Military
##kiej
##iel
serve
Hon
##zel
vrijeme
##rz
medical
Singapore
149
blitt
Motor
Som
informatie
##कर
anime
toga
Taiwan
Westen
Raja
erhalten
energia
Jerman
bli
pierwszy
championnat
artists
138
Square
##ration
Napoli
politik
majority
Mont
Editors
omgivande
zerbitzu
##cle
Ball
Language
situato
Desa
Frankreich
Guatemala
Site
Rolle
veya
2019
##lne
polski
yeni
Secret
wraz
Position
mille
##zik
##ill
##lad
148
1804
shot
content
143
Bergen
caused
lines
nazionale
municipi
Sankt
##etta
mae
Wall
miembros
element
##bs
valamint
Hydrology
Films
##tant
##sm
5194
Nouvelle
Dragon
always
baino
selected
studied
Frankrike
##pun
room
got
edir
Ve
erreichte
##ksen
hess
kommer
ishte
Gikuha
hours
datos
141
##zes
miatt
Platnick
##wen
Oklahoma
classes
Ancient
Lisa
Ciudad
Discovery
##more
GmbH
1807
Atlanta
remains
temple
tim
##stadt
Gruppen
joueur
latin
programme
hecho
139
sexual
##cznych
##ieron
Thailand
Schmidt
Maryland
us
Kentucky
Larry
cross
husband
mundial
##ois
Mannschaft
forms
modelo
##aal
pie
Imperial
Parti
maakte
ak
idi
gilt
voz
verschillende
Sol
lahko
plaza
particularly
##une
1805
Bredden
##tem
Weltkrieg
detta
Lan
Ai
Italie
Harold
werk
kaip
146
nello
lloc
##shire
bem
Kenya
Neil
organisation
1794
##bare
ito
eles
voce
##for
scale
comarca
Histoire
##eau
Verein
##lation
Mayor
monument
Soul
membro
Oregon
Detroit
Met
Sunday
Dabei
victory
positive
##mise
Hannover
Sebastian
##ग
##ines
Torino
termasuk
##vou
romana
##erna
university
##form
Box
Original
kort
technology
Magic
tv
OL
sola
nombreuses
Mississippi
Urban
mostly
index
##ally
aid
##rate
Alfonso
tarihinde
##zt
partidos
verschiedenen
##rem
Australien
leis
##ridae
##hon
sehingga
19th
Profile
Bird
toe
application
acht
Mi
##bos
##ball
sister
NHK
relationship
Roland
##नी
147
rugby
kishi
minangka
Wagner
meeting
vivien
relations
sekitar
lot
posteriormente
kur
Mabibilngan
act
moun
miejscu
cities
##hoz
altitude
Harrison
deve
Knight
Ligue
Geographic
Ayisyen
tzv
185
elementos
keer
##ierung
villa
note
multiple
Alabama
rus
extra
negeri
Polish
historical
orde
uses
Dennis
beliau
recording
becoming
Ralph
Ukraine
referred
##ार
altura
byli
medlem
##elijke
142
kjent
Shakespeare
Publications
notes
Terry
yil
##hes
Mitchell
##fied
hin
society
incolarum
jejich
Jeho
deal
Unit
##nem
Prime
##icus
tutte
##ace
llamado
fik
Base
Isabel
ketika
Preis
Abraham
augustus
Inggris
##ug
Mans
Provinz
esempio
paling
fuera
ime
##gn
nine
Henrik
##ियों
capitale
directeur
##iano
Osten
##stra
eingesetzt
speelde
acordo
##ization
aufgrund
Laurent
Aquesta
##ep
##stu
Dick
shown
relasyon
supported
Hier
##die
kaksi
##jn
##nsa
broju
थन
entstand
Dallas
passed
Queensland
horien
versi
##tische
पूर्व
Hughes
Camp
Kaiser
##taan
##kk
comte
presented
empreses
native
Din
gare
##cem
canton
subject
##air
##dea
Hunter
##nischen
##lja
allen
tradition
jotka
forced
dwa
##cca
situat
Hi
sull
insgesamt
Nancy
obci
Kina
Novi
operation
toimi
errichtet
Control
##pas
##oe
problemas
tham
hau
##zado
Rick
##sat
bakarrik
1798
Schule
Beispiel
##slag
friend
pouvoir
Tu
entrada
Singles
campus
diri
Selon
Threatened
stark
inizio
equipos
##tone
##bet
kilometres
Langau
##oz
molti
yaitu
mula
inglese
Tommy
UA
Richtung
Serbia
amo
individuals
Dieser
##nic
##ligt
categoria
tenir
uomo
oggi
estudios
##teen
pr
Sint
##री
##als
##sas
longer
stat
melalui
lea
Boeing
alan
bergig
NFL
mientres
middle
themselves
##ores
sota
Fe
Dort
प्रभाव
Perry
##dh
pat
muss
emakume
##ppen
Independent
Jules
ancienne
##hof
kulle
seguinte
Guardian
engl
question
radius
##oso
avea
##rou
successo
Millionen
Ho
diversi
ejemplo
दिया
##yla
Services
resultado
yels
Note
cualquier
203
dus
fill
##eda
provides
##yt
politico
##tein
##rung
##rg
serving
dato
pages
nota
Dorf
##nz
meno
Ricardo
##see
biri
gian
##rka
##kommen
Foreign
Carmen
lomanefs
volte
programma
##lot
voms
jer
##ako
##skom
appears
##iers
increase
enkele
yera
1799
Lemesed
Re
##10
##por
variety
##isation
possono
grazie
##osi
Leonard
episodi
हा
##tien
##of
##ole
Klasse
Rahmen
Prima
ministro
151
erschien
##yang
थाय्या
##gua
##mana
statistiku
Danny
vengono
protection
darauf
tek
Rey
isla
politician
furent
##unda
##tate
1791
GMT
sort
sangat
processo
klubu
Ron
ultima
nekoliko
Klimatet
done
Ingelesez
Rob
insbesondere
langs
problems
##head
4th
phase
##wn
punika
metatra
Statistik
virus
##gie
vest
haavon
159
publicado
Unter
156
dance
##pur
##trice
Dei
sik
composed
1400
Entwicklung
Muslim
##्
waarin
udalerriko
##lage
larger
168
zones
Egypt
your
Baron
Alain
seul
Galicia
Comics
diversas
Never
ligg
##zas
fiction
apie
ongeveer
##dung
assim
Units
##anie
Governor
magnitudo
IMDb
initially
Schloss
##ume
##vanja
Naval
##imento
loi
Felipe
Limited
Ecuador
##dou
154
##zenia
Neben
1797
##५
pois
Frauen
Notre
Jahres
##cco
azt
Dublin
##uz
Ocean
Korean
bo
Natur
sala
metri
stock
sou
stop
navn
bestaat
raised
singles
##maa
##chte
##gem
##lara
masih
Mercedes
cadre
prison
cukup
Uruguay
Classic
Emma
होती
Singh
Nederlands
lalek
Orange
##stad
premio
makes
330
finden
Ye
religion
EM
financial
##lum
##xi
call
rond
##has
algunas
##bank
##off
fem
Ferrari
Krieg
Alaska
##iet
Vienna
##uch
gift
Also
ditamukan
Jerusalem
laquelle
vuosina
##zada
spesso
Flora
##jana
produzione
biztanleak
Maine
Six
existence
Graf
pilot
Guillaume
populations
##rica
Masters
races
experience
Politiker
Torre
##unt
Congo
juego
king
contact
rispetto
Metro
Chemistry
edizione
gizon
##seen
pl
connu
धुंका
punt
puesto
vara
deu
Buch
epoca
##ub
##ised
PGC
devant
Medicine
Berliner
##wald
550
MBC
Computer
saka
terre
##ght
konnten
##ड
sat
representa
Bar
massa
Peace
##wel
typu
##ved
raz
##oy
versions
##dne
##tok
believed
evento
Oriental
mag
ball
201
animalia
##yr
dice
##platz
Burg
agit
claimed
parish
Utara
podle
Republika
cell
Hand
weeks
Anders
Side
Mare
championship
stars
vila
##fu
Philippines
nuclear
union
##rian
Colin
##bit
Production
jogo
Introduction
failed
giorno
allo
fight
Latvijas
oedd
architecture
domaine
duke
Historic
kdy
##band
##kap
FA
quand
foreign
##nska
##ann
Gunung
stessa
gouf
teki
Federico
1796
Meister
baten
davon
##iger
command
yuta
##mir
winner
mainly
Lanka
etxetan
jumlah
Rica
troops
electronic
##bility
nave
offered
225
Lane
1775
Hugh
Theo
sampai
##chaft
ceux
##dere
205
Primary
##cz
Joachim
##rkan
bal
nhau
##nidae
##elijk
##kka
kembali
denn
polos
vivo
locale
moi
helped
Affairs
proceso
Dresden
boli
products
Due
##iki
##ick
saj
vert
carriera
Seattle
Willem
167
##rana
fivondronan
##nat
musik
Einsatz
##recht
firma
tysk
Unido
##bro
Security
Karel
Kanton
mam
##imi
##yk
novela
Sweden
anggota
siguientes
tennis
dituzten
Hudson
overall
border
fans
Werk
numbers
##oko
Lors
vann
##kie
Agosto
Grammy
subsequently
aparece
consists
##ggi
Kate
1300
couple
might
vezes
prior
Both
##baar
##idas
Jo
annet
sulle
##gli
mellem
aire
Montreal
lavoro
Dam
##zos
osoba
drug
assistant
pessoas
response
Edgar
Giorgio
##onia
leaving
hall
दूगु
ubicado
acquired
Rico
##gut
MS
sacaro
barruko
521
Ich
157
opere
##dent
TITAN
turned
Ayiti
projekt
##lingen
estudio
##ctor
press
selama
तो
hockey
##scher
whole
Belgique
##onal
##tou
sui
Spiel
##eb
Energy
##zug
figures
##00
alleen
oil
हिन्दू
Seven
Newton
department
sam
##rra
carried
##ars
Vicente
lungsod
##ppe
cuales
Istituto
allemand
kamen
##water
Phoenix
Regierung
innerhalb
kwadrado
oppervlakte
transfer
eigenen
##lam
Cook
vinden
lenga
##nun
bridge
##gg
mile
lagi
kinh
doch
650
mind
nego
Ved
290
erneut
##iones
Electric
generoko
raison
Bush
##vil
ला
Angola
viz
##gna
desarrollo
ikkje
meaning
stories
vocal
##mina
161
Browser
Batman
berada
sekolah
##aj
treba
houses
##ove
Software
dela
Marvel
##cken
familian
exemplo
teil
##uo
Operation
Emmanuel
Zum
Feb
cabo
Delta
##gde
Take
Solo
##ान
centrum
##nud
Warszawa
fora
Action
##mme
Drama
interview
##ssen
1980s
Teresa
escritor
stort
Estats
ancient
opposition
dagli
Despite
habitantaro
##lje
Bas
nim
Rom
158
Sus
Braun
Zijn
multi
olla
direkt
disebut
sing
grada
finally
##stica
Alemania
Caroline
Jego
membuat
Galerie
voice
SBS
hacer
163
Jepang
Theory
##owanie
effects
SK
##ktor
aproximadamente
Via
sortie
##lina
teoria
##rda
Sean
marriage
##schap
PS
Wiley
sien
earned
Railways
permanent
words
comercial
Beatles
Type
##gate
Petit
##lica
damals
##nze
##aya
impact
SA
toerana
जुइ
##bas
passa
np
pole
##rst
soprattutto
##fo
##jin
Ba
occasion
escola
Insel
Helen
attention
Cleveland
terdapat
Ward
Grace
tropical
Sachsen
Klaus
##ike
Afrique
Statistical
voix
Bremen
Jennifer
Depuis
basso
literatura
renda
Edinburgh
manga
kurz
nearly
treatment
Sophie
Swedish
languages
passe
kes
broadcast
Conform
##िया
attempt
seasons
MODIS
conocida
Sarajevo
habe
comes
pernah
enough
Baltimore
Personen
illetve
Sofia
conhecido
lives
Tower
terhadap
plants
##dik
busklandskap
##vam
##wr
Beginn
machine
Capital
Pero
Dakota
Bundesliga
weg
torre
Eduard
Sevilla
Minh
##rina
Sweet
genere
##gung
remaining
##meister
Chelsea
Te
OCLC
##row
Iraq
KBS
reference
milieu
Formula
##rius
Boris
Napoleon
Potter
zavatra
Tra
mizaka
Ronald
256
##list
Round
##iros
maken
kerk
bl
Run
channel
militare
Luke
Leta
Sex
zweite
##ory
kini
carreira
##iar
incluso
166
Editorial
Future
box
##lit
##ncies
##noj
nl
Nation
strane
desember
danas
kommunadir
##lista
want
outro
starb
##vik
asteroide
product
nay
Hapit
nalukop
Mundo
Vancouver
sens
covered
##ship
वह
ehemaligen
ring
gav
essa
Ring
levels
femmes
##skej
Sitz
dapit
helt
fills
##tri
##ीय
Mart
jen
Lars
164
Wiener
252
क्षेत्र
leven
podem
responsible
persone
Vegas
prendre
Chiesa
eram
##hez
##ded
##uf
moderna
Cymru
##spiel
nen
##sation
Japon
cut
176
principios
##zenie
Bretagne
proposed
##cke
##lata
tin
Building
Ban
fuit
##wym
fit
162
Isaac
Child
dina
Heritage
##rico
AB
नाम
Orden
##psis
मध्य
217
224
##८
4000
Wide
Holy
NATO
Key
chanson
sajtu
##hold
kontsultatua
sabagai
Cameron
gaan
Felix
sendiri
##enti
IBM
Canton
latter
issued
ata
joue
##tation
Hal
clima
technique
rencontre
Craig
jos
Emil
##pte
##istas
##uga
initial
meilleur
Density
206
matrimonio
regions
heutigen
familiak
competed
Hawaii
Noiz
heart
ala
Connecticut
##eid
asi
chart
participe
fez
llamada
debe
tradicional
coa
discovered
##jat
finals
minute
NBC
Espagne
Kane
bare
##lay
Alessandro
xa
sorti
urtean
Republican
extended
Staaten
Ouest
table
documents
##ilo
Stato
##kiem
##OS
estructura
##oj
zavod
retour
Rugby
##rier
##lade
bilang
##lainen
Spanien
Store
##३
travers
वेबथाय्
Transport
utan
Website
Justin
ailleurs
195
attraverso
Indonesien
1780
manjadi
yet
factor
##श
Again
##enne
Renault
##hir
1784
1970s
Door
security
एवं
Cet
know
##uro
junior
luvun
presenza
Archive
vel
235
##ock
1787
Holstein
starting
futuro
preko
protiv
##cka
dock
hombres
208
wsi
whether
##ston
##kes
Agency
Shaw
##ters
Alliance
Forum
sciences
##२
##stas
##igo
ebbe
findet
quality
172
kata
Brigade
disease
importance
##rien
Polonia
lor
tyske
Places
lid
182
tercer
considerado
evit
##wanie
tiga
Plaza
beaucoup
Bulgaria
##mma
told
##jska
indak
##rni
Bee
Chi
##hos
1783
geht
Lisboa
grade
pouze
##aar
tergolong
leave
##este
travaux
zog
natomiast
Alter
हुआ
cos
quest
177
luz
Butler
Bonn
rule
##mont
##etti
##med
buah
Kings
प्रदेश
allow
remporte
##lak
friends
lies
Administration
##iny
gadang
सरकारया
god
tawo
VF
master
Palace
toont
Steinicke
binnen
inter
कुछ
212
true
inga
Cristo
berasal
flera
kuten
##seite
Was
Between
##kem
mass
Uma
marcapada
Porifera
Netherlands
##ttu
Nigeria
households
newspaper
tedesco
215
nahimutangan
Spencer
1788
elections
##ctus
haut
residents
##fication
drums
directly
diretto
alabak
213
##tako
americana
orixinal
Dels
genoemd
minden
musicale
Metropolitan
visto
##चा
Calais
169
##jonen
##ikan
##fel
despite
Hindu
Hope
##ess
##iset
##tidae
candidate
##czny
##गु
Jakob
basketball
##elo
Emperor
actions
efforts
Suid
नोभेम्बर
##zzi
Hansen
lugha
Grupo
noen
hod
##oir
Sergio
completamente
Study
constructed
birlikte
Glasgow
Czech
Hrvatskoj
Islamic
asked
says
selle
Wallace
livello
##ago
produit
Hell
jamais
utanas
propio
202
grandi
Domingo
##iji
Chen
##vina
alten
Warszawie
compositor
big
politica
crear
Campo
gihabogon
##tischen
recherche
besonders
Challenge
Tartu
commence
##pio
अन्य
##lies
Akademie
activity
hal
miasto
Youth
##raum
Rainer
##skie
coast
Berkeley
##alo
Organisation
Linda
formato
##ees
barn
profesional
##eit
fifth
##ple
formerly
senare
Works
consiste
##dde
komun
WoRMS
bile
graduated
inferior
onda
204
danh
weil
Diarsipan
ea
planetesimal
tanan
##rf
mellett
cine
##vali
eesti
nuk
corte
tabantuak
Trust
seconde
nation
aktiv
Nepal
##care
ud
Productions
Kiss
kasaluruahan
kind
MM
Liberal
Sarupo
Short
ngaran
Princess
Senate
Helena
380
##itu
Saesneg
पहाडी
nearby
Herman
Roll
Rights
kasnije
innych
indica
gitara
promoted
median
##enden
##ivi
Forces
divenne
petite
seulement
Freedom
Facebook
##tten
Bedeutung
mere
##bora
Fernsehserie
lehen
pai
Elena
Artens
188
Hart
mogu
Francuske
spons
mujeres
##punkt
dezembro
olyan
percent
Diana
##okat
quatro
Kenneth
suatu
abad
Brooklyn
menyebabkan
जुल
vegada
Bolivia
Olivier
langue
bulunan
tiden
##ierten
managed
Gregory
maximum
##hs
##cima
179
##sco
340
resmi
##gens
##cznej
method
Deux
olika
Utah
search
parfois
tropas
donna
medieval
##rati
primarily
czy
pakigbingkil
Murphy
bois
SEDAC
num
janeiro
Greg
models
Player
##kla
211
dana
baseball
##ome
mudo
##iten
titel
Facts
##nji
Russland
ton
ll
sezonie
##aki
##ioni
techniques
mapa
178
dess
171
popolazione
noe
calcio
females
gikk
Tamil
##bla
यक्व
images
Test
Theodor
likely
##gent
##js
eux
183
##dale
Marne
##skich
IATA
ships
servir
enquanto
जनगणना
Turkey
193
##ated
quel
animals
##ible
##com
exterior
Leopold
181
skrev
siempre
Londra
##ulo
breve
arter
thay
guitarra
##rca
NY
##sza
1785
गां
ID
zahlreiche
TBS
crime
##iere
##mektedir
##वर
भाय्
SP
wing
##bon
Leonardo
##itet
argent
##owi
Tanzania
Squadron
Norway
penduduk
arrived
संकिपा
wanted
posizione
##ants
alternative
##ए
Espanya
Commonwealth
partire
pare
##पुर
origin
##ensis
sowohl
##rno
abans
Rebecca
darunter
Bologna
1776
##eel
##ldi
duc
##ther
highly
diferents
savo
commerce
terzo
##schule
appear
Mutter
Alla
julho
##१
##20
suya
Jonas
journalist
##vent
posterior
##oo
antiga
184
tornou
Venezia
govori
Reihe
verschiedene
Bond
hulle
executive
catalog
Happy
trains
Avec
ello
Local
Ice
पनि
Haaptacteuren
##rol
samym
Source
principio
grands
Fantasy
strada
##nation
Birmingham
wedi
acteur
Lucky
222
passage
##mark
groep
propria
cancer
Frans
##gis
##nsi
##bol
207
sejak
कुमाँउ
Torres
Allah
hoe
namun
koju
Harvey
luvulla
rumah
omborida
##zon
performances
occidental
##ismus
kuid
##tva
platform
sob
edad
horas
ganz
Publishers
174
Tot
vitin
विकास
Race
##arna
Conseil
Werke
posible
romano
vastaan
Auguste
temas
ambiente
particulier
##par
Gene
Titre
iba
IPAC
tat
bataille
langau
Alta
Oh
Petersburg
Counties
##nent
FK
saying
Mind
Cultura
Turkish
##pos
173
Orleans
1960s
niya
##jus
Ain
Synopsis
partner
founder
1990s
Wind
##lare
##tera
beispielsweise
movimento
timp
Francji
##ologia
projects
##iente
##cina
Weg
haver
##४
197
brasileiro
Javier
crisis
prominent
bestand
minutos
quelle
kallt
lainnya
Supreme
bon
Klein
svoj
nouvelles
##fte
##lls
##chu
##tiques
##dora
Louisiana
##ffer
permite
skupiny
Aircraft
ljudi
giorni
##alt
gemeinsam
physical
Senior
dikenal
appearances
prej
Indien
abord
Upper
Marx
kampung
oriental
Clarke
folgte
Provence
Universitas
umumiy
historique
tiek
pont
Magnus
olaraq
ina
artikkelen
Nombre
##्न
Luna
यो
waktu
##yar
##ossa
##eron
Heaven
danach
slik
sinds
Uni
Angelo
Ted
Member
medios
knowledge
##gere
inside
jugador
##erer
obres
Swiss
illa
realizar
allora
AD
vooral
##nau
departementet
trabalho
duo
Price
##cional
ju
filem
Bowl
kus
miembro
prova
##heden
extension
conta
Xbox
##ining
Jose
samma
##asa
SR
##ovat
वर्ग
Baptiste
edu
##inu
wi
##vne
Rangers
##fort
chamado
moet
card
Pulau
objet
navnet
SE
tinggi
##idea
Carol
punti
olup
Common
approach
literature
populasyon
Wu
peso
करते
Once
Creative
potential
boleh
Sara
##aron
binh
Clara
##rze
##tung
gminy
meisten
capacity
siste
lassen
verde
pikeun
gun
Soc
nde
Pete
proyecto
bolo
Armee
Albums
Friends
Manhattan
Vila
Falls
Reserve
kaum
##pta
rules
##uni
unui
##buch
revealed
formal
##ery
junho
aide
Questo
Nell
sole
समय
##weise
Arean
480
dun
Gerhard
Amy
##juk
eri
##cznego
Julian
##wskiego
commonly
egen
objekata
##but
अंग्रेजी
promotion
plantas
##eto
Season
##७
cells
##else
##ode
##zne
library
positions
formas
Grund
transferred
materials
tree
focus
file
account
##oka
rodziny
##eet
sastavu
acuerdo
aurait
bases
dix
ancak
amore
Each
industria
आहेत
187
##rov
longitud
##zan
Noord
Notes
Paz
##gle
OF
##iad
Landes
studi
poor
punk
fare
vielen
blue
5th
##iidae
Malta
Auto
vant
meet
ataque
Toledo
Spieler
Studium
vittoria
##uden
surtout
probably
Florence
bandar
##skap
Rain
Philipp
officially
teilweise
186
scientific
##lma
##kunde
Change
forward
smaller
##nium
grupy
##stone
##sha
parmi
Dog
Pod
green
participar
soldiers
tots
SPD
Irlanda
Through
build
Nash
ander
kecil
Finale
tentang
Lieutenant
attore
autour
urban
waarbij
##eten
Chapter
Questa
Autor
Sci
221
dedicated
Stein
199
semua
Halle
tumani
density
Musical
kommen
Verenigde
##ln
kein
Zeitschrift
##nova
designated
Ses
##lda
tekst
pass
silver
1100
Proceedings
Madison
renamed
meget
209
Heinz
Generation
construit
firm
Pink
segons
Rogers
binne
steeds
##enta
hebbt
except
servizio
Alejandro
principe
Bahn
blanc
##ray
##ever
Holmes
Alexandra
divided
##km
awards
##geschichte
primero
vis
amerikanske
vaak
198
tych
Minas
lac
Liu
dead
pressure
##zeko
seda
1786
brand
situado
svenska
Christoph
Sullivan
ireo
urbo
1770
##kia
Persian
##con
Right
Off
pou
algo
Episode
##rah
nimi
sons
council
komen
Mobile
Henta
##ijas
temperature
##kej
filho
bestelako
Biblioteca
expression
##tit
solar
objetivo
collaboration
Where
jih
दक्षिण
1750
##czna
localizada
189
241
Davies
escrita
##lagt
Desember
terminal
Call
druge
moving
kama
ibi
Gmina
parc
grave
singolo
##zka
evitar
##ningar
flight
officers
lack
quais
अधिक
incluyendo
Christine
quickly
danske
travel
viel
sets
ability
melhor
ig
Miles
episodes
awal
2020
links
pemain
##mai
Executive
##zni
191
bestaan
grew
Julio
insee
##isti
titled
Mother
trial
job
zeigt
Cinema
##tif
desse
lane
##album
gut
कारण
##ave
Abdul
##ense
actualmente
Segons
unde
Full
tuttavia
##eken
Double
avrebbe
secret
##anza
quartier
zonas
cukuik
sebelum
loc
##mientu
Evolution
196
sydlig
Morning
216
##९
moral
Serra
Beck
audio
planeta
gyda
Nga
barubah
##tja
Heidelberg
follows
Text
kuni
historic
join
sasuatu
pacahan
Punta
XXI
considera
auteurs
##cum
##bou
Jefferson
actriz
Eurovision
Peak
Katalog
conducted
##onen
भाषाया
Angleterre
mixed
naseljeno
HC
recently
mouvement
##ional
luogo
sieben
monte
Cina
214
##rim
mesta
Rachel
say
letzte
academic
Xavier
antalet
mewn
##verk
diffusion
gdy
mercado
226
pelasi
menys
vennero
ordered
gamle
MHz
becomes
eskualdean
Wie
ajuda
needed
asya
Lang
Cole
##tada
इसके
ideas
##uu
drive
540
Pittsburgh
ginhatag
##sberg
Irak
pagkayana
offers
keep
unei
falta
Beijing
mucho
danych
workers
Schleswig
##६
derde
mintaqasida
PR
rozlohu
street
##oti
Parque
Bros
Dos
##skou
Sungai
encuentran
Owen
nove
dessa
Quebec
sales
Lu
Virgin
floor
##ttes
NCAA
share
रुपय्
##eer
Golf
Pope
stanie
grootste
ihnen
##tino
gioco
Ankara
thu
Yale
personnel
introduction
ilay
##mak
##ciji
Storm
progetto
275
##rir
removed
Augustus
serial
rare
Luxembourg
stone
##nir
defined
Fauna
Neue
mang
regiji
##rare
angol
##name
Koch
##zony
##eng
Adrian
Organization
daher
settlement
esti
Gino
##park
mely
etwas
Parigi
232
Command
Hard
Biology
pasukan
##kirche
Rural
##late
royal
Arkansas
canciones
##gues
coming
Linie
Car
लिपा
##vie
Portal
propia
fim
terenie
parking
okresie
Ruth
Bass
niini
Pont
Firenze
lb
##vao
310
##lege
BMW
stellte
Money
bardzo
##kle
##tio
tinh
waarvan
##jal
##gruppe
squadre
roles
##maal
##tare
archaeological
regiunea
##entes
255
phong
Tierra
presenti
immediately
##rch
crew
mujer
gauche
Stanford
longo
carta
##anse
##nit
paese
##fan
tamin
##dera
Grey
Segun
queste
##dang
Mercury
##cada
##enie
##mesi
##bourg
Wasser
Cap
toho
intended
वे
amount
##uce
##ington
##uka
True
Bangladesh
defensa
zudem
Yangi
pris
alone
##ilor
destroyed
sg
nya
##ER
Phillips
##iant
olur
Europy
materiale
annak
thi
Mountains
Walt
pi
prince
zehn
##ages
housing
gminie
llegar
Jeanne
Mason
fonction
IP
##ekt
kleinen
spider
prie
##sit
interesse
Performance
igen
split
Clinton
##ied
##rang
armas
Moskva
370
participated
##vers
hombre
Because
##can
leaders
##jena
Sua
sarebbe
Constitution
compagnie
Brandenburg
Esto
##ncy
##jima
Religion
Nos
upper
##aine
Zaragoza
Jeux
##sce
prodotto
risk
Shanghai
Food
maggior
nisu
##sma
Weekly
##pers
break
Link
estaban
Sprache
baixo
##fy
##uli
Ecology
operating
##iza
youth
Helsingfors
kjer
##kken
Bachelor
Bruxelles
victoire
honneur
prije
स्थित
##kker
##cular
##wang
Suisse
iglesia
Ichneumonidae
emperador
vorm
##cimento
trata
pouco
Etazonia
420
PMC
nada
##assa
##tea
##kur
rad
##nega
actress
hiduik
Know
Mozart
##tott
dias
reach
besuchte
campagne
fecha
Internationale
pari
##cta
Got
planned
odnosno
mwaka
Enrico
Tweede
widely
hora
facilities
##enberg
##sman
goed
Twitter
##light
acid
Cependant
Analysis
Italiji
vari
##eld
innan
Industrial
partida
Blake
zuvor
##lk
##tors
##iek
##etto
##lir
zoon
वर्ष
458
##chter
Piano
terdiri
Zwischen
AM
britannique
Alonso
जुन
isso
##bis
instrument
worrn
Iglesia
principais
Tres
seule
Avery
saint
Aaron
##dzie
Case
Sub
gelang
tipos
Inter
tidigare
Hungarian
Commissioner
##aran
Living
##zak
actually
##koj
##ums
Athletic
##ents
equipe
##rini
238
Handbook
Paula
Departamento
territory
pagina
Egy
pwovens
Dylan
##uksen
##ives
Montana
communium
habitat
districts
Erich
owner
223
Edmund
Palazzo
moglie
hinaus
giving
Mali
##ening
setzte
Trophy
##aceae
मू
##anti
edifici
offer
footballer
Tor
Claire
##uose
Zeitung
Bang
frae
gara
purchased
tales
militares
Alt
Joel
Among
Tal
Armstrong
serves
giovane
nda
obtient
fundada
Setelah
##inn
##aro
Soest
asl
Scarabaeidae
##tvo
Shah
vele
194
lokal
Spirit
Sammlung
##kih
klasse
Bryan
##tika
1774
leaves
equipment
namnet
##koa
Roku
critical
obtenir
Repubblica
therefore
Pradesh
1782
Physics
handelt
mari
##lama
##dien
demande
cura
Strecke
##encia
Plata
Zhang
cela
torna
##cchi
CEO
Weber
##day
visual
Karen
जा
purpose
##eden
inne
esimerkiksi
Projekt
ते
##enen
cinque
Simpson
befinden
masyarakat
धर्म
setiap
mulai
Stevens
comando
Dollar
Away
218
Hungary
cars
##tag
baik
recursos
##icht
machte
artistas
Mayo
Philosophy
civile
males
fellow
conflict
begon
typically
##bad
barat
Say
##lna
tik
eigene
##ussa
Suomessa
poet
rive
zwar
albumet
##ovala
Toshkent
##esse
ice
##urile
organized
Nevada
cuerpo
Escuela
MC
Bahnhof
440
voltak
votes
branch
Monaco
mobile
composition
Face
felt
##ही
karo
Liliopsida
varie
institutions
##kse
schrieb
things
Laut
Auflage
Zuid
Scientific
##zte
servicio
edat
yksi
girl
pista
##nsis
Derby
##kant
multe
CA
Todd
sehen
##zna
birth
Bruder
condition
Pat
devido
Ahmad
Armenia
##uur
Next
deutsch
##ckiego
adopted
Symphony
hour
##owo
Bristol
हुए
acqua
grupa
##12
##win
Kongo
sistemas
mida
obyvatel
Sicilia
tornar
Granada
##gina
Ville
##nad
Rev
##mentos
##book
deriva
Why
Colonel
Norwegian
ikinci
##gebiet
##ंत
##igung
Artes
rival
oblast
Kominote
##razione
sastav
1772
defeat
assigned
humanos
regime
lequel
zelf
1778
artikel
##jom
armes
memoria
##hte
##wick
stammt
jolloin
hindi
muda
Obec
sociales
plupart
##ello
kell
##ote
2500
expansion
##rten
Voice
sijaitsee
cependant
##vien
Romano
Fine
Map
Saturday
##rul
semana
Have
Karriere
##nka
Reed
kvadrat
reviews
pluse
Bernhard
##bres
Prof
clear
USD
Kind
##jev
##rri
Nuo
##ति
revenuo
skalbaggsart
##sun
6th
##nelle
einigen
248
Utrecht
tilbake
##isia
Bible
circuit
conseil
provincial
dau
Tuy
hen
##inga
Fisher
##grafia
mentioned
gene
blood
effort
structures
ensin
baina
continua
##yev
Charts
fevereiro
escrito
lake
battaglia
accepted
Col
Geological
Number
Hessen
vous
Ferenc
850
miesto
Marcos
Afrikaanse
nashrida
Greatest
read
Frederik
tar
छ्येलेज्या
ennen
##TA
gives
##rist
jabatan
1781
pan
##की
foot
##ations
234
##gono
##tad
enige
Viktor
sezon
Rei
##amt
mor
##mist
communication
taas
possibile
teacher
tandis
Aquest
Voor
IF
amikor
Panama
##iser
plantes
engineering
##upa
dood
tredje
##esen
1777
##hkan
Marseille
declared
##bot
tome
##coli
##ckt
conference
captured
electric
##tom
futbol
231
Stelle
accident
frac
archive
Augusta
Revista
Thomson
##bek
Spiele
formes
medan
Staten
##ES
russe
dirigida
Cat
genera
##uses
##wagen
Ellen
frem
DE
Americans
grund
##zott
Mesa
volumes
##ws
profit
guide
Firma
kar
acting
##ious
basic
##uno
Cold
staan
##aste
sept
texte
dark
Pusat
mini
312
Rita
##iej
amerikanischen
305
utara
sett
alongside
Paraguay
tip
iaitu
leadership
Bern
253
##oc
Yemen
mponina
##cze
##pora
##fahrt
Gibson
##usta
##cza
Rotterdam
historii
Late
Secondo
mesure
filmen
Documents
sudah
Ya
muitos
##sjon
##iku
Greece
look
Oro
naselja
chitarra
mistrzostw
document
derfor
Hits
Bordeaux
Stage
##owano
Diamond
##nien
Prins
Betrieb
respectively
aumento
sakop
svoju
##tka
Cao
Andre
passou
Insee
fell
##zor
प्रकार
genutzt
##oga
gleichen
amour
skupina
isola
Politics
super
Dunay
giao
Istanbul
Total
itt
gained
Nielsen
hennes
Drive
Week
##oru
difficult
mountain
hoy
GP
bahawa
Vertrag
communities
peyi
savannskog
Superior
relation
##tne
##rma
##itt
ranked
##sey
entstanden
ofta
##pit
cannot
Toulouse
continues
estimated
Legend
egiten
podataka
Tage
erreicht
##lea
drugim
##uru
Emily
trang
##yu
##mbo
alrededor
Honda
budget
CC
memory
##lash
fronte
dagen
combined
##lic
paso
avere
##vant
relative
Convention
kapal
territori
##ition
##lene
Wells
gh
dados
Inlandsklimat
mensen
juny
principalement
Ini
##zett
239
Raven
largely
Springs
Foster
##drag
wurdt
ordine
Ulrich
264
desta
227
responsable
Medien
paositra
pintura
Schweizer
Tel
artistes
hip
Kloster
Portland
zichligi
Tales
365
musim
##tha
##kke
serien
##iju
yng
minuta
contemporary
gaat
vua
makanan
distriktet
375
Linnaeus
##eza
teraka
Devil
Maret
Hunt
hosted
Danach
Birds
sentido
##zny
##igkeit
##sinin
importants
remain
##dge
agreement
##erie
uomini
mee
##xes
Powell
goes
stellt
Ka
##nter
Carabidae
baie
##ळ
Richmond
SV
umur
Brasilien
properties
proses
lhe
val
ort
##zem
Officer
tax
Eyes
ro
completa
Ad
Harald
geonames
lago
Klub
avaient
पश्चिम
stehen
Alberta
amerikai
##rski
recognized
suivante
signal
poate
##lung
##cano
Venus
Mitglieder
##दा
##logi
Godine
##sini
realizado
Ersten
Regno
aga
naturlig
weight
batu
outra
ait
Teheran
roll
265
contiene
muchas
##room
rajono
mora
Ahmed
fece
yards
linii
Industry
somit
kaodim
##uhan
##ellen
Portuguese
nagusia
Kultur
proces
Flight
insektsart
##कार
Nebraska
growing
figlia
comandante
alles
Castilla
##flugor
govern
agreed
cea
##ihin
##oria
liv
1773
Arsenal
##ots
##nae
membri
जन्म
##ची
meio
presence
generation
##rdo
Labour
##kseen
spread
262
##hou
Syria
Wing
Crown
##fat
##tettiin
hiru
Nat
sieglu
talatak
compared
Tyler
Quan
lokale
##nyt
Tai
Fiction
##gra
##elli
Yves
Annie
laget
Work
composto
Regions
##ixen
228
perioden
clase
##wing
Bahasa
##kich
oest
##omo
##niki
administrativa
svezi
Curtis
Chemical
##amen
##ungan
komot
dado
Bibcode
nachdem
plass
politics
Jessica
520
##mond
MCG
Tout
joint
##oh
oor
##board
lata
##nata
Basketball
jam
##्ट
rang
Fair
mg
ligi
Literatur
verder
Serikat
chose
enorme
greater
##eh
reduced
Navarra
fleste
##iy
capo
243
##uen
soldats
conquista
occidentale
comedy
occurred
##kers
sidlakang
famoso
##fs
resources
##gger
##rom
मण्डलया
Teams
##dina
Bp
gebaut
##cato
##fera
nuevos
##elor
##lav
Normandie
velmi
Hilfe
frontera
9967
##ders
causes
Commander
participation
negative
storico
honek
justice
nato
bastante
Otte
##mata
Around
possui
tutta
verloren
Liebe
##soort
Conrad
drugih
Tree
233
##antes
Nei
Cohen
vokal
tercera
lah
RAF
Nazi
deutlich
Aholi
estuvo
weniger
Miranda
Schneider
325
variable
lai
Stadion
##rile
billion
cycle
voie
Hrvatska
245
Denmark
पुरस्कार
##lmente
valle
lever
amerikanischer
Kid
##eiro
Literature
escuela
219
rhywogaeth
Nie
claims
gain
ellen
1760
##nii
##jih
kolme
trzy
Madame
##lerini
noir
Tiger
##owane
njegov
background
Ridge
##ugh
nominated
##cent
riu
Soccer
composta
aufgenommen
##lane
naval
cal
Norton
driver
Anglice
Kebangsaan
resta
##otta
aquests
metu
##िन
ubicada
paid
313
ym
taip
Leslie
##lser
##hem
vera
Jung
motivo
distancia
Jako
##gado
Stories
##minister
Hof
entanto
1763
Pearl
##ief
sezonu
patients
##star
Helmut
expected
draw
##key
programas
winter
Orlando
tanah
मण्डल
##zek
##yat
Android
##uja
Buffalo
mph
teu
volgens
Madagascar
Luca
Switzerland
letters
jeunes
##igh
stazione
Ziel
taught
bentuk
eredeti
##ahan
##alla
kilometrga
hinter
##taja
certaines
mangrupa
##ond
servicios
Kuala
formada
marque
Hampshire
Ca
##vno
कई
acres
ven
##isce
twenty
##onie
spring
##cate
costruzione
humans
Stalin
Infantry
Native
##selt
Sr
applications
udalerria
environment
audience
gisa
secondary
pertencente
Bennett
##zone
Kosovo
Augusto
Server
medida
##tul
Josh
pasa
295
suffered
hiji
bring
##gre
instruments
simply
colonial
providing
vescovo
##yor
copies
##indo
expanded
Loma
countyt
Defense
306
damage
##umu
##tati
identified
##tog
251
##eres
Emmy
##eris
##ew
Filmen
Zentrum
Verde
something
##ops
avut
empresas
powierzchni
movimiento
##kten
Beyond
Match
Nassau
fly
Grecia
Geometridae
entreprise
Palmer
Mine
##wano
##ij
Ghost
##ates
Eo
setembre
002
Zero
Romeo
Jun
Beliau
link
Lladin
graf
quarto
##naire
hefyd
##lauf
Glenn
##cen
Thai
ubos
Gloria
Darwin
locales
##rts
229
Kampung
ap
##ydd
301
##rman
PTT
fish
terres
prof
##phone
restaurant
statue
##vara
Illustrated
##halten
करता
bermain
##pper
beta
primeiros
##dro
kladograma
254
Edwin
Concert
twice
430
304
##git
Basel
Anti
tipus
Imperio
Ela
marzu
unico
##owana
Namun
parallel
finish
Bezeichnung
receive
##cation
Germain
Raum
habitatge
Article
diagrama
##ndosi
actrice
##orn
victoria
televisiva
vive
##atus
suit
entrar
stile
236
Vera
professeur
dute
nekazaritza
Hopkins
Giacomo
Hai
##rida
Dio
##jske
Seoul
##bang
Galaxies
Josep
lorsque
violence
Bereits
##bung
##lere
Father
Honor
dando
kraj
fransk
usado
अनुसार
ponad
##tado
hop
architect
Ibn
Szent
##लाई
spolu
Stefano
##tr
Bois
parroquia
Intel
Kai
##iens
##ake
int
Tibet
Solar
Seu
Claudio
morir
Track
covers
410
Companion
##tics
ezt
##spieler
##nahme
precedente
koning
##zzo
##iam
##stel
propre
Banks
IOC
##inas
##aw
hija
imao
facto
macht
coi
raja
246
##dium
##dita
Training
##aries
canzone
obecnie
Ella
usage
algumas
grans
##zuje
begins
Gil
suomalainen
allows
Then
kerana
voit
zien
Origins
विभिन्न
Anno
composer
Bd
##cznie
##lidae
Lucy
##zki
traffic
attacks
Uno
gehiago
Rosario
Jews
akkor
titles
##lerde
##verein
cabeza
engineer
outre
poznatih
minimum
##rden
hu
##dura
pintor
##lov
Room
construir
Belgium
seluruh
AFC
wielu
Kacamatan
##ebb
membros
situated
isam
tillegg
Belanda
mehreren
villes
##inis
vader
Want
kabanay
##uca
Pascal
249
creation
kept
##iah
egiteko
Hero
Nagy
Authority
terrain
moyenne
milioni
fazer
Socorro
listopadu
commission
Arabic
Malcolm
newly
bunda
matchs
UN
ceinture
Dawn
Garcia
Palermo
Luc
deep
wala
Gymnasium
connue
Saudi
Produktion
Belle
Tang
bude
Artist
densidade
Chem
reports
majoritatea
Alba
belangrijkste
Lalat
yli
Beograd
##angan
Nathan
Globe
bandet
ilin
combate
##isesti
zaradi
elkaar
resulted
##ece
existing
Stan
portion
siirtyi
zeer
nuit
clube
##erten
organizations
theme
IRAS
parelles
Michele
##lada
towns
lugares
##att
Yeni
organ
camera
##stic
Upon
##kaan
##tida
esercito
##jai
questions
orientale
Abril
##jt
##acji
igjen
wall
##ivos
##lagen
svojim
Kecamatan
##anan
Hardy
anteriores
euros
##uin
##liste
##eck
Nina
Julien
272
departemente
petits
unes
metais
proto
gelegen
##vole
Make
Orient
Advanced
resulting
Far
hie
Zjednoczonych
Patricia
##alan
Bischof
ratio
legge
जाते
dvije
Guitar
Fund
rada
denna
piece
buried
##idades
authority
arribar
##graphie
##lek
conte
pozycji
liegen
successivamente
tedy
Yuta
suivant
307
Universitat
sign
absolvierte
Alfredo
description
develop
niin
भाग
लावन
bigarren
Vega
##dek
##tai
akhir
##sida
orchestra
logements
Beautiful
passar
Teile
kung
tj
cinc
1768
Eugene
droite
pasar
deste
lehet
Making
brano
genyen
Nuevo
applied
##czenia
considerada
coup
hijos
regering
fratello
003
##toria
ty
Chuck
invasion
Private
effective
नेपाली
visible
brukt
Luther
neki
titular
सकता
Richter
DOI
seats
mayu
##the
learning
soles
Martha
boy
Pa
fia
##tge
Duitsland
setiembre
##rja
arba
Nice
campeonato
painting
quelli
reality
lieutenant
brigade
numa
doctor
erster
Avrupa
pues
##ilen
##mmer
iTunes
Lista
##iker
Volgens
siis
gebouwd
Bosne
IT
successivo
guest
##jk
situata
kroz
gener
granted
utilizado
Oblast
eftir
प्राप्त
##lerinde
##keun
Beste
info
kuwa
marked
xineru
##osta
##kta
connected
257
avevano
lama
##cijos
rouge
##tern
poznat
ekki
##jia
xunu
acest
##ffe
Ortsteil
sementara
##mb
##halt
##nam
mata
vue
tells
unidades
surrounding
639
hermano
Situs
tada
Erfolg
necessary
Honduras
Edge
MW
##uel
gewesen
GAD
##zation
usar
Range
inspired
##mic
##gge
fuerza
Michelle
olid
arc
Leiden
वर्णन
advanced
gemaakt
Lorraine
##hur
receptor
Baseball
groupes
erau
Jeremy
##nds
studia
ernannt
provinsi
##dica
dnia
##owski
271
tagja
deltok
agost
##gat
courses
presencia
radar
Comme
safety
##सी
anual
##pon
luar
Berger
trad
inyo
##aat
##akan
principali
dorp
##IN
webgunean
##itus
Academic
##qi
##arten
##SA
Nicole
##mde
indeling
Lion
Dana
##aten
ranking
##्व
tried
seguir
Que
##down
Sala
sq
Magdalena
303
bala
##stwo
##gni
Start
237
Chine
Campionato
valt
completely
mandat
##minen
##illo
##nische
##tory
##verse
##chy
timpul
votos
Continental
Terre
personaje
lau
Museu
tao
MP
ray
Jesse
Montgomery
fully
foto
Vista
Omar
Tijdens
disc
##anu
Adelaide
jenis
cando
vehicles
yard
sette
Maritime
Familien
block
333
rio
galaksija
multimedia
datu
containing
##eux
FBI
kanton
Dijupuk
sides
plata
disabuik
karya
seja
##rane
Marion
MA
wins
rejoint
UCI
karakter
##gno
melakukan
ehk
saman
teaching
Liberty
Aunque
##iter
460
242
antiguo
##bing
dima
##lny
unknown
mpilalao
antigua
##nten
##ender
Tam
gilay
komon
talagsaon
itandi
##hme
Artikel
1779
Truppen
fondo
decir
dewasa
मार्च
Emilio
huit
personer
obtained
scoring
confirmed
##gren
Munich
axe
##nci
nouveaux
Petra
Verbindung
core
generalmente
EC
Angela
##त्र
Spielen
Royaume
rekord
Tennis
##mans
Viena
ilmiah
wenig
blevet
##िल
1740
baixa
populaire
288
vehicle
terreno
##lius
##lava
avuto
vivint
talent
methods
poble
seks
Albrecht
ore
##tamente
blei
edited
##egen
##दी
Ihre
nominato
Communications
finalement
sterk
Dunia
geworden
Dios
occasione
maig
injury
##ware
claim
##cono
Bien
Steel
boek
rend
EMI
mesi
referencia
##ares
नेपाःया
younger
feito
showed
gemeenten
काल
##vez
1753
Selain
imaju
Welsh
##dle
xunetu
##nca
##meter
bord
Ainsi
285
timur
stora
gjort
unas
##jah
##stre
noto
voidaan
Britse
euren
##eks
welches
Jamie
baza
Policy
biaso
ibilgailuen
figli
Hay
##preis
Search
starring
##ight
troupes
dunha
laweh
disponible
Universiteit
##cm
CDU
##enn
medzi
Becker
fighting
kapalo
visit
##lini
Branch
karusakan
mine
translation
Emilia
##mission
##chia
sviluppo
Evil
Universe
##av
Dieu
Still
economy
kurang
##eon
versie
Bratislava
Yorkshire
Guillermo
##quet
Sieg
Us
kalas
importancia
##ptera
SD
244
Testament
waardoor
##awa
##itos
principals
aquel
jednym
limite
Chan
classement
labor
मराठी
tanduak
slechts
Cannes
Konrad
manyebabkan
ditabang
manggerek
panggerek
Bo
##tand
Brooks
oldest
chairman
Tale
Flying
committee
daily
moest
उन्होंने
Battalion
CV
pair
Polskiego
influencia
pracy
lle
##yl
Stade
erabiltzen
Engels
household
struttura
contrato
tratta
Wayback
autores
##olt
18th
tillsammans
suggested
Arbeiten
Ranking
Grove
Moselle
##unta
bildet
kerajaan
kojima
kat
##vati
किसी
historie
##ध
siehe
##bild
होने
berbagai
Ministerio
Tallinna
bhliain
commander
distintos
Lage
instrumental
exchange
Europese
Alpha
##iona
Censo
dates
schloss
ॠतु
Forbes
315
bor
eski
officials
dous
Norsk
forest
WWW
scuola
domu
pinyin
publicada
champions
Ex
Hubert
##rich
trono
##odu
Wahl
##cted
Roosevelt
ब्रिटिसतेसं
wanita
Bernardo
##rlo
##isto
facility
Too
subsp
manusia
soos
Interview
##anja
Tallinn
unu
##agi
hom
##cre
tower
##zina
juliol
##mate
natus
kai
probablement
Horse
##enda
pelajar
Escola
nagrada
arrive
losing
Lower
grunn
##rita
calle
##iat
variant
##rzy
trop
Herzog
muitas
girls
familii
keeles
documentary
kaimas
##col
##ख
Choice
Gobierno
Kommunen
Til
hver
##tsi
seo
retrouve
Arabia
Shadow
वाले
##low
vrlo
Chase
##ened
beat
##lni
resultados
benannt
Pologne
quae
think
##put
Deutsch
ahli
kahenera
texto
chance
##ulation
critique
restos
Italiane
Ellis
Betty
kapott
estes
matter
rank
ochobre
Condado
Melayu
Statistica
Vienne
historian
stadium
tie
programming
##iae
##hia
dis
hits
provinciji
Espesye
hands
तहसील
##icas
WTA
elementi
lit
##ातील
Agustus
Auvergne
slike
vede
Rich
reason
उनके
arten
dollars
einmal
DL
Flores
pubblico
bahan
Giro
Ruiz
Duncan
##glia
Axel
Nachfolger
fundamental
visita
argentino
##iran
##ninger
##kami
postao
elecciones
##dum
F1
Amazon
GT
fiume
amigo
egli
concernant
mental
247
celu
chosen
routes
##sio
diente
incident
Railroad
valodik
Eagle
##iment
dakong
theatre
##jak
##burgo
bygget
Nama
##gor
Trek
##rija
umum
lyrics
Anche
Februari
##sts
Deportivo
##unu
काम
##cc
stranici
##orum
voru
##rla
##bbe
yol
Forever
Jupiter
##azi
Newcastle
kanthi
entwickelte
##kach
masing
1660
Hernandez
Jej
skrevet
Mk
Beim
406
verheiratet
sistemi
follow
##ph
kinadul
1648
Lambert
Suba
VL
गाँव
Vor
peace
DS
ritorno
fuerzas
##िंग
queda
##graphy
mosaik
##dil
incluindo
ove
Helsingin
usando
##nais
formado
entra
##cych
##sso
succeeded
##kis
hadden
Angels
vuodesta
agostu
Palma
attrice
Even
##iding
##anje
ama
arms
Kids
gihulagway
Snow
##jna
captain
blues
laws
Jos
##rge
potom
Professional
##eja
##isse
okrese
Perang
nombrado
xe
Wilayah
##graph
Guido
display
serait
Horn
centra
strany
##tim
##ील
Porter
Croix
Gattung
Dieses
Fast
##cens
##ovo
##्क
##itate
##von
Noctuidae
diferencia
Ausbildung
bande
##rent
batzuk
##stellen
ihres
bonus
##cci
medicine
Rang
peste
economia
##ith
amateur
mix
Animal
Gulf
##ogi
finnes
livro
headquarters
Ja
Regel
dele
Dominique
##asta
viri
ufficiale
Einwohnern
Basis
##colo
entitled
##यों
actividades
concello
functions
holds
latino
livres
Cristina
Fiat
##yes
Min
##stik
achieved
Stil
derrota
zonder
##rti
authorities
pravilima
##rades
Circle
completo
Titan
Jin
comunque
Besitz
390
onu
##mbang
quarter
enda
aa
Nu
##oan
classifica
heures
Ottoman
Thanh
sekarang
odc
inhabitants
##vei
erzielte
Obama
Podczas
allowing
Haut
1950s
##vni
Broadcasting
politiques
espace
kamp
Lille
Vereinigten
Ada
zero
Weltmeisterschaft
##ssi
Regina
depi
fundador
adaptation
Begriff
##inden
passes
siete
##sne
kiedy
disputa
##cznym
Sudan
Pfalz
Market
Vid
Filippo
273
##eran
fonte
Circuit
##fier
eden
bliver
##sley
avientu
gruppen
unica
Staat
relatively
asp
sum
tzw
Without
Israeli
draft
LINEAR
Russie
karon
fields
Nationale
Damit
##ceu
Crystal
airport
escala
##ँ
##einander
reino
सं
asal
Hochschule
##dern
bumi
Simone
266
fuerte
ann
##keta
kauden
##aca
joven
##vna
sucesso
soorten
subito
Section
concerts
solution
##glio
spot
spielt
stil
Movement
utiliza
##bius
montre
##nces
Flash
anv
qualquer
Zudem
##quer
kwenye
oude
isto
koko
Christina
##rino
Chang
##रे
segon
323
Chrysomelidae
coll
identity
humana
koristi
##cata
Wellington
##aco
bleef
Aviation
##quia
target
Distrito
##cera
beyond
Jugoslavije
nii
Eye
maire
##ex
einde
268
sering
ricerca
absence
dauden
##sak
tempererat
nalista
Pagka
dritten
siak
personnage
सबसे
Several
steel
Braunschweig
263
##owie
imperial
302
needs
Hung
sinn
Walk
resultat
etti
centru
Pavel
##euse
fishes
Storbritannien
occupied
Chairman
##rot
Castillo
##fahren
Mill
scena
Jake
neste
folgende
##ladi
##eter
sydd
Novo
##eksi
derecho
Leeds
9965
Frankrijk
Adventures
##bah
kehrte
Chalcidoidea
Jensen
Hercegovina
inicial
perteneciente
Beat
tank
6000
trees
toate
Ghana
jeszcze
write
##pak
Revue
Bonaparte
Berry
rapidement
Draft
szeptember
##ficado
patag
aC
selben
realizada
rise
##komst
##nig
sonora
contributions
dirigido
vuotta
eventos
singel
##cket
1771
##zung
fauna
##rine
jedno
zom
pirenen
Maya
Return
derechos
##nija
Guard
elemento
terjadi
espacio
जाती
286
Dreams
##ined
sogar
##ites
jild
pt
morning
arma
fevrye
kanggo
Kiben
plats
brothers
yake
##rza
domain
Matoari
Tribunal
gente
Manager
st
bands
cirka
quant
गढवाली
##arse
voyage
Stiftung
governor
Svenska
Igor
Low
seguintes
282
Economics
Azerbaijan
issu
museo
umfasst
ehemalige
Consejo
1766
Laguna
##tine
Ungarn
costat
fond
missions
Fishes
hohen
perform
##aci
1769
Crazy
frequently
##50
##sca
Cemetery
276
Hann
Intelligence
Igreja
जुगु
len
थियो
terkenal
##फ
comptait
conde
Travel
bought
Birinchi
krigen
##ufen
##uran
edilir
moth
Zdroje
Etazini
payares
Menteri
jis
##xt
277
Kategorie
landskapet
Brand
Olga
##spor
Philippine
##ID
Dieter
Antoni
clan
Clube
Italijani
##gir
Block
sixth
supply
##sor
dilakukan
Bronze
##pol
274
dunay
##pare
occupation
cung
Albania
chamada
1765
##ringen
jelent
Sogn
Ki
czyli
respect
Deutscher
Seventh
Papua
liberal
kinahabogang
stod
Medelhavsklimat
saga
##olla
Mass
dur
##वा
warrt
asemenea
totalmente
##pada
Things
encontrar
heiratete
##kah
##zko
ellas
Phi
##nato
कथलं
gebracht
wiele
Toyota
regista
##enes
Westfalen
Cada
Paradise
Pe
conegut
holding
portant
Woods
##enburg
settled
##museum
Staff
Mayer
##dni
pierwszej
befand
ity
Salzburg
##istic
गए
Aleksandr
meeste
Ti
##odi
werken
Folgen
brief
mert
opgericht
##vale
##aciones
ends
controlled
Herschel
russo
shared
vat
1767
Actualmente
oficialmente
harus
pieces
Leitung
##tza
celles
spiller
mente
Rossi
##eret
ending
LA
Alemanya
##ules
261
Tournament
kilka
##ivity
AU
Wikipedije
Hendrik
Tell
##dice
##kol
assez
tua
amigos
##roy
##lim
##tava
##vista
julkaistiin
Richards
##agem
lelaki
user
aired
1650
jota
begge
vedere
bijvoorbeeld
Ucraina
electoral
##dla
regionie
##onne
succes
creating
Herrschaft
Frantsa
284
annonce
gira
##tui
Neal
constant
quam
##ziale
boreala
Parma
##moto
forza
##्त
cor
extensive
##mpe
##ody
Sidney
dt
posta
festa
garde
filma
simples
numerosi
Kun
klein
Richardson
noche
##graf
piccolo
maestro
##aires
Stop
##bte
Orde
allenatore
Posteriormente
Eerste
fordi
Pendant
Inside
dni
formazione
grupu
281
Geography
प्रमुख
tels
mark
Ihr
258
launch
470
chemin
Enterprise
convertir
skog
Technical
##bir
Monica
Salt
Andrzej
desembre
##utta
Mills
Montenegro
buku
acts
Depois
Ida
Ing
semble
##fn
##lal
287
##sburg
अपनी
dessus
##bridge
personne
ayuda
portal
Leiter
##oku
##vere
Freiburg
testa
sepak
Status
jezika
ahora
omna
Trois
capable
##jne
statistique
puta
Bradley
agriculture
stadion
##iau
donar
comprend
hoc
teritorija
##osti
prevent
recebeu
##torio
Jeffrey
##ल्या
mah
Guicciardini
ebenso
staden
##lant
pal
object
internationalen
kalla
kojoj
##vana
Italijanski
Fighter
Ph
##bildung
testo
##fia
Milton
idade
##hard
medalla
rokoch
dopuniti
Denver
##elen
##fin
fitxa
besitzt
zobrazuje
##bina
derived
##czenie
Archives
osoby
Prior
ponownie
##poli
Brad
transporte
entwickelt
##hm
Dopunite
minder
araka
obtuvo
1762
##tki
Comedy
जब
britiske
enemy
palabra
koniec
##odd
proche
278
stond
##nc
setting
Weitere
Nokia
##aus
Pato
birds
##ienne
gay
338
dermed
##war
Sveriges
murder
##tisch
libros
Bryant
dellos
politischen
##tata
marketing
saluran
rose
importanti
297
##dies
पहले
tyre
292
Churchill
arrested
powerful
Bus
1764
febreru
Acta
Homo
Brisbane
Cell
bost
Provincial
arco
tanpa
details
##kola
##lgan
Trinity
Politik
sok
Mail
pontos
##teil
dati
pelas
Ultimate
560
Adventure
##stellung
Bezirk
##phus
Norfolk
ulike
ekonomiska
stekelart
Romanian
rail
profile
CF
##raf
dwie
Zwei
tomu
Connor
259
Deus
parque
dadi
##eder
augusztus
Dante
gewonnen
Yupiter
D0
Leone
pendidikan
ideal
enfant
Picture
Andrews
ciudades
Together
ginn
##yne
Train
##luk
stay
britischen
hoje
iznosi
kez
Grenze
Thema
Trans
collected
giocatore
Moreno
##escu
bruk
##tini
refused
##acht
##णी
Sulawesi
familiar
Palais
##yard
debate
Bosnia
धर्मया
lavori
OH
produits
Tema
308
##izado
francia
figuur
Vita
Johanna
MB
Rennen
innen
formula
##dler
##bund
busca
##uso
##eru
sitio
autore
IUE
permanente
Polychaeta
monsunklimat
Uganda
kuuluu
chemical
LL
employed
##rique
wszystkich
lik
fekk
interna
Moliterno
hot
##pad
Sistema
franske
Dates
##ree
Rede
vit
damaligen
321
Marino
persiska
Galaxy
symbol
##posto
267
Sociedad
##far
Moldova
category
##cut
##rme
269
dne
##ification
VizieR
Alemanha
miljoen
Bailey
njegova
Kalimantan
fought
Rodrigo
Randy
##verband
##ligen
0415285569
0821419161
Armiero
311
doble
दो
##rand
Cymdeithas
##genommen
Anglo
Airways
0691008000
B001BWSQ66
Letters
##aza
##llas
0136120512
031322983X
Schuste
tenen
maires
Against
##familie
speech
citizens
yellow
tapo
Quest
##nach
rekke
##िस
336
Antarctic
remix
quem
##ulus
Ensemble
critics
##TE
publications
mimo
##adores
Rat
##ंड
Singer
medium
Trump
##skoj
Corea
##vima
Nur
Primer
approved
kent
283
Architecture
Saints
Futebol
zowel
consecutive
universal
regionale
Spagna
internal
Olympischen
actividad
##lardan
Parc
Danish
Oficina
internazionale
localizado
italien
##usan
Gilles
bernama
reduce
Parlament
Trail
Antwerpen
Molecular
gabeko
titres
machen
Date
commissioned
##sul
faisant
noms
##dige
Isla
englisch
translated
arabera
Uppsala
technical
##idi
offices
millor
Lied
Watch
normale
tours
##enz
flores
cens
compilation
weit
njegove
performing
Negro
Creation
ocasiones
##konna
mineral
imenom
nuna
##raz
नेपाल
ri
512
##dza
fie
deset
screen
Robertson
Made
regionu
Estos
Mainz
jalan
ICAO
opnieuw
Fl
Anhalt
bara
##tland
URSS
Wicidata
##RA
einzige
##isht
centuries
ose
agora
950
Lennon
Ehe
faz
Bild
Kenny
Bourgogne
lanean
jogos
natura
##vert
quinto
Pau
Maison
##oen
Henderson
##xar
##nner
##ank
##yal
##II
propose
##tno
Gay
Grad
maka
Willy
##tatea
Italiana
nahe
soldados
wyniku
prop
gradu
Superman
mail
Morrison
returning
meczu
Lou
reforma
distretto
Vilniaus
1730
##uren
Publication
session
Banco
##ojen
Vanaf
sentro
Kinshasa
##wards
##ाच्या
sarta
Badan
##hung
Schlacht
chiamato
defense
##ror
normalmente
motion
Murder
sexu
bed
इन
##avo
Beethoven
##ON
maioria
Bon
Ur
##hood
pesawat
Fan
640
Yellow
Reynolds
##dez
Ion
seramai
Franche
Actor
छत्तीसगढ
Latina
gali
tota
##oor
intelligence
Championnat
potere
suba
mogelijk
Caesar
Peters
##lier
mulieri
molecular
Einstein
##vs
नापं
hp
##gaan
##tku
abbaye
really
A1
Vittorio
Ko
trei
##lee
forze
नाप
gitar
##vek
ajal
Stern
editorial
##cii
##rix
ds
foron
speciale
##ljen
alkoi
pH
zato
##punt
##jala
droits
aktor
escape
primeras
##hang
bitartez
जैसे
##njem
##ः
difficile
monuments
oni
##rut
Zij
Blanco
##place
vision
##uge
planning
dropped
tramite
njih
##hlen
Daha
Triple
estrella
roli
molte
Need
##liku
gezien
Boyer
Miglior
aged
sequence
##avi
Estas
divisions
335
visited
Trio
attacked
1755
Lynn
##chus
345
strani
Columbus
##inda
sections
##lling
##ead
mesmu
Strasbourg
paz
keseluruhan
miglior
Montevideo
Khi
Floyd
attuale
##ift
piti
##uten
dve
futebol
bisher
Person
regnskogsklimat
##pole
diterbitkan
##IP
316
##gada
subsequent
##gabe
grec
Abbey
##AC
koos
Rise
Fish
PT
wiki
Oriente
stellen
Students
famosa
ways
boven
##kreis
aucun
aquestes
AA
Wereldoorlog
Claudia
Swift
Nine
खँग्वयागु
Amanda
standards
represent
singla
299
ind
huidige
##chas
apoyo
pedra
parece
##vine
Senator
oer
Tuttavia
chung
attempts
minh
##ingan
Ni
1720
internationales
##inio
carretera
Dale
boat
discovery
candidato
personaggio
##jung
classical
spin
Bio
politiker
395
##table
293
chegou
faut
kojem
funding
akhirnya
##try
##ettiin
Llwyd
Jaime
someone
describe
##stico
Piper
279
##ises
##verkehr
##ाई
parole
gingen
tomar
Congreso
institution
Gerald
1640
offre
opposed
Tore
##sort
horse
estados
hemanari
Benz
Fungi
broke
##wegen
Anzahl
stare
klubben
##lka
##ked
##view
message
स्वापू
Heroes
##landet
gr
spada
adult
hors
##hrt
##langan
deus
Rhein
comun
Philosophie
##थ
Aquitaine
1021
Francicum
Rivera
Luxemburg
##urt
eraikuntza
fuel
unable
AT
##tres
##rici
justerad
atteint
tay
stedet
tengah
medicina
Jackie
farm
antigo
##aut
datuen
##rali
##ktion
Ingrid
squad
##rke
##iego
kautta
Brunswick
believe
##szych
elektrik
empat
Tan
futbolista
##eke
##teit
Pass
edge
##utas
Staffel
Rod
##xos
Monster
fiel
pale
##valo
Rady
biography
##णे
##pre
vett
Format
memberikan
यस
##pra
##ntar
थःगु
##ovou
##rso
McCartney
zal
selection
meste
exception
equivalent
barrio
Elementary
mukana
Abteilung
##cou
uchun
Jam
nombres
Yo
##aos
309
ol
अनेक
318
##gare
flow
Fraser
##pil
bidang
kullar
fuori
nations
particuliers
aspects
331
Hercegovine
प्रयोग
##ogia
##MA
##rop
##oro
Osaka
founding
determined
kanyang
##iese
Aceh
Raw
postal
Gate
Ukrainian
ciclo
keluarga
Campus
324
Haag
Ibrahim
##ukan
Glen
कम
Zahl
Sonic
uga
signe
##ccia
Laboratory
Financial
Hunyo
Vom
##cky
##ress
sech
abgerufen
controllo
retire
Faith
Seiten
##tats
##eal
terrestre
langt
delta
Friday
Ljubljana
##nay
perang
spilte
demo
height
Finalmente
Jens
GNU
antica
##rende
mala
Telegraph
##gers
##tele
View
erakusten
Westminster
Rus
Pri
context
##जी
Gerais
nomination
##hing
feu
gets
Volta
##tari
Derek
increasing
lleva
azul
Ji
Praze
escena
Newman
converted
aigua
amit
##sent
hyvin
Ages
##markt
Farm
ell
price
republiky
347
agama
Fellow
educational
herriak
Drake
tas
injeniera
HIV
difference
##kki
##ution
cantidad
choice
ondorengo
departamenduan
selling
curso
perempuan
Markt
##tivi
developing
attempted
##iven
##lice
divers
Corte
##IC
##rando
angle
Ausgabe
aastast
Kiev
##lun
europea
AP
refers
##erade
salle
ABD
##spiele
319
doing
##stelling
##tty
Amb
religiosa
Cox
Every
Ignacio
criminal
Tre
dient
dicha
##where
ambas
rede
##rike
##dah
Kill
##वी
conhecida
Celtic
Speed
Erst
Agriculture
chapelle
Aleksander
##xia
Andersen
##niem
Admiral
incluye
##ological
ficou
##para
Salon
##bok
Isle
kainkintana
peintre
317
Zuge
lec
respecto
##tid
svou
##vice
industrie
##cado
##gol
drugiej
10th
dicho
enter
molts
racing
tomto
Mus
Rocky
Labor
samantaro
allemande
meters
##iff
Colonia
बहुत
radi
mivel
materia
Champagne
rating
##cijas
322
Recht
Schiff
vient
##front
Inoltre
blandt
Christophe
Herald
1759
Wings
enger
Sporting
superiore
leder
pusat
factors
romanzo
CE
precum
##alle
##play
Vorsitzender
domestic
Raya
##eman
comuni
banatuta
##heten
Sid
podstawie
onto
guru
Sang
hasil
tento
magnituda
##edd
##linen
##rani
##voli
considerable
CNN
Polo
sal
punyo
sorte
##mani
Cricket
Jalan
mund
charges
etiam
yela
verbunden
affaires
##jd
Wii
occurs
waaronder
collections
fanden
##nburg
Arrondissement
Mereka
direkte
andet
ley
##eket
Disse
historiques
Bi
Eksentrisitas
Electronic
##uir
##fra
##ob
ks
मुख्य
##gata
conserva
linha
natao
##rale
Hello
equip
##tani
##lai
##fie
##smu
URL
Gang
worldwide
guns
##hren
exhibition
##sje
corona
Pebrero
provinces
print
imidlertid
situe
straight
##nch
##elsen
usein
representing
##ंग
Luego
carte
UFC
satellite
##nsk
रोजी
why
291
##lichkeit
sabuak
##taire
ruta
Rai
pudo
arm
##zea
##gram
dagoena
Infanterie
Cincinnati
ovest
shape
296
Menurut
perthyn
geral
rodu
##lerinin
##hti
##sant
##gner
##cak
Actinopterygii
mettre
relief
##रा
EN
capacidad
##huis
Vida
##mpa
despois
lalu
lengua
focused
ezen
##bne
##dje
brown
bevor
Mad
##zija
orders
Crime
veliki
flat
Fredrik
dispute
talk
Nacht
values
originalmente
nuevas
##sze
Jura
beschreven
taux
quite
Trinidad
Gun
entfernt
spre
##ियन
##vora
Jenny
vide
Hindi
##zhou
Monroe
wind
Lei
problemi
Heute
##rag
##vus
partite
lands
##him
interpretato
##ikus
ego
antena
##rano
Rolf
##cles
MVP
influenced
hefur
mendapat
##bana
zamanda
Wenn
Elvis
canto
##wand
Gobernua
receiving
##zata
solamente
##lanan
totes
scritto
Vasco
diameter
basse
independence
riesce
anciens
##sum
##cast
meurt
destaca
Rice
franchise
niej
Homer
pula
reprezentacji
Sandra
greatest
orbite
sebesar
unitats
Balkan
##bby
Filip
ageri
tunnel
soratra
भएको
colonel
##ndet
nchini
Kyle
##base
consisted
##uis
rokov
Argentine
MIT
Estonia
recognition
finds
kasadpang
negro
Ole
tilbage
##rga
pueblos
352
Zo
Indo
##sc
trzech
Nothing
##long
428
##rei
Aufgrund
abitant
nor
savoir
numele
Chu
##eka
##yana
Solomon
##rce
catalogue
पलिस्था
constante
frame
ledna
vingt
404
legnagyobb
wohl
298
urteko
570
pierwszym
385
Rotten
perbandaran
powiat
shortly
Stephan
Look
##tiv
eher
Nicola
failure
Palestine
ska
##hel
369
agricultura
goles
meant
Lago
plaatsen
attaque
meninggal
1756
Reader
##porte
terza
Ministro
fruit
##tiske
Amerikan
##lva
##utor
slightly
##krat
korte
कहा
##plan
471
Judge
ramach
Belgische
weiterhin
Defence
Thing
judge
carry
recht
primavera
##sios
zajedno
try
hvilket
##vier
storm
##inos
geri
##gesetzt
Reyes
##eix
##uring
koska
compuesto
##mico
Jerzy
saa
##xen
votik
##delen
##kamp
Suite
Bear
connection
nende
angl
##uva
##znej
selatan
##chap
Trend
##ngi
castle
RNA
expressed
##yka
casas
Darmstadt
##ax
737
muestra
Sheffield
Suzuki
editors
alueella
mandato
##kra
verden
##osan
dubna
mampu
Polska
Barnes
projeto
Schauspieler
Antes
habagatang
meestal
reasons
Fransa
highway
Premi
daarna
onderstaande
जनपदया
scrittore
##kala
Engelse
chia
##uck
##bly
febrer
Perth
Verona
comic
contained
telefon
##bl
##tych
doba
suku
fund
flag
filmes
huis
RCA
Caribbean
idioma
##lines
vijf
Runde
Hauts
sted
Mohamed
vinto
desenvolvimento
Aan
##joner
administrativ
ersetzt
qualche
##ftet
bron
Contest
Emploi
respectivamente
script
akik
mondial
328
Lund
Winkler
offensive
##lerine
##ified
Vi
Vision
kterou
templo
dzieci
rady
Haven
Johnston
rear
tohoto
larga
Mecklenburg
##रण
dom
##ril
Wonder
##rry
Oise
##rias
Blanc
##weight
kring
valeur
##gica
Expedition
step
Saturn
1757
weapons
Gerard
literary
mando
kinderen
calls
eiland
Mari
lediglich
##lter
Weimar
##lado
Irene
blog
lucha
havien
##menta
Present
##esis
Bertrand
##kti
Stock
##kond
Heavy
biskup
##reich
neve
biztanleria
Truth
comunidad
##wyr
jednom
Bella
territorial
1761
##grafie
enciklopedija
probabilmente
Funktion
capaz
mampiasa
Mustafa
azpian
Manual
faced
kabungtoran
producing
Videos
Espanha
backing
Trainer
332
hohe
##titel
uzun
ouvrage
530
##ox
##tron
##cto
Elliott
Glass
establishment
289
radical
##yre
##linie
Count
##AL
Talk
relativamente
Tiene
343
Tokio
##mena
Cathedral
##omi
##fon
buts
Ritter
adjacent
familiaren
##zma
soundtrack
Salticidae
Nashville
cilis
314
##dja
manuscript
##dam
##ogen
Byen
Motion
eksempel
powers
Meisterschaft
anque
Haziran
##hill
##namen
McDonald
sidan
##aman
imagen
sollen
शहर
njemu
##bri
funds
Moscou
apertura
Res
##AT
slag
8th
##znych
Burns
okruga
politische
##emi
##som
##witz
capture
Dorothy
INE
लेकिन
Marta
Brook
worn
Norges
successfully
users
Disyembre
kill
joueurs
ghi
Kladogram
kira
##cula
Latinans
valodo
MD
oorlog
okres
poetry
matans
kunde
exist
lomanef
agents
contributed
himatan
devenir
lato
Nantes
destacar
Johns
lomanefas
fleire
##zal
##yce
Chad
ausgezeichnet
lomanefa
##bria
vietans
bygger
हुई
##onda
oldal
##48
##hara
relativ
charts
jugar
standing
Nuclear
Harbor
petites
Lucia
ESPN
retirement
projektu
gela
Lotus
realiza
##enza
##nai
Ponte
##vid
wonten
address
##rated
Abdullah
Austrian
achter
morto
##hre
##uju
ponin
##edi
##schrift
jiwa
toward
lemesed
familien
tr
vomas
Porta
Hit
337
pertsonak
Chef
lemesedi
geheel
Gazetteer
##nea
heard
##oge
qualified
##aient
Ernesto
##ison
##tisk
Myanmar
personajes
Constantin
wollte
GB
Till
ronda
herself
publique
honom
sollten
periodiskt
Nisan
Woody
poblacions
wil
termo
opinion
Vale
Assistant
golf
cricket
wild
जिले
##maker
abandoned
##wali
Burgos
ferro
totalt
##czej
Schriftsteller
Reid
pun
##beck
innymi
prvo
##born
unitate
Cigliano
Tours
##leben
##asan
ZSRR
##zou
Kiel
sociedad
17th
२००७
kacamatan
vrsta
Nicaragua
##tando
Mao
bureau
serious
walls
##kung
PA
Alexandria
405
Ost
##tup
##rao
glass
stammen
plano
gaf
doar
##logical
certo
Theodore
iron
disso
Manila
liten
##zona
##tige
adina
kalt
Lange
pur
Lara
gruppi
Deputy
fines
seguente
nahimutang
partea
Monument
poc
fama
supporting
##rates
jednu
bilden
Nasional
Kao
versus
##esti
Mohammed
alabarik
aloitti
Chamber
##holdt
##nov
##itor
Exchange
Timothy
preso
##sien
reading
Metz
##edo
lorsqu
Eugen
Penguin
490
vode
Ukraina
pendek
गई
##ngo
Ilay
##oji
Uhr
Vincenzo
condiciones
gespeeld
matahari
tur
portuguesa
##ily
384
##GB
Bro
godt
plot
emakumeak
treballar
##berger
scenes
razas
##anta
luce
Journey
##hta
Mariano
##iseen
apa
##cita
mundu
निर्माण
hvis
##rth
Euskal
##not
relaciones
##eros
gelen
##tje
speelt
##ind
##jde
detto
strony
##yama
Buddha
##gelegt
Limoniidae
##boru
Gottfried
ronde
Geoffrey
Ieu
Greater
Tahun
##formes
pace
Cornell
fundado
Genova
eget
daki
brachte
##gida
Matthias
326
Gen
bilakaera
option
Eades
evolution
Markus
ikasten
sought
##sinde
bordo
Janet
Net
meilleure
Logement
##sesti
401
Mendoza
Hook
segona
##oki
##bruch
Artists
besten
Soldaten
Bengal
Hannah
locations
Dengiz
notte
##dens
reserve
Pereira
##US
findes
aktiboak
##gler
Gott
nagyobb
quase
मा
##hol
##motor
Bali
save
##nco
laid
diferente
Guerrero
Beide
rete
Piotr
Studien
boys
anden
direttore
sp
cidades
guztietako
properes
##gun
##yje
terceiro
##क्ष
stala
##nico
Carey
vertical
npr
mezzo
ultimi
##horn
Legislative
designer
eye
1680
Versailles
propioa
balandlikda
387
##teko
Jamaica
WC
Lynch
environmental
##ologi
Noyes
Nikolai
##urus
lettres
partit
##ckiej
Maxwell
Joy
investigation
kendi
Rouge
Players
fortsatte
contrario
##teurs
Dictionnaire
occur
Chester
turi
##mere
Diagrama
##cola
412
##kket
Pilipinas
##मान
Seconde
##hall
##fest
Parish
##tale
##sir
Zona
Mahallenin
Occidental
arquitectura
polityk
Casey
dallo
Tito
devenu
mult
##iation
chain
Corona
Kraft
metara
dnes
razem
noble
Fleet
##rain
Havet
pet
individuo
##्ने
##lana
denboran
soms
Jugend
##30
erreichen
393
taille
mining
objects
Tento
promote
##istische
laharan
dirige
##kli
Brazilian
ruso
comprende
तर
##werke
1745
##alen
##धि
vitesse
niego
Oskar
##gil
##lone
Excel
dominio
incorporated
vrouw
##lach
##isan
Mystery
अधीनय्
Dienst
modelos
alcalde
courts
trying
##vlja
permettant
partita
bizilekua
township
Hallan
Ligi
cuyo
##mene
Sy
##iras
cent
##czony
Turin
leden
##jeni
zehatzak
graduate
kerusakan
inicialmente
valores
gobernador
Normal
humano
Pieter
1550
1754
##nement
araberako
##sai
kondado
##iais
Sono
mengenai
trio
juta
Ashley
Roth
aina
spelen
westlich
prize
Mini
Milli
Using
##nare
Alban
##cial
ill
##cel
equal
Crawford
erbaut
departement
protect
##zta
rod
##्ति
##ogie
sathidan
##digt
Byl
Heat
maiores
##rij
bom
Lions
tokom
##ssant
Joshua
##qua
maintained
##ligi
punta
swojej
wave
llugar
##ital
eskuragarri
##otas
nytt
CO
##gine
##ST
Midi
Lai
RS
northeast
teen
utgitt
hektar
##didae
Gegensatz
videre
franceses
vremena
##lto
viktig
quinquennal
1715
origem
Bandar
Indians
mediados
Austro
Results
Breuning
starts
294
Freeman
Medina
jedynie
Oil
##tab
##reu
Campos
##borough
Hood
Militar
rat
gertuen
departamenti
Communist
##kara
soul
Chapman
segment
olub
Monde
ponto
##डी
Burke
arena
batean
##sada
Daar
filha
ultimately
partiellement
device
varit
cour
Split
successor
##ndt
Prvi
ocho
##nil
Half
Mitarbeiter
sailkatzen
jap
sana
deri
orbital
manos
Vuoden
Thus
kontrakt
ibilgailu
Ocak
Freebase
Critics
##ating
objeto
mungkin
Eve
hectares
laburpena
Wheeler
Ground
Kapelle
fleet
gruppe
Arturo
Lajos
2013an
##ack
hvert
Rex
Within
HK
kategorii
pihak
passenger
##िला
piramidea
weekly
romans
loop
##fter
filosofia
bikoteak
pure
##ticos
##eseen
agricoles
Familiak
acceso
madinidinika
Juventus
##usse
jury
manje
morts
##rai
duque
##eny
fanisana
Mathematics
aspect
355
devam
sigue
##nberg
Tonight
grafikoan
utawa
programu
proved
beteiligt
adinaren
continental
pratique
1630
Sumatra
erroldatutako
engem
specifically
Negara
##ovali
tijekom
Zao
Biztanleriak
##ाने
##mur
jabearen
diez
rich
उन्हें
Winston
avoid
gracias
norrut
decades
Erroldatutako
administracyjnie
Greene
bald
natal
Construction
##alis
##्म
dvou
Somme
##iksi
Gardner
mpikambana
maaliskuuta
##dienst
passato
acabar
580
१०
##logo
Nils
nagusietatik
islands
regarding
saking
clubes
inaktiboak
1620
couleur
##uze
356
##station
Pius
orta
departemantan
statement
verlor
magnitude
367
strength
Though
##lnej
##mmen
diritto
Alfa
Kassel
Todos
##ems
##fers
saber
headed
साहित्य
nothing
heraus
startet
##bida
regno
Mickey
##्छ
inaktiboetatik
roof
Parlamento
Them
Fransiyaning
lignes
philosophy
Abel
definitivamente
##echt
entrance
torno
Nha
possibly
fisiana
actualidad
bakarrekoak
kutoka
racial
##redo
##umen
Brother
Presiden
estatistiken
##tato
Hearts
Lexikon
passing
loan
inaktibo
invited
##rp
mengambil
views
1710
Memphis
##pati
compete
erretiraturik
Oswald
sailkaturik
##card
estimada
Ekim
laat
bedraagt
Prag
610
PP
Tradition
Braconidae
zahlreichen
Carroll
Rush
425
alokairuan
candidates
##ovima
okupaturik
Genus
Slam
daharampehintany
daharanjarahasin
##iak
alguna
carga
elenco
##maya
Jong
merged
iyi
theater
Whitney
Salamanca
vuoksi
##damente
Paulus
educated
##reo
forhold
Strange
ach
szerzett
officiel
Rand
castello
sencillo
##position
##iner
delas
Camera
##twa
rosa
compris
##udo
##olta
Musique
mandritry
##zji
keinen
Slekten
mention
culto
Tranonkala
Pere
Midnight
Resources
assistance
begynte
wenige
dor
##sser
ये
winners
##iler
dochter
desimaly
doby
numerosos
1748
lanzado
perusahaan
Isabella
llarg
354
Student
Schools
##wich
talen
Abd
##nese
##unk
Rue
रहे
heavily
Sven
##isin
aves
decreto
firme
kaominin
albumu
##mber
duen
henne
foundation
dating
liet
leger
camino
estan
16th
animales
##cara
sito
##eca
357
Australie
1038
manual
derniers
##rid
##runde
Vuelta
mines
##vod
kara
gewone
##uak
foarte
foren
##zze
wojnie
Estaos
Brussel
establish
Erebidae
corner
trained
##bed
Into
Brien
hutsik
##polis
vasta
Ianuarii
Essex
Sally
maso
##uus
productos
cadena
##zda
Joer
files
Agnes
अर्थतन्त्रय्
Dengan
##stava
tubig
##right
Baviera
##oid
Interior
##wat
Physical
powodu
Sumatera
kirke
forskellige
assieme
Joey
cortometraggio
antic
Alger
sil
embora
Pentru
freedom
kor
##vom
##nskih
registered
string
ragazza
Kabul
fyra
aastatel
Classical
Finlandia
ene
motore
langabezian
sel
Cheshmeh
##ppa
italiani
destruction
walk
747
menores
##dai
reina
speaking
dro
##wall
##iaceae
Prague
Donna
Oliveira
##master
##gard
##veis
Bilbao
hierdie
Bukit
Kampf
Gustavo
Athens
Bandung
STS
dinastia
aktiboetatik
vicino
##lund
Penn
representative
Gill
ponte
okrugi
##cana
Alexis
baron
##had
tsy
Av
cabinet
gick
acara
##ED
leg
##taget
Recording
colore
regiment
Elles
resistance
##berry
Dietrich
Smithsonian
atual
416
presse
wood
Diarsipkan
Panzer
suv
amerikanische
##vite
Bart
menerima
inscrit
Stadtteil
##धी
Ovaj
Rasmiy
##old
Visual
Brno
dikenali
futur
swoje
gesamte
##fur
Levi
##uts
sayti
##yet
residence
kabul
mayores
tons
Fr
##plass
srpna
Municipality
personnages
##OW
Ramon
evel
prosince
huy
teljes
Wald
Armenian
##rait
Translated
Cry
sols
pertsonek
##area
Problem
Auckland
329
Akademii
Editor
##heter
##kkan
lze
Stones
13th
Ch
Bates
infine
Desert
vrste
शामिल
erresidentzia
prise
##DS
##vist
heat
334
Indicem
viser
Dortmund
wir
kumpulan
Waters
Percy
Lenin
तेलेगु
semanas
Typ
##ivu
Drug
camps
कार्य
ADN
Rhin
Metern
Challenger
br
octombrie
improve
##ydi
albuma
ajan
Rheinland
contrast
Encyclopaedia
mariage
Zeitpunkt
Doug
dona
Frances
Baru
##mbre
taxonomische
deltog
brasileira
lebt
laba
##gara
sedengkeun
##िका
sosial
udara
##ifs
368
##lija
630
Self
contrat
Gone
##enze
error
##lkan
Fight
entirely
Lopez
gaz
destino
##ालय
Ciencias
11th
##eerd
Temmuz
##NG
501
##tano
engines
selepas
Frost
##box
Joint
scheduled
Willie
falu
Petrus
acte
Blu
Perfect
##mite
laharam
##gesellschaft
estudiar
mitad
trai
turnieju
bodies
344
##rial
items
llavors
##uun
aconseguir
##nije
Bauer
Ley
insects
fusion
dianggap
##cil
##aes
##laget
dadurch
devenit
romance
##eln
तीन
Queens
Webster
kantonen
##tier
##diri
observed
governador
deulu
rooms
Explorer
penting
coordenadas
algunes
jeder
actives
pilota
Arrainen
951
armed
experimental
##ids
mese
pool
uten
##sper
reaching
aucune
##rest
machines
kendt
sejarah
modello
Vertreter
peak
toma
Rainbow
moderno
seems
##itti
ethnic
potem
knapp
uglovnih
baja
Alma
Tina
##tett
##इ
Arroyo
hrvatski
casu
duty
327
hundred
Polskiej
##tna
killing
Hip
##rons
sahip
procesu
##mand
Minuten
स्थानीय
delstatshuvudstaden
##heiten
Ronde
##17
Tech
NODC
##istischen
stands
##lev
utilisation
geven
septembra
neun
##onte
doan
looking
proper
Graz
Nun
seconds
nuovi
##rig
1751
biblioteca
##jek
greco
skills
prueba
##rez
operate
Thunder
izin
##sitz
##गी
limit
Stella
hafa
##ear
departamentul
interne
##mun
Norra
closely
##gestellt
elas
landen
##voir
consisting
finishing
##dagi
Strauss
##grada
hielt
Palestina
kaart
Daerah
##cciones
eneste
##ilis
Word
Marguerite
mon
begonnen
Weise
Maler
engaged
components
inclusive
forbindelse
##vol
mestu
biasa
411
Cu
principaux
##linge
##stri
demand
##sid
inch
installed
vivis
##lder
cena
Delaware
Romance
kralja
##utan
##yta
Bowie
जाने
SG
##inae
##lyn
Abschluss
didn
Table
Luftwaffe
Latino
umumnya
342
##tni
1707
dahil
olympiques
liczby
tipli
451
##grado
##gene
templom
kadang
Basic
Diane
gouverneur
Europea
gizonak
Giulio
Bolton
attend
Riga
brain
opportunity
instance
Ramos
संयुक्त
Fly
mig
anteriormente
watch
batteria
##grad
351
blanco
einzelnen
HTML
lecz
csapat
costs
bill
Blackwell
##itaire
##jeli
12th
czym
ehemaliger
##lique
propaganda
mistrzostwach
vieta
Possui
vald
fest
##olu
##lino
Heights
tiempos
utilizzato
Serge
giapponese
tanduk
padres
##kende
##dition
Centrum
Kingston
siya
Manfred
papers
rolle
Vainqueur
Tanjung
##vette
alias
Boulevard
Sloveniji
##rska
tammikuuta
Bahia
##hart
##gebracht
utilizar
Style
producent
##izada
historische
Zimbabwe
दिन
revue
twelve
##stro
Slovenia
voted
##kning
moyen
##jada
##vest
dier
noroeste
predstavlja
pu
Rail
hela
##isierung
Punkte
tel
personaggi
improved
isa
Drew
Hamburger
Environmental
Goethe
SDSS
vastu
##ians
1714
diru
##ivat
Egyptian
okresu
muziek
Anschluss
Uniwersytetu
Aurora
Dee
Kara
lebte
Massimo
Scarecrow
##ास
jefe
agency
passer
avo
Motors
1580
##bur
Lakosainak
##ners
##kkel
leicht
allt
ales
svih
quy
Quinn
masuk
flying
contea
textos
vermutlich
europeo
Lionel
Winners
Fou
dura
##wyn
##dl
##weit
argento
amico
trobar
Alive
##ainen
causing
sinistra
pad
##simo
##pense
ceremony
601
##tros
Progress
Towns
##daes
tys
nonostante
Porsche
wikipedia
ekonomi
##ijo
Care
Tribune
tempi
martie
Entomological
bukan
erfolgreich
Formation
singing
##tete
1741
##ichen
Touch
339
dobio
##gai
Mallorca
Direktor
independencia
persons
##tima
erne
Karnataka
Hammer
apo
Brasileiro
##nei
##jno
fe
Walsh
flora
Logan
resigned
jogador
bottom
drawn
huhtikuuta
tatt
Bangkok
belga
milli
describes
prowincji
##ijk
reform
Essen
laten
##ister
##unto
dollar
prva
advance
unor
quienes
volna
gleichzeitig
sarrera
Nem
Taman
pochi
llibre
Fluss
Podle
exempel
massima
tela
उसके
quitte
belge
BirdLife
Lietuvoje
capitaine
dekat
Lot
atrodas
Macedonia
##etes
Alman
severe
Mick
##ansa
##ography
jeux
valley
cael
Praga
mio
##club
crise
राष्ट्रीय
Everything
apoio
chansons
leads
##gur
badag
empire
Gas
getting
##ngs
exploitation
1690
##chem
truppe
jarahasiny
pehintaniny
##pic
परिवारया
shaped
apoi
##mot
Rusland
kereta
vite
empereur
presque
toukokuuta
Gunnar
serveis
Strand
ovvero
earliest
nadat
##mare
Vermont
ruled
syyskuuta
Webb
campos
tests
##mh
Daptar
pemerintahan
Blair
##spel
Qatar
##sil
##pal
regarded
numerose
faj
Katherine
##rete
lire
##sam
Laurence
termina
antal
sujet
animation
sezone
constitution
Irland
##orden
Padre
510
initiative
Better
##rone
Christie
tinggal
contribution
dijo
##bula
factory
ज्यानुवरी
inizia
NK
##inus
Wade
Mo
malo
##ljena
Croatia
cable
marts
jau
primul
Hassan
##yti
##americana
plane
1930s
Dinamo
Martina
Hoffmann
falls
ambany
Eltern
localidades
stages
easily
1752
##kunnan
dre
Kristen
artiste
survey
Arms
Heavyweight
hanem
असे
musician
seguida
Judith
bevolking
##hire
ambito
berdasarkan
##tivos
##gegeben
Estadio
piccola
fashion
employees
Aviv
##neb
AE
Conde
sangue
branches
9th
##RO
Juegos
grupe
Sand
Teen
api
sete
lige
##chung
northwest
deukeut
lateral
suport
robah
##oss
Joyce
##iec
langsung
artisti
##olis
##rske
sopra
##gile
##qa
combination
Battista
Wehrmacht
agente
haute
953
vaste
Rhodes
Preston
mateixa
distributed
Blanca
decembrie
##सा
Peninsula
##weisen
aspx
##ाल
raionul
yoki
##vada
छन्
catholique
Indianapolis
xem
Umgebung
Moritz
raza
Past
Personal
Portrait
komertzioetatik
Palm
personagem
##lden
Laos
##lau
##atie
historien
elmi
##lf
infanterie
glavni
reis
Piala
Anita
Vigo
muncul
##aris
eskola
lokakuuta
##vida
galego
##imiento
mln
##elles
cuya
##lid
थाय्यात
802
Toen
Lin
centres
nuovamente
mejores
Detta
##fic
Junta
##mbe
ngora
quarta
membentuk
finalen
##ams
Konstantin
Idaho
deixar
melyet
##ichi
Factory
२००१
accord
sung
1735
delar
##ail
Terminal
##ठ
Pre
uglavnom
Dubai
##talt
sebelumnya
1520
britannico
##chis
##zono
psl
watu
##mor
##yy
lichaam
##ncias
USB
Ei
Rezultati
transmission
Avenida
presa
##cian
##smus
Ancak
##ibus
satt
Vizier
spelade
mur
alba
##uw
Hivatalos
##eller
##lato
##laisen
roedd
##tl
Image
525
opus
longue
kralj
rechten
behavior
##deren
legjobb
##yra
##rose
Wort
apabila
486
##quin
Romero
Beauty
creada
doen
Left
##tun
pierre
ustiategi
Guest
fri
##dors
zuletzt
behar
625
oba
kleiner
sumber
1610
Savoie
roka
agricultural
##lida
Dar
Lancaster
##kup
##jel
353
francuski
##izione
tribunal
Armada
komo
Medieval
सभी
Rider
Terdapat
primeres
massive
Burma
ond
kaikki
gennem
vond
381
359
berhasil
##mpi
valasotik
Eden
ket
Genesis
indem
##cias
Ketua
dle
Hop
luas
useita
distinct
1689
universitet
definition
wake
Somerset
mindestens
meest
##tius
##beli
##cine
##teri
Compagnie
delles
hired
केले
paintings
Obecnie
##lp
primers
##ched
Cesare
##arre
belegte
Higher
vast
kaya
##tara
##zana
Londen
##kit
efectos
letras
Mapquest
मिति
Luciano
okolo
##iol
betrug
##burn
doivent
djela
##nius
Warriors
##oren
partito
Windsor
nalika
WikiSky
##ipun
Lucien
Meer
argued
##tana
Valladolid
septembrie
vegades
Bari
##ficar
Chapelle
Airbus
Camille
libri
##mera
gestion
stanu
Cher
Much
Sharon
rap
##ury
Glory
stylu
Wong
DSS2
##tner
Asilidae
tetap
senso
Cities
##sement
1670
##शी
kis
Nacionalni
nimmt
opposite
automobile
##niku
##inge
kanal
##lski
Hanna
363
366
majoria
enseignement
stieg
sakumna
Lily
##से
Concerto
##grafi
Jogos
Mediterranean
ahead
##dna
##istan
simile
##innen
##mila
piloto
##inte
##nung
Eropa
Riley
menyatakan
IGN
adott
garden
1701
humor
suicide
Nemzeti
##lge
weather
1742
Europaea
383
Arquivado
manana
sebe
##ctic
##holm
participants
secteur
palabras
Canyon
kaudella
##satt
Estudios
Roi
GALEX
ones
cop
##iq
Mega
##yki
entdeckt
momentu
##unan
##rl
JAV
descrita
gestellt
Dari
##rito
mussten
##ability
Goes
Herbst
reaction
brug
Familia
writers
##lika
areal
toinen
##ynyt
##zmu
361
davant
##dnik
##pone
require
construite
BK
aria
terbesar
Chambers
417
stating
##izar
bras
Thierry
##bart
publie
Aisne
metra
cousin
Ek
Ichneumonoidea
Mama
##udi
##़
प्रसिद्ध
Ordre
novamente
berubah
termes
Edit
mencapai
##run
komme
Accademia
etappe
Einfluss
populares
indicate
##lno
astfel
##tzeko
720
formando
documentation
##eim
##musik
Inghilterra
##irs
ditebang
ortaya
Elias
lunga
##EC
verdenskrig
Veracruz
Auftrag
carica
1743
viena
##orio
kacatet
metre
carne
1688
bietet
elegido
Jena
##neet
##gebied
##uras
fiscaux
decade
vuelta
##jahr
Shin
##sima
तरह
Kawas
मध्ये
Ako
##rais
EUA
Sobre
Hayes
oant
xeneral
letra
##etako
update
Sandy
Structure
##nies
prove
##rick
407
commandant
Palacio
broer
lagata
Qui
680
piedra
Kristian
historiador
##hun
plate
1746
Eure
Hey
kabentuk
Sinds
folgten
preto
620
hak
Paper
##ehen
wanneer
Iris
##cej
joulukuuta
Yunani
##alia
Hydref
341
Caracas
transition
##nait
circular
##tatt
007
gefunden
ocupats
##wert
rasi
Tako
spazio
1713
##IA
Oy
drept
##baan
titul
bekerja
starred
udde
Ming
Biol
unul
##rona
leiding
##BA
seigneur
contain
1683
bakoitzeko
stores
olisi
##deki
##lten
fod
WWF
royaume
##rva
##sted
476
joista
1749
Natal
wedstrijd
interests
##anya
Tomatoes
Kerajaan
dil
UGC
Daftar
sogenannten
##mou
mjesta
challenge
gevolg
nganjrek
mengebor
Virgen
syna
nuove
continuar
miliona
Canterbury
Tachinidae
Memory
##nor
Agent
alcohol
estudos
numerosas
स्थापित
seguenti
##zzato
territoires
mir
##jian
injured
##itatea
##itud
porto
Anlage
gens
fazla
##lers
Anglii
mortuus
##puesto
##wissenschaft
Chess
##czone
Something
helmikuuta
mean
##itar
beubeulahan
mutlakna
shahardir
AIDS
reas
##lock
Ginklasipika
snel
##lib
PAGES
uiteindelijk
vero
Clay
Inwahners
Metacritic
joining
B2
millioner
certa
##bene
590
ondoren
403
druga
Kerk
iklimi
divisio
1723
Gregorio
maju
Male
432
Programme
##SC
exposition
##eki
Mientras
Gustaf
Innsbruck
##rach
Cola
tenor
actors
documento
431
gender
rivier
broken
##otti
Referee
##ouse
1747
objetos
##चार
daxil
##vaa
##zig
shall
##ildi
##vt
actuel
##ctive
yilda
apirilaren
antico
##onan
##haven
Fighting
##evo
1744
wereld
Million
##stelle
tall
Marianne
pequena
##uelle
Przez
Operations
Gardens
cei
josta
Wesley
pattern
ilha
##ark
Instrumental
establiments
##hra
taal
affected
##lnych
iunie
poema
##gment
##lnym
directamente
leben
paar
##sht
15th
possession
##tsu
sell
spisak
Sister
Andersson
biggest
465
Stunden
जिल्ला
vliesvleugelig
IEEE
1721
Asie
Friedhof
ilinin
Lehrer
briefly
dalar
dibuat
राजा
nomenat
##atud
oficiales
बीच
edats
Muzeum
tierras
vojne
##itung
IN
altitud
participate
Sparta
Papst
terakhir
VS
##raad
##ktet
##rene
Baba
drop
##jeva
Gaston
Annales
enam
tuvieron
##lise
conservation
fiskal
456
##DA
Martins
servei
undang
Classics
panel
##pass
ago
Oeste
Said
##rto
Audi
Ferguson
Jepun
##etik
erfolgt
Environment
Milwaukee
##kali
Taxapad
##mista
##cov
encontra
Horst
##hoff
defender
402
vanuit
Hagen
Arc
##wanych
estrutura
##zim
Sing
DOS
nemen
Zeus
##ener
existen
Fi
laki
attacco
wiederum
personale
etdi
blancos
Turm
yhtyeen
1492
naziv
pulau
Zusammenarbeit
##ाव
Give
disa
रहा
presidential
peuple
##ption
cinta
cadrul
catedral
quinta
travaille
##cieron
trabajos
chant
##erse
##ficada
##iei
##mee
Viola
phi
reprises
EE
Relations
423
Nixon
##uil
Election
futbolo
ivez
##ffen
Madeleine
novos
Thor
##odes
ontstaan
productor
valore
##vig
##AM
jier
Benito
ceety
##vise
elokuuta
Viking
##TS
MiG
spel
Verwendung
sabe
analyse
1530
chiamata
##sport
Zusammenhang
##kowski
Lur
mnogo
जनसंख्या
##ogo
Phase
Maximilian
Hasan
##wska
##eum
##arte
baolina
eso
diocesi
minoritate
classic
despre
daraufhin
Baptist
pied
kitra
##spielen
##face
##dda
sah
##valt
##ड़ी
##meye
gesamten
fonctions
Latreille
protest
mjestu
##anos
##lets
Hauptstadt
nawet
czasu
musicians
spagnolo
Learning
nunha
Tri
Beverly
gradovi
##jke
करना
represents
decembra
##ppi
Belgian
##rova
Giants
##rup
##sina
cuarto
Deel
##जन
osaturik
Spielzeit
fanns
novas
vent
Pertsona
Protection
##sweise
lima
variante
Underground
##tei
##rki
Inn
1718
dominant
terwijl
Hebrew
528
realidad
Evan
esso
Territory
348
AK
स्थान
tournoi
Bourbon
statistics
##dant
socken
izy
naissance
operates
constituency
jugadores
purposes
##NA
##tadt
##pul
Formule
Turn
##tero
##phila
verano
vervolgens
Moses
alliance
picture
decembro
##ientes
soli
##sett
1570
agar
##wia
##nehmen
typical
inactives
kelompok
##eis
##lei
##mates
Nov
songwriter
conseguiu
cultures
##igan
bak
Cardinale
##EA
temporadas
Alguns
##eita
##page
dry
distintas
southeast
##sland
tanben
Groningen
marraskuuta
1540
livet
##kum
तःधंगु
deles
##won
schreef
Twin
choix
1667
inicio
ISTAT
vitit
960
pick
Independence
##smith
examples
Stad
alussa
bout
argument
##bine
reti
noiembrie
Attack
##cyjnych
##asti
##ften
Biological
1736
##risch
artificial
##br
##ways
dzimis
maan
degrees
1603
ervan
##nate
##jam
colors
metrin
jatetxe
##iging
enzim
diz
435
408
notably
veliko
##zionale
376
##क्त
Demospongiae
Dazu
Fear
carbon
ydy
tikai
Erwin
Oak
##nha
dimensioni
##alta
goods
operator
incompleta
Won
##nol
regularly
partnership
robot
##eme
1727
crimes
##cile
Karlsruhe
BiH
attached
prese
Seperti
1685
8000
oral
##TP
##itis
roads
skupine
346
langen
zelo
Revenus
ocupa
ibu
golpe
perhaps
eraill
nacido
Isabelle
sao
1560
##ष्ट
Einige
Unione
Adalwyd
kohta
Hour
passengers
Color
Chronicle
neighborhood
path
##dott
इसका
##pina
credit
calling
Well
##ush
madera
Untuk
periodista
designs
364
survived
वा
kilku
perioada
##rog
Chance
Tall
Finn
##dak
Ajax
Toni
670
##wem
enfin
##tasi
concluded
pocos
Samsung
##OM
Olsen
1725
fixo
##niai
1632
hjelpe
edificios
##pera
##blatt
विशेष
Armii
##czona
1711
allerede
statut
yhdysvaltalainen
##bereich
##11
##szeit
presentar
utilizada
Leader
ofruktbar
Tracy
1970er
##hrung
output
##sty
##fre
Peterson
##jela
usada
dens
gamma
Iako
understanding
Jump
sezoni
efecto
false
replace
anniversary
##nni
##shme
islam
Audio
Manitoba
iPhone
##eira
Boden
##IO
etxeak
Knjiga
Lives
##liches
##isches
Read
longueur
kishte
galt
Irving
havis
otres
seventh
##richt
386
hartu
##llar
considerato
cobertos
Dancing
ianuarie
Gard
maintain
1739
naturale
cita
##ddi
Willis
underground
##wca
naturelle
palazzo
##kuussa
reine
##cek
Animation
trans
##कों
विश्व
deed
##ager
1642
##mini
##neen
379
cielo
##top
hermanos
kokatua
362
##mbah
proposta
Poco
##lega
Finnish
##data
##ances
Vargas
Very
uden
determine
##sque
Duits
cambios
competitie
nomeado
Current
tipi
personi
southwest
anomenat
##16
##muan
accused
habitanti
leeftijd
trip
1007
382
gemacht
Dem
Kay
NS
bezala
opgenomen
autora
##hair
##schluss
resten
##jsko
industri
##teli
Luisa
boshqa
Larsen
Wei
Verfahren
drum
xullo
Initiative
parla
autoridades
fiskalaren
Calgary
ormai
Trondheim
bahagian
373
Level
##bras
bestehen
programmes
segundos
##sert
oso
turns
Elite
Cancer
##work
##nike
dispose
heutige
noi
##हरू
Nuova
profesora
nm
Morales
##bird
ponovno
Comic
kin
Purple
slaget
aprilie
##sive
1737
Sugar
funzione
##pidae
Material
imalo
660
SMS
egyes
##isant
bandas
##tionen
femminile
371
Cecil
PhD
njega
Marek
लिया
##jang
filla
request
voormalige
##tici
strike
Darstellung
Brest
Outstanding
painter
##15
##्रेस
Hull
armada
denda
mendapatkan
A2
ciencia
trener
Parmi
##inal
urbana
actes
gik
Nouveau
Registrar
1724
Economy
Krakowie
calidad
HP
discos
menunjukkan
Durham
##ृत
showing
378
Grote
Brandon
Cheng
Programm
erschienen
membawa
imperatore
1654
Alternative
prawa
concentration
ataques
##md
actuellement
##bilidad
hul
लिये
Ediciones
##blad
Griffin
BAFTA
##sian
##vai
##zando
bronce
welcher
1672
nogle
scientifique
Chapel
Lausanne
भारोपेली
Melhor
rien
actuelle
delivered
##even
Cairo
यहाँ
##tam
sedang
##lement
##tives
##pha
Combat
इन्डो
##tian
adtong
contest
czas
##fice
militaires
Eagles
medyo
##pot
terus
tarp
parafii
##IT
Commerce
legte
##cro
Alegre
Marian
##ordnung
Giappone
429
Oost
##tles
##viste
existencia
Alus
##rje
349
bror
wichtige
sveta
eerder
Edith
taj
stem
##ogy
DB
videos
alpha
rechts
409
##zm
##kea
secretary
##idor
svenske
##agen
plante
Tomorrow
7000
Cassini
##dose
##wl
1709
414
##graphic
Kommune
##lera
##jera
Impact
sexo
capacidade
थासे
Springfield
1722
plein
1728
Grafen
soprano
358
Behind
Masjid
basada
##chos
1002
rendre
##vir
entreprises
masse
Broken
##cego
sebanyak
##tatud
faible
##ulated
Republica
##ncing
vendar
religioso
edildi
stadig
classique
amenities
slutten
destra
client
Pisa
solid
princesa
##ijn
Carpenter
task
Rules
Schumacher
fuktigt
dipartimento
ASV
businesses
Socialista
nuevu
fixed
Storbritannia
Representatives
Punk
Slovenije
##omen
dagoen
Sous
Volkswagen
##rious
vse
filhos
Save
vont
landing
Emanuel
##bbi
Label
zelfs
wszystkie
dedicada
okrugu
##law
convention
##rena
IL
lar
seni
##hai
Gibraltar
##anas
ocupar
999
subtropiskt
विवरण
##szer
tag
##pico
##riva
##cea
Aufgabe
peces
तमिल
##quant
entrambi
394
427
Pohjois
lalat
Orthodox
Gebaseerd
Partito
virtual
##oke
##plaats
##zym
इसे
dirilis
Mons
folgt
jika
Newport
##wal
##tain
chun
autori
eut
##iver
metropolitana
##unun
purchase
##hne
beendete
boyunca
driving
Carnegie
publicar
Verwaltung
dobro
Conservative
399
sec
islas
credited
उपलब्ध
verdi
Mode
aya
##lou
1733
Dirty
vannak
Chili
Wimbledon
investment
##craft
residential
firmy
bangunan
integral
ganar
indicated
centros
Heimat
linked
##unge
khai
Serbian
Modell
392
Entdeckung
Pole
Benny
Banda
Folk
ekkor
poesia
##llinen
##cosa
Gora
twa
Turki
##cidae
nesta
seal
teda
direzione
##jene
painted
leste
##kasi
coppia
neuf
Herr
Sophia
grau
bakarreko
sert
Parijs
pierwsze
feel
moteur
apan
probablemente
##icia
tiempu
Saga
discipline
genommen
kertaa
##AS
1661
Ride
Noruega
Treaty
Bravo
ev
##icio
##ced
Card
conseguir
Borneo
tecnologia
azione
Proc
Senegal
lawyer
##ivas
उस
Killer
Montpellier
pasado
volgde
उपयोग
burada
##body
##fold
jaringan
##duto
McLaren
gmin
syntyi
##nez
doppio
CDATA
Ladies
altijd
olevan
kolem
475
##ieri
royale
incontro
Antalet
tries
creado
##40
Kopf
storage
syndrome
advantage
devices
teknik
vorbitoare
Borough
playoff
Break
Zagrebu
spire
pemerintah
Jeffries
extremely
Olivia
Besar
Doch
ministra
eyes
राज्यय्
##wicz
##atge
##के
##znie
poblacional
##mane
participa
principi
उनकी
teachers
##gau
Aiken
tren
Marcelo
gobiernu
Yugoslavia
guitarist
entrenador
photo
churches
##ैन
Psychology
##dte
Haiti
romaine
committed
lance
olunur
Ficha
grounds
arra
Working
asupra
impossible
rates
schema
concerto
कोई
arabe
##azioni
territorios
453
Tak
svojih
##oner
1590
postala
urbano
veure
ouro
moda
WM
Falcon
##atz
691
##gled
##sby
##brica
##bling
suyu
##away
Juden
charged
##klar
##naires
permis
##gave
Edmond
1732
couples
Neill
ciclista
##arkan
contratto
SF
##iles
gatunek
mercato
Baja
Orchidaceae
Fleming
1980er
almeno
##eles
stanice
##landia
Menengah
Keller
stanowisko
warna
##ucht
##vka
litt
returns
deshalb
##hden
testing
##ils
svog
Marilyn
nomina
388
Monate
konci
premiered
Gandhi
prava
GPS
ismert
ingresos
1598
Lapangan
Pi
##cino
442
xaneiro
poprzez
Oakland
Zbog
novih
ouverture
Coach
Unite
sortu
##FA
Faculty
gi
Mumbai
Tenggara
sculpture
nuevamente
Rusya
Capitol
realmente
cun
internacionales
Mata
911
Vernon
##nnan
##धा
##nken
klassen
selten
##pter
defensive
1717
frequency
izena
representerte
engage
Cloud
Gaga
praised
Stimmen
mennesker
14th
probable
trovano
gadam
Zelanda
lieux
21st
Quentin
altar
suyo
##szy
##jny
Trevor
##AP
mye
appel
Sussex
kerran
Armand
Morton
stable
Pol
Essays
owners
intorno
afirma
erwarb
samband
##sem
##forme
##isiert
entlang
kojeg
nichts
Pearson
negra
Valentine
Lumpur
Lieder
##ccio
rebre
ott
reale
##rell
##mannschaft
Engeland
EA
kojih
langues
##dido
component
veut
bestaande
werkte
poverty
verkauft
mbi
##tama
##lex
Br
wefan
Allmusic
kim
श्री
1618
397
protected
sl
##ater
##sins
amelyet
##stwa
##gian
plataforma
Finance
Dirk
Fourth
gyfer
##chester
##gga
##mik
SSR
voto
extremo
lap
arbeidet
wuchs
accessible
sed
visa
Quand
guida
Hold
##ably
subjects
1708
Ra
policies
##avat
domo
pain
aguas
Stanach
Roche
Pierce
autant
reign
Noel
dimensions
1704
Americana
666
Silent
guraso
politieke
377
measures
patient
HBO
448
##nale
##serie
coupe
orixe
क्षेत्रफल
##falls
Hidalgo
##americano
pape
##ulata
rimase
Core
jouer
haes
Shirley
installation
Tigers
entertainment
Herren
tuo
421
##gea
controle
372
Mejor
Reina
Yahoo
pittore
##ieve
##uale
MG
Homoptera
##ilir
Guru
typ
funciones
##phon
Normandia
##ाचे
gamay
##osos
Kumar
##rro
##tkan
abandonar
##coming
SH
utilise
KM
1625
##yir
tableau
##rator
Catarina
measure
bitki
रहेको
hauteur
dynastie
lebten
Beberapa
##oak
1250
incidente
Verdi
##acja
Olympische
atawa
##tch
Apesar
422
medlemmer
Mentre
kuris
franco
olmak
##ovia
Marathon
Wiesbaden
##ateur
1621
posee
##uche
Reis
nomes
nooit
##cier
Grundlage
thanh
linear
luta
455
serii
riket
lijn
koadrotan
Avant
imala
Resultaten
##dades
duy
##neur
Lena
Roedd
Garonne
Leicester
##tiu
menudo
Safety
tappa
redor
novembra
wirkte
Fields
##esh
Griffith
bonne
Belgien
Masoandro
montagne
1960er
bekende
participou
interface
Boot
menghasilkan
Medici
Lombardia
Communication
1699
Sahara
##mant
Sisters
fato
voida
sconfitta
A4
gedeelte
##uire
##IL
tega
iOS
server
verk
Editura
clases
Wissenschaften
##mps
poem
Crisis
honen
identification
##fallen
publishing
Medicina
1734
conto
diplomatik
asti
inizialmente
Victorian
NSDAP
pourrait
endast
filmi
fired
Siedlung
hien
##westen
Schotte
Ruby
broja
posteriores
##itie
filles
374
departmana
Zamora
lindiyans
Protected
Rabat
Voivodeship
##erin
Arne
Fletcher
Ito
1738
##vern
ide
sabit
kolo
assembly
Komponist
##ncio
##udet
निर्देशक
Maggie
Siena
kampioen
raso
Chor
##kko
Puebla
##oot
Dewan
Moss
##BC
प्राचीन
##nko
RP
shooting
##vare
vin
##sine
dezelfde
##ope
diwar
mali
##seks
Meyrick
##bane
zaidi
##fire
atualmente
poolt
fai
##elis
Gates
Lazio
##rische
##vage
Support
Brief
##alde
asub
vandt
##yna
Mussolini
Actress
Cabo
Belgia
Mannschaften
russisk
Adler
nito
damaged
##vila
Donau
Jenkins
##SE
##ood
Kalifornien
##aksi
##cios
heritage
ketiga
Kerala
directement
Schwarz
window
##tlichen
vill
##ritt
Toscana
##GA
meta
जूगु
##elem
Uniwersytecie
ऐतिहासिक
##mester
##rite
##sund
##hten
##uko
##gruppen
concurso
saisons
shop
debuted
energie
##nienia
##rtu
Savage
rodzaju
sesuatu
Coming
horror
##nell
##nton
Issue
Phantom
gadu
katholischen
dam
novi
##maz
leitete
wounded
consta
movies
473
##usz
guitare
Bildung
Ham
Cardiff
Dinamarca
CPU
officier
##char
professionnel
fragment
coal
##hale
tropes
musicales
loin
elf
carrying
naj
##cts
alternativa
Sharp
Scots
iulie
mnoho
##uksia
processes
actief
quay
mito
##iono
entrevista
Bewegung
belangrijke
letih
Baldwin
1703
##hic
Grenoble
earth
##quier
Musa
zouden
##zzazione
klasyfikacji
historischen
fantasy
atom
geeft
Venice
##vra
##abb
Euroopan
Piazza
alma
regentschap
Ronnie
bedrijf
define
llevar
Ferreira
##wehr
donner
##dot
murid
##ull
##xu
Poetry
locali
Homme
Reims
##tning
satul
413
Sedan
podium
V8
portrait
nav
restored
Noreg
continent
Based
piazza
kop
cai
थिए
##OL
##kori
Brescia
Frage
Obwohl
requirements
Kirby
Drei
dalis
filled
Landesamt
जूगुलिं
Slovensku
Kanal
nacija
##werken
Organic
##lju
kuna
rapporto
Nynorsk
##lske
ros
copa
ells
Manufacturing
stood
Zemlje
##formen
pos
postaje
ग्रन्थय्
cappella
scopo
##jeno
kwamen
differences
Marius
Feel
geschreven
pagal
1675
Guadalajara
Falling
wilde
Victory
##xido
##geber
verse
Charlene
anderer
Odonata
alun
Scotia
przeciwko
sidste
Alicia
ord
##illes
Wave
Loch
samtidig
Salem
##uba
llegada
conseiller
Jak
##ionen
##gning
##satz
eile
Than
Salvatore
Sjedinjenih
Schweden
riferimento
pochodzi
jednej
poput
Vanessa
knjiga
affaire
##ssent
comunei
res
Yhdysvaltain
physique
tonnes
##tigen
##iato
swoich
Forschung
Coleman
municipios
sobie
kaupungin
brat
responsibility
Lama
Gent
hoogste
puissance
##kins
marcha
##mentu
Almanya
pena
hosts
##lur
##RS
benn
Sjedinjene
Mon
partial
velike
authors
separated
##ficazione
elke
##eries
chapter
##onn
weiterer
llega
##ondo
appena
learned
situazione
1521
oda
Sylvia
centura
sivil
militari
Daarnaast
documentos
mol
##aid
variables
1609
Boca
seien
criado
##grund
hasi
Shannon
##vention
Aleksandra
##wahl
figuras
rejected
missing
observations
##finale
Romana
##fod
Kui
harmadik
##bh
Kritik
brosiectau
distrikt
propiedad
##ijoje
sebagian
##pse
##llaan
ovog
Cornelius
Junction
Vic
requires
Moyen
Female
holdt
##csi
LGBT
Saskatchewan
deler
arranged
geralmente
Negli
1702
architecte
diario
बी
RAM
##dno
viu
ganger
stress
Giant
Fontaine
Sanders
Mirror
Olympia
eind
decise
ufficiali
Torneo
Wyoming
Freud
##havet
acerca
consumo
rhestr
##qui
suara
Being
realizzato
426
##inan
Dixon
Daneben
oben
toernooi
Charente
forfatter
Perkins
nomi
passant
Pratt
gris
##jskih
##cyjne
Vest
Methods
##emu
SI
##ेट
1666
nacionales
त्यांनी
##baum
##oedd
membership
hiztegi
kela
604
referendum
familias
##lech
ovaj
##mte
Filme
1605
sm
Lie
Primo
otherwise
rango
vuoteen
##ink
determinado
1697
aktivite
dated
critic
Welcome
469
beginnt
bardziej
##inar
##post
escontra
pronto
copy
rapper
##betrieb
MSK
kuri
vino
comienza
convento
manner
Campaign
##lerinden
linn
Ser
1649
anii
##ष
verliehen
Hari
eleccions
swoim
CH
nivell
continente
miejsca
##dala
Associated
rapid
##itza
##vation
##osas
stoletja
1450
##edes
nje
caught
tribus
##ेन
##ices
##rgen
driven
illegal
##ester
Herrera
##HL
##cito
Santana
##uki
##laze
utvide
eaux
Kumbang
perspective
prepared
naturaleza
pia
hiver
1990er
iako
aml
Mannheim
लागि
##hor
sijoittui
##lnego
D1
recibe
##mada
गढवाल
bishop
frazione
cztery
Grade
##ografia
anna
##zano
soutien
Easy
ditulis
##amo
courant
retained
Acad
bomba
assumed
diretor
conjunt
hardware
swojego
##ssion
cuanto
schwer
##14
seguridad
##icy
Hesse
##force
maradt
##ingar
VHS
Wildlife
potok
472
Stark
Terror
Blanche
##tego
turut
Jet
muita
velocidade
Italiae
Timor
1665
toutefois
##nictwa
##izing
accompanied
1712
Insgesamt
##hain
expert
sadece
Vocal
Alone
Bombay
heel
thousands
Prvo
hoch
अन्तर्गत
planes
##dine
menn
venue
Close
Fin
anar
vore
Syarikat
recuperar
populasi
BA
faculty
जिसमें
508
chair
artistique
vaid
##rco
##used
resolution
##ying
1635
Groot
Veneto
##ndre
diventa
##kari
quelque
divisione
Mohammad
Lebanon
Anime
homens
arriba
lunghezza
giro
neuer
##maq
##wu
fallen
Lig
RFC
familio
Mel
389
fabrikazioko
homem
sorozat
CP
posebno
##gence
##czyk
kellett
##znik
Higgins
tribu
archives
##rau
RC
paljon
kita
##yske
##jul
belle
##suke
##dze
##esten
disciplina
schnell
1719
देश
हुन्छ
venta
bevolkingsdichtheid
windows
Allerdings
concours
धलः
GM
ski
Parlement
Karol
suggests
##juan
nasional
ottenere
baby
Bradford
mieux
Guild
Circus
intervention
##बी
##eed
triple
Direction
balance
seront
आन्ध्रप्रदेश
Devon
##cit
suivi
Estes
marito
Release
derecha
Gesetz
reinado
popularity
##heiro
eks
##cule
daya
##haltung
denominada
Yuan
solista
सरकार
Holiday
1655
##vania
Buddy
cards
Reise
Johansson
struktur
Cecilia
IS
takich
1525
Beast
Partit
premiere
Wochen
brak
ciel
##dri
diesel
Mio
essi
##njo
trakcie
Schutz
Tourism
bestuurslaag
engelske
ov
Cool
similares
Friend
##rve
Philips
bandera
hienn
##color
1716
arrangement
zeigen
denominado
dolazi
##kcji
melynek
मे
duties
##posa
##pania
dirigent
independiente
Industries
ल्हा
erstes
daun
arrival
erat
Holt
464
##orte
Autriche
roky
velocidad
396
AQShning
demanda
##nst
waarna
capa
##zion
##stil
##bru
##ruk
hermana
##yx
Access
progress
518
Natalie
treball
Weiss
Paramount
conosciuto
1572
Ant
##toi
bits
##cra
objets
##ciel
juegos
giocato
##मी
mulleres
Bey
admitted
dritte
maintenance
बुंज्याया
##stische
391
Colombo
involving
laulu
Holly
##ckim
##nade
couleurs
1093
##turi
Erde
Beta
primeiras
significantly
polskich
hr
1729
##hnen
deras
marido
##nsko
gry
thing
relazione
##nisch
drugs
8108
Rouen
Augustin
meets
Shane
##hima
artes
ezzel
cynnwys
vanwege
spielen
wynosi
##vih
1643
Meuse
marina
eman
conoce
espagnol
Wert
saanut
pang
Aastal
politiske
obstante
Soon
spor
Casino
kultury
dynasty
partij
##ntu
##imin
arme
##onde
Buck
1658
weitgehend
##uny
Ricky
buena
Noch
##krotnie
blive
iela
##court
##fish
##dha
fil
percussion
##cteur
Didier
morreu
textes
Yi
Marin
##rsa
Tucker
parliament
##delse
##oort
periodu
Nationalmannschaft
evo
##wege
##tot
505
Toro
Letter
##istica
cili
cantar
roughly
##llt
Along
##yong
nousi
1731
Interactive
saab
tedesca
##zam
Abschnitt
Nowy
kong
skin
tali
##liyi
kisebb
##dono
doe
politika
Bere
tagolong
##gehen
##sicht
characteristics
##apan
gebouw
Brain
oare
Andrei
##्ड
Genre
Globo
##gemeinde
profissional
Ballet
nagu
##logue
favorable
universo
temu
VOLUME
orchestre
tecnica
reeds
Roses
Algunos
komyun
760
424
##byen
Punjab
zes
klar
Brabant
येथे
vorhanden
Rhode
Clarence
risultato
##setzung
considerar
intento
##udes
Seth
##lede
##mum
Nigel
##iks
Persia
egun
##rats
gate
hus
##uela
datter
hyn
konpontze
descrito
Yes
rapidamente
##plex
Angaben
Gallimard
##rage
Quellen
inspiration
comunidade
##aggio
stagioni
446
fiscals
##igd
Monday
Punkt
Principal
Molina
saltze
bevindt
jednego
##rds
journaliste
experienced
detalhada
bekam
##nicy
weltweit
1706
noorden
##riff
##holz
radyo
Nas
leva
longtemps
##versa
Aston
##oll
##beeld
shtatida
Villeneuve
##hit
labour
Barrett
Giang
infantil
##bilir
circulation
mohou
Troy
##nnen
ensure
Tobias
eins
##ridge
Historija
waarden
Ms
alam
##tky
Annals
Henrique
legislation
pubblica
idee
Voyage
Plymouth
Winner
Northwest
caratteristiche
##eras
##ggia
direito
##boy
coronel
hair
1r
Campania
graves
prensa
insan
##ejo
else
1536
##ardo
##lut
yhden
##ngu
Rising
adapted
relationships
##sminister
verhaal
quod
##gente
##nimo
Scene
##ahkan
Regisseur
##oare
511
ludzi
Ace
portes
strana
##egu
onderdeel
jim
mexicana
Andes
meglio
1629
Ezt
##iada
1526
presentes
##ript
Formel
Rothman
Alors
Hooper
inferiore
associations
spillede
उसे
interested
##zare
daude
Hoffman
niiden
keyboards
##rill
Pretty
strategy
tombe
penalty
Jordi
##abe
437
raibh
Holocaust
ऑफ
Legion
Strong
locais
nagyon
postoji
##bei
godini
stopped
##cole
##CD
senator
kartu
modified
assist
tools
piuttosto
tribe
Mexique
amis
resource
Additionally
1645
499
premios
Nicolae
Wielkiej
priest
1634
##rante
444
Nonostante
Petr
sebelah
monumento
otru
westlichen
Augsburg
##vamente
Colegio
Lloegr
Haar
Waffen
phone
##ैंड
practices
##skem
##न्
cunoscute
1705
Carles
Libro
eindigde
medaglia
punct
##usu
##eku
coalition
amelyek
crossing
bevat
##lein
forming
pripada
gehen
vissza
Veronica
Visa
Zoo
Rapid
traditions
scholars
aquella
Claus
collaborazione
##hle
445
conceyu
##bano
ROM
Debido
verscheen
Handel
##urance
Yahudi
soil
2007ko
##बर
##tler
anders
brukes
Gustave
waarmee
Livre
depth
grant
Gare
1726
WK
1676
Bosch
locul
MV
Guadalupe
Languages
wet
novels
1111
geweest
##turm
Oficial
constitue
Calabria
Christi
skole
Davidson
Screen
##rsko
2006ko
##hand
moeten
valgt
##aldo
438
seccion
Puchar
mont
Rahman
##atore
Inseln
Stockholms
commerciale
genes
1622
animaux
cat
cited
sef
##anto
नाही
eest
Suzanne
##kler
segue
valittiin
presents
estudo
universities
google
vierde
##anten
setzt
kontado
prve
AJ
lagt
##atur
counties
Massa
Quebrada
victims
##तः
onze
scheme
515
##ovna
crea
hrabstwie
Noah
Drosophila
##sik
critica
revised
utamo
Botanical
Comunista
Rivers
frase
Brussels
intention
##mara
esprit
##ching
bildete
patria
threat
##warte
consecuencia
kierunku
Leigh
Bosnien
haqida
flows
Judy
##AN
##bud
DJVU
column
Technik
Cal
Recordings
vaan
Complex
##lab
Cash
Jabal
##tsch
ईसा
brani
Diocese
Albany
Storia
##china
emploi
tartozik
Knut
definitiva
kleinere
habitual
qayta
testi
##joen
mestre
Freddie
Marsh
coastal
1623
Samoa
fylke
Marko
Tunnel
bronzo
##cko
##ception
Blind
441
1664
nyelven
ownership
soccer
Ver
armi
Mia
sees
przypadku
##itation
Belfast
banks
nok
Gut
moeder
generaal
spoken
1612
vlasti
Buddhist
Moskau
##uais
##kter
Clermont
gehouden
##twie
poderes
dictionary
1656
Amerikanci
##nibus
inzwischen
taxa
##richtung
reporter
##nosa
Singapura
##kunta
hubo
produktu
##aru
880
##eil
1086
Botswana
expedition
##nthus
tampek
divide
Toto
##uwen
orange
kennen
##dowego
Rothschild
acord
narrow
avance
io
##yordu
animais
resistencia
Calvin
polskiej
sepanjang
##czeniu
##nul
##lton
Zoological
dual
Artur
postaci
##legung
hill
Lola
organizacji
Primeira
Dover
1638
viaggio
##fassung
wetenschappelijk
vojske
kerja
condizioni
rectangular
Freshwater
aiuto
ganhou
##onu
##mens
Observatory
startete
##िली
Legacy
##ismu
cup
llengua
demografiala
##ारी
Kauno
Medi
##dka
##mium
Veliki
##bak
battuto
Und
##HC
GO
gynhyrchwyd
##anna
##camente
Lonely
Spears
##graphique
nazwa
Saksa
organisations
mocy
minuti
speak
##uant
##nsen
##pelen
tell
##mination
##tice
Doktor
##tista
Factor
Papers
vols
peix
guanyar
##sei
Zhou
##nana
chambre
##gla
slow
viaje
politisk
spirit
maupun
##ulaire
Industrie
Saksan
##jukan
##elet
hubungan
Nero
Transactions
evi
मेमेगु
hiljada
supports
Bismarck
forests
संस्कृतय्
##rok
##resa
दी
Detective
iets
Nordosten
##gehend
avion
onderzoek
##thus
##case
Hyde
दुगु
cold
Theorie
963
Randall
matka
##theater
Karin
dovuto
replacement
##vide
colos
discussion
##eze
418
revision
NET
Guyana
aldrig
Nissan
concrete
nhanh
Step
bomb
##posta
hauek
##anne
formen
liczba
Reports
##ucci
##wes
##zicht
Idol
moviment
rollen
Mongolia
norbanakoentzako
Galileo
##gong
inscription
मिटर
grandeso
egyetlen
Gruppo
Esis
gleich
japonais
##lita
rivista
Anglia
Sue
mannen
oppure
##sjonen
Lauren
1652
acquisition
neke
##klik
estavam
Diwedd
JOURBOOK
paroisse
valsts
prodotti
sogenannte
toimii
haft
Virtual
Pilot
bangsa
##cup
ajo
saveznih
##cot
##scu
##nich
##lisesti
TSR
piste
##dell
districte
485
##gonal
denseso
devint
puerto
Iranian
Mancha
freguesia
##zogen
Santander
लगभग
Reviews
ois
Rodriguez
##tude
bertsioa
##fil
productions
##atura
Nomenclature
Lucius
noho
ordem
paix
##vins
##dada
##seits
##duse
##landi
fun
judicial
covering
tingkat
kant
Brasileira
campagna
forman
artistic
photos
##rish
bairro
Pirates
otomatig
flota
peinture
revient
Carla
Estende
bene
broad
vertreten
italian
jungen
##mation
Eu
incluyen
hala
##fly
##skan
difesa
क्रिकेट
fuoco
selo
illustrations
vette
Manche
stream
equipped
##znego
frecuencia
Tomas
quarti
##ienia
gitt
संवत
Catedral
1682
vorbitori
##sdorf
Hammond
plateau
Huang
##lki
##lais
##system
Anteil
Leningrad
##unea
Sm
vas
forse
##urin
Bilder
##meer
jeweiligen
terceira
##ोर
##eso
##dino
Pier
##usion
##ache
##scht
##mea
##hoe
zuiden
Renato
Christianity
##bios
Until
presto
bot
stronie
crisi
naast
##litz
##chtung
joj
streets
Kyoto
##anda
Ausstellung
cestista
hemanaro
darin
Jacobs
Quartet
Reagan
Mistrzostwa
लोगों
actualment
##tral
##myia
informazioni
dienen
##gesteld
quedar
perd
Glacier
##chs
##yos
Fauchald
##puolella
coro
608
njegovo
numit
palais
dada
playoffs
reprend
##tede
Summary
staten
##IM
ici
##पा
Gore
Gould
Originally
##bian
suurin
##uste
essendo
regard
Cork
Lakes
Siege
Ever
Aufstieg
##ें
benvenguda
mengalami
Anniversary
Mathematical
1651
Euroopa
##ctions
Dawson
adults
cd
Alte
comunes
##lnie
Minschen
##rido
Mauro
geben
Impero
bygd
##jskim
langer
Amerikani
Orta
Org
##rton
Gia
##FC
frei
Mey
tocar
##cidas
##dder
Poems
estil
Dong
huge
bianco
evening
##leti
Edmonton
alter
vormen
decenijama
##entos
tratado
voetballer
##hora
##gic
Conan
##bna
brick
coverage
effetti
Rally
azienda
452
##dian
tro
situs
zodat
##sle
##erede
Laufe
##lha
sant
##kad
klasy
alueen
##WA
Siemens
Criminal
##bien
##vem
polska
Reform
Heiligen
devait
najbardziej
inches
diversity
mouth
##kset
Ariel
downtown
Knights
nema
##mona
conductor
udaljenost
Lindsay
sun
vya
780
Mid
beautiful
##stoff
Jacqueline
केली
##dau
Mezi
interpreta
studie
binding
##itan
##shed
grow
Niels
##wig
namens
Hawk
nado
##हार
nieuw
Shundan
Krieges
russischen
##gny
Gram
enkel
Esti
mesures
Fransya
Estat
raggiungere
offering
Bavaria
totaal
Marso
##dida
##kot
Rennes
##wasser
##iciones
Bosni
stayed
##chet
institute
pg
tratto
krig
Hispanic
Fabio
##puso
##basis
##kozott
offiziell
criticized
sodass
##siden
##jien
##misen
##ndes
reprise
extreme
ulogu
##sessa
lambok
Hank
Attila
##weis
1350
Texte
Former
1493
dagegen
cca
##tional
trabajar
gegeben
##avia
Steiner
vist
419
Syn
Adult
ien
ready
processing
FIPS
Hydrogen
##ficato
Louvre
##amiento
Keep
defeating
Rancho
फिल्म
1585
Johannesburg
acaba
##stor
heads
levou
Gazette
alcanzar
##dero
Melissa
Schriften
##uve
1616
listy
atunci
spiritual
##ME
Gods
राजस्व
##keiten
##ksa
departamencie
Musiker
verloop
Gaza
Goodbye
##cules
raise
##sella
deretter
zemlje
Piero
considerat
Going
catalana
Kuba
estudis
sacerdote
restaurants
##stru
1569
Mariana
complesso
##haft
kuoli
##baren
##तील
१५
Bert
##rns
Esteban
Indre
##cision
##mals
gyakran
Satellite
dea
Wilde
algemeen
claro
496
Planets
Nora
##inne
##lec
burgemeester
##jord
Naples
publikoetatik
parku
##skega
deben
grown
partiet
salida
higiezinen
everything
okulu
viste
Nya
restes
maisons
kitara
kojim
essentiellement
budaya
##scope
candidat
##iteit
classified
megye
Ortiz
BD
Tiere
boundary
febreiro
paesi
Schoolmeesters
anda
fuga
Oberliga
Cliff
भाषे
##bila
Pemerintahan
armata
ober
##folia
Macht
Ruta
Genel
Fiji
februarie
##tej
Dolores
##lien
Opfer
##kek
##test
Niedersachsen
Vlaanderen
##OR
Freund
##wskim
Potsdam
##sies
trouver
Daten
Socialist
englischen
Rzeczypospolitej
movements
childhood
waters
1627
potencial
squadron
matar
Byron
##eas
Brock
produkcji
concerns
##gade
bestod
Ketika
powered
Onder
wahrscheinlich
learn
Engel
##eiros
1385
Heath
##hnung
droga
grond
##genomen
Martino
colonia
jednostki
1662
masalah
forskjellige
relativa
Cherry
kontakt
sprint
Fabaceae
celebrated
Mientres
Pio
Logo
Karla
atacar
##srat
##rath
##wijk
nalaze
##syon
##reta
Writing
complet
Tadeusz
Weltmeisterschaften
CM
Cela
starten
Rama
Sebagai
##ivamente
Spania
##mien
jeziku
Habsburg
olnud
##tora
Mires
ganze
##tage
##izzazione
berre
crash
ligging
barrskog
vahel
resulta
tied
castell
usato
Scarabs
dalje
Roberta
Sergei
Sega
Scribners
lagen
refer
Bayer
Vince
##ongan
suivantes
575
##miseks
McCarthy
CS
anything
##ssimo
reconnaissance
batera
##nod
cursos
helyen
Nuestra
Audiodateien
Sinnott
##cul
rin
Raoul
guard
Cine
##dini
pierwszego
##emente
Gaztelaniaz
polizia
Museums
##लन
add
penyanyi
processus
##wskiej
Surrey
obtener
##zd
##cjach
Molly
447
##nyi
##bun
Sinne
limba
Allied
Quelle
raccolta
##ctwa
menjadikan
Kazin
celebra
markets
##lore
Kurz
tevens
5036
##iata
##laiset
Adolfo
Hist
familles
Rosji
apartamentuak
Matteo
##dul
communications
##fully
kompleks
##real
Chemie
Exploration
Ram
##cendo
840
especialment
heller
1698
Anjou
Amateur
##inta
सकल
457
##nzo
Kutler
Castello
retirada
supporters
utilizando
Asturias
unitatibus
obstant
Own
angolul
##lil
innbyggere
##smann
SpidCat
Polizei
Southeast
tradizione
##jka
##vanju
Andorra
1695
italienischen
##izi
443
precedenti
0062700553
0195082095
0684805332
0691152071
0816071365
Mancall
Disco
correspond
repose
##mad
RTL
##tsen
vio
##iwa
Kew
Competition
siyopans
memorial
##chard
bungtod
inglesa
Ob
geschiedenis
mau
modelu
quruqlik
Those
##krieg
longa
##llon
Slovakia
runner
##zard
migliore
sociedade
entspricht
parent
1687
Alvarez
Consiglio
Rosenberg
kaks
##cimiento
ator
lineo
descriptions
##quel
Deutschlands
1668
Batu
letu
changing
prende
##डा
Sacramento
benefit
##ety
Lines
Italiaanse
Neumann
formally
apart
diploma
bijna
contient
sembra
##cin
504
hoge
##riz
तहसीलया
Geld
navi
Neo
कूल
datang
Legal
##rome
##heimer
##veld
##sol
napravio
Frederic
##vn
##vita
usque
1619
1659
laser
##logii
Gereja
terror
ezek
faith
Roushie
##zije
bulunur
1628
Terbang
##logische
mulher
##CE
elite
##uld
Humboldt
compositeur
Shield
##ckich
pesca
534
Orgel
dostal
lettre
##्ता
स्थापना
environnement
vreme
Cluj
Rochester
Variety
produziert
##igten
Viva
##imu
1626
##wne
somewhat
osallistui
##liko
Mir
clients
##eak
technologies
खाता
distanza
bedeutet
bekannten
##bara
kunst
xunto
festivals
##द्ध
##mman
Doyle
gerade
##ovanje
rhan
##ियो
Californie
deceduto
publicat
Statens
Further
izquierda
achieve
ausgetragen
landets
venir
Vun
##गा
descoberto
Aldo
sesongen
equipu
Eestis
temporary
verir
##cid
arriva
meridionale
aspecto
1611
kontak
criticism
Terrestrial
Krzysztof
delu
vienas
doktor
weist
Meanwhile
##self
##ffa
##spiller
participantes
dij
##ander
##igte
Duo
Jerome
##fach
##nymi
##atra
##odo
blanca
Bosna
shell
Tampa
jeunesse
styles
398
1641
##bada
acciones
Travis
milyon
Wagen
Pendidikan
Robbie
bassin
Peugeot
mati
colour
Troya
cantora
pose
##reis
chemistry
Satu
Weltkriegs
##rera
rele
Inde
LIVE
##press
alternate
##uang
433
circuito
doanh
permettent
##uman
daughters
Agricultural
prostor
Nottingham
Guardia
categories
439
eletto
namme
serangan
Byzantine
Schauspielerin
studeerde
##dore
affairs
bella
imena
minst
Hitchcock
संकलित
BS
differenza
weekend
Ismail
##naceae
vend
##scheiden
aquellos
Enfin
Hector
##cyjny
eingestellt
reeks
tokoh
##ssima
clinical
mate
निर्माता
gols
##zeniu
1686
perfect
##pica
Assim
##dnie
##fluss
Boom
##हन
1636
terminus
direttamente
Mina
prins
Senat
Cave
frattempo
##hum
##मध्ये
Otros
worth
##rance
minore
concepto
eftersom
Oper
Nadu
##istik
##ulan
Diretto
##daki
touchdown
aquela
##rle
##चित
ember
proposal
recordings
Duque
zatim
##nando
Sherlock
Words
Hancock
individu
notre
privada
wine
##elu
zugleich
Yearbook
kokatuta
1669
Muslims
1678
##aging
Francesca
romanos
##dzenia
Enligt
Danh
1604
1679
##एको
##lima
Consell
LC
##duzione
diretta
Kazakhstan
Essa
Nordwesten
Omega
Spanje
tipu
##eerde
Emerson
industries
Thames
concern
journey
wit
Minneapolis
manufacturing
interretialis
##laan
tone
Oaxaca
chacun
##utu
nekaj
tais
influential
##्ती
436
qualifying
Lys
cintura
scelta
iniciativa
##klasse
toisen
fiscal
succession
Chevalier
Mange
sic
FN
Vergleich
nobles
##amentos
Fisheries
1637
check
terbang
trotz
Warsaw
risultati
##dische
##oses
betrieben
drummer
Nikola
wooden
Bulgarian
##प्त
acabou
##mne
Untersuchungen
Clayton
Distribution
Sit
##ntas
##esc
Regione
Sovjetunionen
##nyo
Allison
kyrka
poems
Handbuch
maga
Hu
representar
Teilen
1595
Navarro
##बाद
teori
antiguos
Brett
##takse
uur
समिति
##wesen
filmed
Esther
aura
pequeno
##ड़
##rche
uniforme
gromady
##etu
1555
##vaju
Gianni
buiten
directe
##okban
##ssin
disponibles
Engine
Scritto
compagnia
fishing
Systematic
ottenne
##rci
Algeria
recherches
##roni
estadio
Myers
genannten
Cena
##दान
Eight
etre
spillet
successivi
versiones
मंदिर
Siegfried
##banen
##gador
##uc
druk
##ndar
lille
Clemente
doce
##owanych
flyttet
jetzt
##zier
Alexandru
Ergebnis
Beirut
sieht
vallas
zaludnienia
valmistui
indtil
##vino
Aachen
##itto
##parte
Cyrus
Editions
1657
Wake
Murcia
flowers
representation
##chin
walaupun
Marija
UU
1606
cristiana
Boss
##erta
##phora
Interstate
1592
Pfarrkirche
alapul
Kamen
Namo
Hasta
skuespiller
kraja
milions
Beth
membru
povreso
settore
posiada
componente
lt
Antarktis
Seymour
digitale
Evening
##oire
Yogyakarta
3500
##quela
Sterling
idag
##boek
Climate
##diu
##orf
##two
##vang
Eleanor
lutte
645
violent
लाःवन
friendly
##lazi
successiva
vojska
darah
Ranskan
troppo
santo
##ibe
stade
Such
##tyi
##atte
527
Info
Limburg
safe
Justicia
Carson
##oun
दोनों
Shan
finding
espacial
mill
##ttaa
##klas
Onun
arbeitet
Languedoc
Noble
##link
Passion
##lanadi
Giochi
1653
Baku
Mess
norma
successivement
##forma
comum
Andere
##chtig
##door
poca
Tate
##80
Prinz
Chiapas
Armando
##gab
estudiantes
haciendo
elezioni
##stique
handed
Besoek
urte
##mania
namen
tidlegare
utiliser
##onis
Nikolaus
borough
Parade
1558
Transportation
##ybos
Grup
Lam
गर्ने
##emia
Gemeng
guitarrista
##oten
Ushbu
tett
##tav
##evi
Libertadores
##oza
##tiden
railroad
##kirchen
indoor
##mies
prisoners
##ely
alia
Tirol
noite
podacima
conocer
extrem
##jaan
1559
Insects
corrente
Eugenio
strongly
1920s
Picasso
rhwng
Che
Shop
##elig
pastor
inaugural
trama
Bundesstaat
diberikan
Brighton
Nummer
facendo
Schon
Syrian
Nadat
izay
autonome
minut
##hely
kuningas
hukum
Wappen
bambini
tardi
##llos
Kazimierz
FIA
Pain
konge
##akse
munisipyo
quell
Zeppelin
Pucharu
##xide
Simmons
explained
resident
intersection
##ath
mots
##raan
Chaos
console
officielle
Silvia
##oca
##rac
Ferrara
Edvard
Rodolfo
reputation
parairan
Bundesrepublik
##roa
##utti
Benson
usu
niem
Vampire
454
Vinci
Russische
lanaw
Jaya
architectural
umbes
##venir
habitatnyo
paraiaran
toeran
posisi
सकते
salt
##itel
Pueblo
##isko
##gangen
##charts
pagar
wedstrijden
449
Neustadt
bekannte
Fa
Prado
somente
##ingi
Beaumont
castillo
NSV
horizontal
FIBA
infrastructure
Nan
506
visitors
दिल्ली
Aragon
Mitsubishi
FF
##dlo
meerdere
Elateridae
##ड़ा
1596
##igne
##zijde
495
Rovers
faritany
509
smatra
giovani
1565
##onar
Pub
##annya
##zych
teulu
576
Schwester
##taje
aldaar
determinar
##bruk
gode
##cidos
##kare
##legen
easy
Cour
Hoewel
appearing
##cari
Fashion
Monsieur
##pped
Sonny
explica
suma
Kinh
Phillip
dienst
semaine
hampir
Large
##resse
aspectos
##LA
##kole
philosophie
eleven
Verband
##ियम
Gade
जीवन
Compostela
soridalany
eleito
ouvrages
dasar
Jaume
##ciendo
deen
hestoria
Spiegel
##version
##teca
##vica
eliminated
campione
directors
##llis
yi
nata
tunnetaan
Verlauf
IAU
Elliot
जुलाई
Grave
Kepler
Ioan
Meilleur
Plusieurs
kurie
##jeti
1694
strip
Tudor
powiatu
Gonzalo
Saat
ankamaroan
occupe
bok
##nert
Valentin
emergency
Ultra
propios
##wd
vrouwen
Twilight
870
corresponden
ritual
##ifica
##rave
Pastor
अमेरिकी
genul
Apache
membantu
Clusters
Paso
Kreuz
sortir
songen
Kada
Ferry
produjo
transformation
##liai
Sinclair
555
##stod
bird
##presa
565
poter
म्हणून
niemiecki
Auschwitz
Unito
Batalla
instrumentos
parlament
##ajo
metode
accounts
##olog
बार
##elia
##sica
Energie
mia
Nico
fuente
##dron
Grandes
Sprint
coneguda
1684
engagement
networks
Beginning
Lights
462
competitions
perustettiin
beschrieben
##mano
delo
Niger
Salah
guerres
Padova
Linyphiidae
##iene
dite
AKB48
elva
Eds
ordres
Reporter
threatened
Riccardo
canvi
Exempt
cardinal
Marvin
##वाद
492
gebildet
##स्ट
Volk
inner
1696
relevant
mountains
cima
occasions
griego
veniva
Punkten
printed
regiones
##arda
1646
##tono
samego
##katu
##raq
##sgebiet
lists
Random
Nordrhein
ulicy
Members
Yan
enkelte
Believe
##siva
recente
##lova
bansang
orbita
##wart
inggih
##forschung
##ikos
saakka
Corp
Alsace
UE
##ative
murs
Margarita
##ature
##handel
##ility
##षण
Rupert
texts
##jl
mounted
Resource
Blade
##gezogen
##itaria
violin
inden
Kramer
saja
434
1674
tient
Puy
jauh
##ाज
immigrants
Stephanie
piccoli
kino
##rlar
##zentrum
kapta
sponsored
##laisten
##ldo
apparition
berbeda
##sou
rounds
escudo
Comte
##gant
Cornelis
Vie
unidad
endete
distinction
medidas
ori
allein
Rao
bebyggelse
##ळी
ottenuto
sluttar
verbreitet
Ninh
Silence
latina
bakarra
##gando
McGraw
##zil
duca
Isto
Shi
spinnensoort
Ona
##kab
970
##SI
Somalia
dros
1568
Afonso
pojava
552
संगीत
surgery
thirty
493
Successivamente
Qing
gleichnamigen
479
Indies
entering
morale
##lasi
004
##zten
##hari
668
Mehmet
Calcio
instruction
Kang
Spaanse
adding
hainbat
Dende
emaitzak
kategoriserar
iste
ngay
Lega
signature
##icz
1588
siyasi
consider
##telen
Wendy
Loir
appeal
##ube
सूचं
1624
Codex
input
Hurricane
##erden
##ifa
genel
Catalina
##ntino
aspetto
distingue
आई
484
luna
accessed
Agung
francesi
pianist
Kuwait
Bath
Kirke
soft
Fungorum
experiences
solutions
##nist
जिल्लायागु
##dun
yerine
Zensus
CR
external
fascia
##OP
##ymi
lakosa
1566
##vido
encontrado
centers
palasi
##voi
Vidal
fear
##losti
CDP
sungai
नदी
happened
##eiden
Pride
physics
##amaan
Cinta
declined
Smart
Horror
खातेदार
गाटे
मण्डलवार
ouvert
Filem
Rodrigues
mehrfach
1693
##cchio
502
LLC
Transit
reserva
Ludvig
Rest
sista
colonies
sonunda
patron
##leitung
Gaulle
Soundtrack
Niemczech
790
feed
##ेल
##lent
##mbra
traces
##mons
Canon
XML
drugo
Dino
row
##stvu
Ascomycota
Tank
##mmt
jednog
Lance
Literatura
increasingly
Trier
overleed
posti
##hiro
##mala
municipalities
##ूर
Ju
Sabah
signs
dependent
katholische
pressi
gone
##toma
Atualmente
##dito
1681
1663
Itali
##वन
1615
chinois
ओर
Savoia
Bonnie
kregen
Linz
Pointe
biztanleriaren
marathon
##tores
publisher
sovint
volver
##gewicht
##otic
provincias
jobs
##erre
##गर
otto
##tellung
Pretoria
temperatures
##dim
Running
lecture
obraz
Orderu
junge
##hteen
Rudolph
conversion
ballet
legenda
memberi
Southampton
Sancti
Lagu
##rilor
fair
Lublin
rijeke
Fortune
begyndte
arab
Senhora
footballeur
studios
##rador
##visi
##zoa
##igny
##ngkan
##rdia
##yse
naturel
##edt
religieux
datt
episodios
##enstein
arrest
vliesvleugeligen
ties
Crew
argentina
carrer
indult
missile
730
##tiche
##dlich
##llidae
API
contexto
ega
progressive
dominante
Clifford
bringen
Religious
507
##chine
casar
##nage
##iseksi
##glich
##owaniu
##night
accept
Dalton
materiales
##tliche
Chevrolet
Unlike
preserved
Fitzgerald
Terbaik
distinguished
Nomination
अलग
##hout
Ferrer
Sowjetunion
licence
neues
stan
tube
studija
Christus
Quatre
seinare
mavjud
##anlage
##gnes
1613
comporte
##lassen
Unie
genres
535
mji
siglos
Robaina
augmentation
jede
tentera
##sig
##uteen
exists
dieci
1673
registro
oito
Krishna
Kit
##oista
megjelent
##mang
eventi
##illon
bona
##nere
##cyjnej
##festival
##खा
sessions
Dragons
Piemonte
atmosfera
Swan
cartes
##cale
##wirtschaft
Carr
Herzegovina
escritos
Situation
Democrat
kaki
halten
savu
##toire
Grimm
faixa
libertad
Leistung
alfa
patent
losses
##ztak
grupper
##arios
##iman
chuid
circonscription
gaya
dniu
treated
russa
##dicat
##cious
Romans
berufen
daarvan
##tru
##13
annually
ditemukan
officiellement
##amerika
488
##raj
cesta
deputy
beach
##abad
calor
Use
tend
##tere
rapide
tjera
Cidade
Pine
semasa
equivalente
periods
Oct
820
portato
##gato
faisait
Doris
Warrior
##ered
##cir
organizzazione
DR
Recent
vente
itse
##tric
##upe
wersji
gjekk
##देश
Schulen
ह्या
controversial
dare
##aard
##gende
popis
Groupe
detail
1602
Fabricius
capoluogo
jovem
Luz
solche
spilt
bestimmt
gelar
1671
critiques
tarihi
##lti
##tse
suficiente
migliori
estasyon
##hielt
CT
handel
CSI
##bouw
##akt
##vodi
533
##koli
##rating
uscita
##kien
##alu
Pauline
avions
gjerne
conduct
behaalde
##vity
##hea
existed
giai
Attorney
ennek
libres
sagt
aviation
punten
zachodniej
##ppo
jarige
send
annan
lande
slave
Writers
annuelle
sommet
proteins
keyboard
sis
semaines
Longchamp
katolikus
Sante
##bundet
##idd
##arde
Advisory
##oce
Bol
gotovo
telenovela
propri
juste
lopulta
lys
nedeniyle
##entu
tenan
terras
Darkness
tujuan
sangre
Corpus
##ldes
contacto
struck
##hul
Jury
Tracks
iniciar
britannica
mexicano
cosas
publica
Hastings
##dzi
Cyprus
menm
mathematics
Corwin
comercio
##ुन
Were
apesar
diplomat
terutama
##cello
vermeld
JP
##coe
##lmi
1547
Wissenschaft
##pris
personality
459
##quista
Slovenija
##point
538
Abbas
Atari
Goodman
Lt
ruchu
bilgi
kostel
deelstaat
latinos
##cym
kilpailuissa
Experience
sample
jarduera
461
Ash
wichtigsten
atelier
batterie
yeniden
diren
##oba
gewinnen
Tolkien
##oste
sendt
##uff
ESO
cargos
इतिहास
completion
Parsons
Ulster
XP
hivatalos
hwn
Jozef
bringing
shares
helping
##म्
appelle
Mile
Basse
Democracy
Ranger
Tanah
motivos
Guns
thriller
wants
rasa
777
Aufgaben
trug
fondata
voltant
Gothic
wydany
Malik
surrounded
Mto
##iate
Frankfurter
alates
##ression
##mund
peaked
Engineers
IAAF
##atori
vessels
618
dedicato
exact
##core
depending
Reinhard
##jil
##oar
avulla
dez
naturales
wol
Clyde
Benedetto
Imre
oggetto
Copenhagen
steam
##partiet
problemes
Orchester
##gul
julkaisi
ratu
##lman
polar
temporal
maneira
secure
##rige
PSOE
observation
replacing
##dier
aktif
Venemaa
##riti
##wers
estimates
variation
costume
voornamelijk
operaciones
upang
Kant
danger
##isessa
विकिपिडिया
reiste
dijelu
##konnas
##lati
tracta
Has
sommige
##unut
occasionally
releases
cunha
semula
536
463
##ables
deixou
##vera
elk
Hapon
mulheres
740
Artillery
##hner
Suecia
wurrn
Popilasyon
Juana
##pite
representante
##eister
Zug
nens
##ciar
Landwirtschaft
produttore
##dach
875
Cymraeg
##sang
##ghter
Daniela
executed
आपालं
491
filed
##cini
Kustklimat
SMA
hingegen
particularmente
वाली
##ikt
##eaux
Viele
##uid
juntament
1601
##amine
##sna
Brady
Kode
principles
canzoni
##18
lasang
sand
Mondo
kura
oud
wenigen
premi
Applied
knew
Mga
vidare
Epic
Dall
Blackburn
##wort
complexe
##misel
futebolista
Producer
Fahrzeuge
Ivo
titolare
1617
Velika
maritime
##rados
informations
vanlig
संकिपातेगु
727
Nilsson
paru
##posti
costruito
decidir
ouzh
Celle
Pinto
Wolff
Mora
Wegen
ninguna
Greenwich
808
##ulat
सन
wist
baile
##gl
##ishi
##ife
674
##worfen
Attendance
cikk
Bajo
##itia
Boyd
Noir
Lebens
1571
Pic
##tut
hervor
##etter
##sende
iad
##rren
champ
##rod
Libre
arti
##rika
kobiet
signifie
##plo
peul
basert
##kundige
birinci
Governo
##zania
##iani
retraite
enthalten
Udara
destination
sitten
Dec
motores
##kret
##niji
FactFinder
1607
1692
nasceu
lief
PM
inwonertal
hektarea
Chair
directa
overleden
Jill
##riques
associate
acoustic
##igi
##vani
ee
##chodu
Practice
503
Shawn
omtrent
Interesse
##bliche
Gyula
##lete
##school
assume
sonido
##wice
dolgozott
Hara
प्रथम
##sses
Nebulae
Jaroslav
Dynasty
Literary
pilote
conduit
loopt
koncert
makeup
##malt
partecipato
ane
encontraba
Breslau
Lea
holl
sekali
konden
Hierdie
einnig
##sikan
Lil
poza
pruvincia
##aken
masculino
Comes
doubles
##dert
bracht
Anadolu
##bola
1578
980
gir
##reten
nic
Germans
cila
Studi
##zdy
italiensk
Petersen
kebangsaan
melihat
551
voda
Stevenson
##ldt
BE
toch
##hut
counter
ingresso
Rhagfyr
trovare
फेब्रुवरी
Astronomy
Vaucouleurs
##ित्र
##adh
Azur
fiesta
Kindern
moto
tulee
dargestellt
Norbert
vene
yerida
cumuni
##jun
auga
##cazione
lanzamiento
prototype
joissa
##ugen
1631
##eiz
##ppet
##rque
veze
##pino
##िर
Cycling
Sp
obtenu
##kna
comportamento
1614
hazkundea
produtos
Ante
russisch
controversy
omvat
menulis
Movies
Carta
##SF
##gnet
##rc
##iken
doute
kraji
parola
##kop
Waterloo
Huber
Internazionale
##liegen
Ehefrau
labing
moltes
fontes
Protein
obsahuje
obwohl
Wanna
##ficat
सिंह
croix
vertaald
redes
Vaters
Univ
OEA
escriure
crecimiento
Guglielmo
rimane
Neu
Kosmos
Administrasi
Chambre
Promotion
yulduz
Francesc
standen
Canberra
##ettu
aeroporto
Brooke
conception
Sousa
anger
##vky
##ege
##kota
##stus
rejoindre
Kerry
boca
municipales
pasando
gifft
comunidades
hills
influences
joc
kati
fekszik
respective
573
biskupa
slovenski
Olav
bort
earste
ge
gros
localiza
slutet
##jiem
producers
Themen
vector
##tiende
2400
Ebene
Clemens
dirigir
Asien
fachada
Nadal
artillery
##nami
Maiden
Ortschaft
signing
Suiza
Alternate
##holt
##owali
bound
passando
##eois
construido
teljesen
Longicornes
nouvel
##kban
nilai
versucht
##metre
univers
##esso
krijgen
Aziz
organismo
Sunshine
prostoru
##rock
Toutefois
##zky
boktorren
fuego
regel
feita
nektar
##rama
Niederlage
soldati
percorso
Henryk
animali
territories
Heather
##bilidade
sagadang
kallas
केवल
erweitert
##fini
Abitur
##lose
लाःगु
Reuters
##jskiej
##तात
477
deja
Aix
##tko
wtedy
##jskiego
tacatat
viszont
thousand
atriz
1582
Winchester
none
asfalt
##ativa
Barker
Zeiten
Luiz
Tato
Propinsi
nahmen
Monthly
Buta
echte
Fest
Lagos
gwyddonol
trading
##lassung
corporate
Ennek
mutlaknyo
Namibia
##zz
hatt
Nights
##voer
##zit
jopa
Gospel
kepala
##dhi
##gro
decline
##cede
objectif
##hak
culte
Miroslav
Presse
Peking
##pkan
##ried
parce
##rande
fondateur
पाहिले
okoli
tanks
1535
olim
Howe
##opus
ONU
Vers
tartozott
##kerk
photography
rivers
##hidae
##kam
Bund
Royce
##००
tir
##apa
eighth
Wirtschaft
boats
Madre
##omis
##zany
##mete
effectively
860
visite
kultur
##rero
##xy
##siya
aangrenzende
experiencia
kluba
matematik
centras
1564
MGM
disputar
helyi
##rupt
Modena
gammel
nero
unge
Luanda
##uuden
Athletics
verlassen
Orodha
##stedt
Iz
482
sarjan
wheel
pies
hergestellt
Edo
Starr
koriste
suelo
Marcello
traitement
1553
Ethnologue
Sprachen
fortes
##orde
Liidu
##vised
appointment
##houden
##szym
Marketing
infrastructuur
maintenant
eboluzioa
##ront
melyek
razvoj
acima
szerepelt
1608
Oort
Gedichte
rosso
belief
Probleme
Mato
##gou
Voz
alimentos
genau
narys
joiden
##RI
Exhibition
illustrated
Olympique
Palau
quanh
##efter
710
Sarawak
##dab
construire
roots
Eddy
Formen
pagkainila
vere
regina
##CA
Akademi
horiek
Gheorghe
drawing
Arctic
Maar
mo
##cento
nominiert
553
##iac
Marche
##ook
##adu
##kere
Medio
Vereins
Jungle
Catania
obszar
surviving
Portsmouth
harr
##RT
nascita
##zacji
immediate
esos
unusual
grups
honour
##erted
Samantha
coles
##kelijk
Jesu
Weltkrieges
pus
Turbo
##cite
Reno
creative
wody
##corre
percentage
seri
शब्द
dinero
##yli
Umberto
contaba
##PS
Medalla
##alar
474
##fico
##kir
giocatori
dagens
##aden
nehmen
Origin
Exploitations
candidatura
producir
sive
966
Reptile
##chan
Bahnstrecke
vessel
##टा
Moment
activitats
exemplaires
Aladin
Druck
etki
heure
##sters
facente
vivir
##lano
argitaratu
Opus
originaire
Erzbischof
##lua
##fasst
simplement
select
poids
Ou
Runner
##cet
fonds
##nique
biegu
boa
gespielt
maggiori
traduit
##dol
Lorena
Manning
##lost
##sels
buscar
1567
Theologie
hiljem
Rostock
gwo
Zentimeter
##iss
arteko
Matthews
Rhythm
rendah
##onale
breaking
Europos
478
Schuster
1950er
hilabihan
HR
Hz
##rib
britische
468
niveles
Ke
##oes
##pida
Elsa
Ea
##ards
##tay
loopkevers
##oise
daje
##male
ave
##jtur
nakonec
vody
mense
##ssus
Azul
1556
Certains
projets
##got
involvement
OK
vrij
Tempo
##VA
##ously
ij
nordlige
absoluta
basket
Funk
qualification
svjetskog
Itt
524
U2
barrutian
Lightning
##ool
teatre
Bel
geplaatst
annen
##telle
Clinical
alat
formant
championships
proprie
navire
uniquement
##ntza
##olare
##तर
Hahn
truth
1691
biridir
##gam
##rli
finais
Foot
Laval
compose
vijeka
gar
Geneva
defence
Athen
Biserica
melawan
atteindre
Questi
Strike
##cte
olmayan
##lap
sto
##verwaltung
sailkatuta
nime
siihen
AL
Edison
erroldako
##varande
dispositif
Amazonas
llama
mediu
##posiciones
labai
mesin
##race
##ponente
Scala
Python
Amerikaans
544
esperienza
##ibile
Quercus
##deo
522
experts
meetings
studying
walki
Presley
Agua
सेवा
##dolo
##oaren
498
725
phrase
Kali
Knox
japonesa
middel
termini
##deko
vervangen
##zyk
Any
##afrika
Indonesian
noire
possa
Critical
Kirchen
Taxonomische
funeral
Rousseau
blocks
fruits
exemplu
1515
borders
obtain
Hampton
sultan
vlast
detailed
mains
##halle
##tili
gehad
तापमान
nattflyn
Dag
Daniels
umbenannt
Messina
permukaan
##rasi
##sure
cantor
yfir
##bija
Oltre
Dato
numai
edelleen
Sonora
Architekten
##kg
Chandler
cardinale
Informationen
Fifth
lay
limits
Ergebnisse
##rekin
register
Wan
ME
1453
Wife
##biu
1639
Brunei
##alter
geval
##rese
##aban
divisionen
suisse
##deutschen
bleibt
klippformationer
Kidul
concerned
##tikan
##ksia
##nout
ik
eder
##dua
Please
denied
weinig
Derecho
Pilar
##lony
1575
cassini
1584
##sgemeinschaft
Eusko
Lockheed
rapidly
##poda
Lodge
davanti
##licht
##21
midten
respuesta
sastava
Walking
betekent
forum
Titanic
##cati
##fung
kuului
##tade
##tido
Reggio
erscheint
landscape
merkezi
सर्वात
Leur
successive
##ingt
Trent
##take
Kino
altas
jonge
##rava
##izm
conforme
##agu
Burkina
##uali
##ाना
Aufbau
lasted
Harbour
1080
creato
Instead
snage
##rling
foran
राज्ययागु
1542
Kung
siano
Sacred
kvar
eius
znovu
vilken
##lico
Shell
diu
ostalaritza
1647
1599
Nossa
##gale
1524
socialiste
Norske
##nina
gamla
##mez
dobu
commun
siebie
sezione
Cardinal
Spanyol
pierwszych
Mittelalter
sorella
quen
interviews
express
nchi
1001
##rtas
Shadows
bateria
##ugu
acueye
##esch
chanteur
corto
continuing
estatal
##world
Astrophoto
moments
Estate
poche
varia
powstania
##laria
ports
taba
B1
##open
481
waarop
asteroizi
trouvent
colores
dirinya
##hala
bolj
##wind
##guda
##teria
Anichtchenko
woord
license
combats
Cage
Theme
kuitenkaan
Joaquim
nueve
##akat
arrivo
##batan
Lugo
Pie
631
asteroides
##cura
##rr
Kleine
llegando
buy
llegaron
villaggio
Vlaamse
ekonomisi
Gregor
656
##bai
Talbot
Marty
apparently
##rett
Fanny
##tee
##zados
igreja
finit
gedeeltelijk
stopnia
##bler
hry
Herb
Dyma
##bound
Estrada
##stwie
whereas
##nisse
467
Euskadi
iwwer
Internationalen
nazwy
1488
conclusion
Centrale
count
##qvist
##xel
##lya
Hale
Flag
turismo
##finals
Chung
galerie
doesn
##zs
poslije
##llet
Planck
meir
stella
beaux
##jit
fanno
##rolle
Holding
##nila
690
Britney
Onderstaande
dito
##plane
GDP
integrated
toto
Marii
##phe
delt
putra
trainer
ende
oudste
reveals
funded
procent
##worm
carabidae
##erek
DA
Garde
##szej
appartenente
Oman
COBISS
Paulista
##ldre
Slovenska
Plate
##iale
Poskod
atto
##nho
popolare
meilleurs
Interaktivni
root
1480
qualsevol
Mona
cheval
1552
##gados
##bilan
##onica
##ficata
Britannia
olasz
influenza
chapel
##tys
Kern
urma
Atlantis
Led
Atlantique
Neville
Siria
Zie
visse
##mn
erityisesti
Destiny
Pokal
entrega
Demo
kaupunki
orosz
scritta
##nnes
Observe
632
descoperit
##olle
naziva
##vija
Rap
Legenda
criada
Talent
##aling
##avad
portrayed
KB
##cyjnego
##ufe
Angkatan
largement
socialista
Asamblea
##znak
politikai
Fun
Faso
Hawkins
desenvolupament
##bito
##zzata
Alphonse
Borussia
Powers
ilgili
##ुद्ध
anch
अथवा
Lester
Muscidae
greatly
llista
ragazzo
##ensi
##idir
Klavier
rescue
##iben
Hat
stanowi
##telling
##tritt
Echo
##inie
1545
geschlossen
institutas
westen
##ojo
##diger
##quez
Ninja
##riss
organisme
dopiero
SSSR
finance
invloed
Wes
ref
tolos
##schiff
hoogte
Amazing
timoun
llei
organisasi
rated
celor
Ordem
##gawa
anciennes
Fernsehen
didirikan
IPA
##taria
Kedah
1583
Belgrade
anglo
Capo
Honey
choose
medico
##pek
pais
pression
DM
##swahl
channels
putih
##tendo
commandement
शासन
##lerden
3166
belum
Always
tente
##enas
partners
decisions
Mt
specia
##pade
Diario
tornando
istilah
605
vodi
Alfons
khusus
##huset
salud
##vind
Suche
##ेश
anului
medikal
Hole
svom
Avibase
permainan
alleged
Niemiec
interaction
escultura
fratelli
tertentu
graduating
vencedor
##vic
##utati
espai
##mbar
##zato
Panny
Russo
takaisin
dahin
##imit
spindelart
##vich
##arbeit
##zice
intense
vital
altos
##mida
sh
##70
akibat
Lords
Garrett
##hardt
masu
notion
##lass
naseljima
Rua
amici
plana
bones
##sero
sorolja
Tephritidae
चार
Mathieu
lettere
Warwick
establir
ovom
facing
##kent
##lande
armii
procedure
##parten
boss
##tona
##anske
डॉ
normally
Stavanger
Maroc
versuchte
arbeiten
biology
Perak
employment
isan
Carex
##mble
##dowy
##lz
accordo
zati
maty
##ify
##bris
legend
##bibliothek
Alianza
benefits
Ned
principle
Brandt
faveur
whilst
rezultat
005
Quang
wer
ion
magazines
584
notice
descendants
यांनी
##anus
hundreds
comunale
championnats
sequel
Hamlet
revolution
1519
scopre
##wise
raya
Revision
Turnier
faces
longest
doktora
Bright
##kok
kuru
grid
##sad
Katie
credits
elde
resposta
presenze
teria
fuentes
Snake
##aming
##visa
Erste
Trieste
mittels
tangan
Indie
ontwikkeling
procesos
Providence
victoires
Olaf
particolarmente
Florian
ato
##atas
seek
girone
vecinos
Joanna
xalq
poles
Quito
Ezek
##bilis
Maio
##pske
##inho
bintang
Towarzystwa
vapor
##cott
Italiano
Astronomska
##tlich
socio
voiture
##part
Magdeburg
nodig
pochodzenia
Liam
item
##uat
jolla
sahiji
466
navires
carro
turning
tellingen
afstand
ati
benoemd
doel
salas
themes
##leis
उनका
Pak
otorite
Legends
Ortes
batalha
Knowledge
newspapers
Europeo
publics
##mment
Herz
alemana
Tenerife
Lancashire
uitgebracht
Titus
organizacije
MacDonald
partii
rs
tail
1589
##kh
Moderne
jet
##almente
Allegro
kongen
830
Kwa
medals
Sales
apply
##sgol
##itische
##rive
Saxon
##kong
489
machos
IBGE
Lenkijos
##pton
##tol
approval
##raphic
Brasile
mostrar
Almeida
kabukiran
##bangan
ride
clip
transportation
extent
ishin
muga
naseljenosti
1517
सदस्य
##dare
Usa
बौद्ध
Arrow
eerdere
seds
absolute
Mensch
ucciso
experiment
previsto
Bazirano
Chihuahua
tinham
locaux
##pla
amongst
youngest
examen
esemplari
Messier45
NGC2000
corresponde
estudi
##rieb
Archiv
Drugi
Mens
fakat
Mikhail
euklidsku
Yuri
giornalista
takie
grego
770
entrou
##haal
everyone
##istiske
##hnt
energi
ferrocarril
berikut
punts
Regne
competing
parlamentu
Payne
hezkuntzako
Teilnahme
gebaseerd
Commodore
Remember
##loge
NWA
##ujo
Siden
designado
necesario
arquitecto
kanalizasyon
widespread
zuerst
Beatrice
Licht
atoma
Corner
Mara
Sad
Distinguished
Teddy
creat
indique
1527
remake
Kantonen
##leges
pares
venture
politici
Orang
##piel
quo
Mall
wrestling
Meet
Var
##zje
oktobra
sest
Faust
##ovni
Mammal
documentaire
linna
comunas
Mittel
##grafico
1562
plat
lose
kalba
genetic
##kens
linee
Constantinople
Franca
##lazione
useful
pinta
peringkat
boje
Hartmann
548
bai
##urilor
Escape
##pai
visiting
Conway
##vnik
refuse
१२
Lab
Memoirs
sesuai
interpretar
##ंत्र
##cce
##lischen
Tin
kjente
##iting
Fat
##budowano
Cornwall
biological
acted
konderria
Dina
Roussillon
voting
##prav
##wertung
##tuar
obispo
Breizh
##gione
erhielten
##iso
impose
ayudar
##olen
pietra
Weather
1677
##naan
##nskog
Barton
##bli
infantry
##bno
##wed
Moun
Aeronautical
##cieli
##vero
Lead
voorzitter
recommended
##fit
linken
tempada
##tris
italienne
mear
##etten
revizirani
##hodu
fontos
surprise
Santi
##alne
##chal
##voz
subspecii
300000
##bem
perder
##anju
Ton
nesten
Luft
attracted
hunn
Coca
havas
locomotive
##zego
2e
##cun
generated
struggle
Tous
Think
hicieron
ment
Schiffe
1573
Pl
##otus
Verder
Mouse
1541
holder
Seri
Mack
acentesi
chute
Adobe
terbentuk
1534
Job
fotografia
oberen
Eberhard
hacen
Croatian
Einheit
##clave
spelar
colony
ung
innings
Sinn
##gten
Millennium
##dele
##celli
Danmarks
enviar
hil
Bibliothek
explique
माइल
horses
ultime
ALT
capitano
eaa
gks
ES
vainqueur
warga
##czego
Naselja
Dynamo
##dente
titoli
##deel
zerrenda
momentos
Neste
Samen
activist
##100
##mung
Sans
massimo
Caterina
linia
Catalogues
##्यो
531
Hercegovini
Saunders
Winnipeg
arbres
##हर
##enin
Hussein
Mammals
clara
Mu
##olia
Carvalho
wszystkim
Schwartz
जी
Sieger
finalment
##ystem
Tarragona
juu
weiteres
svijetu
##cene
Conte
gelegenen
appare
##eline
entsprechend
Gear
Christians
##valla
Ese
##ंस
drew
uvijek
##jali
529
diritti
Mein
seres
##nella
bertan
penulis
polis
documental
नेपालको
uncle
##atik
maa
vinse
##own
ocorreu
दौरान
583
Forster
##ovanja
Ferro
Wettbewerb
chiar
rett
maladie
correct
kasutatakse
operational
understand
tekrar
steder
pubblicata
Todo
moves
##amat
appartenant
locomotives
Nelle
Vogel
layer
##cor
Burada
541
erkennen
Romani
kultura
usual
##sville
Shore
colonne
##ication
##tures
##ycznej
roue
##AF
Worlds
agencies
polskiego
Crosby
personagens
##eler
Patterson
gram
bestimmten
conflit
sentence
goede
##ezett
indigenous
comunista
##तो
quartiere
Fuller
moh
##ssel
mantener
##iado
##oom
##yksen
##SS
##otu
##autor
teknologi
relacionados
customers
edilen
dunque
##buje
amante
##vej
487
Pfarrer
##cycle
##diction
Planning
##aq
Sempre
Ethiopia
seed
Doom
Fury
Technologies
plasma
dimension
##gden
##ikat
##utos
rreth
suis
##annen
francs
##versammlung
donated
tubuh
NO
aree
##his
607
wobec
Chevillotte
log
Aberdeen
apresenta
String
Unidas
Sami
obvykle
##erang
Burn
##strado
Alien
ono
provinsiyasi
opportunities
642
ON
Wirkung
buen
seguido
##firma
producteur
1594
झाले
Vencedor
Lorsque
##dence
BR
Animals
Giles
kolei
810
उपस्थिति
##ाम
##ikin
dominated
##erti
bisbe
##cena
Alison
हुन्
diadakan
##rise
##OC
rodzaj
##chtet
##lga
FIDE
razy
##liv
Forma
##ाचा
##digung
1516
##utus
##iglia
Principles
persa
Madagaskar
permettre
podemos
semplice
Sheriff
cit
Vier
submarine
##zej
ilyen
collective
sejumlah
escribir
fighter
Yhdysvalloissa
importanza
##चना
1563
giant
##adt
##toare
nostri
tracce
libera
fazendo
jurisdiction
##nggu
Platform
pianista
##raft
voti
spelte
Unix
stranica
Medizin
##izia
##nche
##west
Mesir
quart
dee
##qat
maglia
##43
010
##eral
dietro
##quent
##rollen
kallar
Bulbophyllum
##upan
##opa
Cortes
daarmee
kedudukan
शिक्षा
##HF
liggen
Chico
517
##ements
##पूर्ण
Dunn
pertandingan
sispann
writes
miljoonaa
pessoa
Partner
caratterizzata
begun
581
comu
1597
aut
##uncia
##nki
kehidupan
urbeto
##stin
Libanon
anomenada
##dici
connaissance
melhores
##hay
confronti
deki
Points
अब
Kako
telles
suffering
tercatat
Bernd
##cev
Reinhold
portar
##ologische
##nado
##phones
571
compositore
Katolik
civiles
##garo
##tette
dao
Mimo
Pool
##kun
##rennen
peine
chim
##lian
545
Baltic
Worth
Tears
acesta
Burning
msnm
prawdopodobnie
1587
जुया
Horace
##ाय
Tratado
पर्यटन
majeur
##anes
म्हो
प्रत्येक
Serena
Jakiel
therapy
situm
BB
Maestro
db
sobretot
##mest
dollari
##tali
delvis
Aufnahme
svo
comment
Tien
puntu
engelska
controlar
Edikasyon
##arat
znany
wong
scholar
Srbije
tragen
Decreto
pruebas
bestond
933346
passaggio
0521820486
1852337520
Odewahn
verantwortlich
Kad
Kilti
इसकी
##iciente
Volvo
##atet
Paesi
demolished
Liechtenstein
##lona
##dres
आधार
minuto
viola
Rule
bepaalde
##atzen
##gjorde
boom
Patent
##ेड
Omdat
singular
##tli
jeg
potrebbe
injuries
jednostka
##kee
granicy
charter
Silber
prezent
Achievement
konderrian
Agrikilti
cunoscut
Britania
dedicata
##larla
579
Avignon
favore
predvsem
Relasyon
Gomes
redan
aikaan
insurance
koumanse
प्रदान
asistans
Guinness
itd
nytta
Heer
canale
Nou
##oos
1470
fica
##saan
pulo
pret
disque
##fft
LG
appropriate
eingerichtet
reprann
##ragen
quinze
Crash
Touris
alfabetizasyon
fons
svampart
##jum
1561
suspended
institut
Biographie
ainult
junction
vesnice
Faber
##hman
Konstriksyon
zeigte
##mberg
parle
tejto
Archbishop
##गत
Revival
afterwards
advertising
tyska
moyens
##ihan
##ंची
competitive
tempos
produces
Silvio
Kooperasyon
chanselye
vuole
Eles
##raal
Aewonotik
##tuta
wojska
Cabinet
Georgian
Pasaules
Rosen
inicia
483
patterns
permette
wear
Ku
taxes
scientists
Sword
Bedford
##czyna
Lakin
Parte
707
##ahu
##inti
##icions
vince
Fowler
Holz
varierad
representantes
Secondary
##inou
केला
cerita
juba
##dene
equipes
businessman
Row
Sutton
Cyril
arbre
##agan
metade
Trouble
avui
gevonden
Sutherland
scores
AV
Halifax
Mahmud
##zeichen
svojoj
AGS
NT
Partii
##fiques
Flughafen
lov
rakyat
saavutti
sida
Fate
representatives
##kend
Weiteren
supplies
varmt
costituito
MLB
wschodniej
frequent
termin
##दन
537
jezera
Help
yeux
Beer
##lve
Regensburg
onore
mantuvo
##tila
Championnats
1576
occitana
spoke
exclusive
##ovej
servizi
Programa
##zno
toku
pracoval
##gav
Corse
##ttaja
sila
eigentlich
copie
615
##vey
अर्थ
##्हा
2010ean
कभी
crowd
kampen
origins
##vasti
inneheld
neo
uuden
manier
##veden
##massa
##cology
##eben
Girona
##ratu
warm
##osto
stessi
अक्षांश
propos
perdu
##lisen
##्ल
Rapids
##kezett
Puis
##klad
Inggeris
##vnih
1510
duine
Premios
vlak
gebuer
Meurthe
rappresenta
fotografi
Uz
करती
grandfather
Did
##posizione
##yas
Villages
Dodge
endemic
संख्या
missione
Prentice
1574
assault
positie
##ange
internasjonale
##tean
Soldier
##mut
##thes
disk
##dning
references
tudo
##rode
pequenos
Check
767
fleuve
##ING
Aholisi
expand
इसी
पत्रिका
##esto
##pir
Gabriele
Having
##chor
##hone
attributed
twin
##ndra
conservative
Martinez
vise
##lude
##mers
##rost
wyborach
Priest
eveneens
Frontier
proyectos
##laus
ebenda
traveled
syd
##यर
Mateo
Sternhaufen
perdre
494
indicates
Libris
##ffy
canon
##igde
breed
Crambidae
aparecen
##ayo
582
Misy
modernen
##strada
##tih
oksigen
ritmo
Io
##lager
543
ledet
estando
##ymo
##yak
##इन
compuesta
Ivana
##lain
Sims
njem
surat
##wydd
##inado
urbs
Taipei
glas
##sola
Elm
##yida
Antonius
Flower
kr
distritos
sponsor
remainder
##auer
Zhu
##zati
koadroko
Lorenz
suivants
602
affiliated
electrical
directo
##trag
##ieu
Ayuntamiento
vad
##gleich
sportive
##rella
excellent
passo
qe
osvojio
##्री
Labrador
agricole
gange
महिला
maydonidir
puerta
##ovne
szemben
##atio
अमेरिका
##landa
Krievijas
##andre
##eses
principalment
seua
Berlino
pemimpin
589
bid
arah
प्रकाशित
Bergman
gumun
atividades
essential
##bul
##tze
##vata
##lho
erected
lidze
russiske
corruption
Minsk
patrimoine
##िम
mobil
Colonial
##vci
baseado
lati
##iton
Manga
pantalla
##ंचा
animale
deaths
##volle
Protocol
532
शुरू
serbe
##tao
त्या
भूमिका
##ज़
562
Tarn
Lukas
piccole
##tenant
##elj
Irwin
Chaplin
vittorie
##lated
Bayerischen
diberi
straalvinnige
##totta
instituciones
notables
parliamentary
Miquel
kurios
##tivas
##reau
juntamente
युद्ध
czterech
etapas
##giu
american
wider
fortuna
polonais
soir
516
Dudley
Hands
##regierung
ocean
##ckte
##oft
##yczne
Tribute
##xie
impacto
bergabung
ricevuto
Twentieth
##fere
##wara
reconstruction
##europa
Penny
##oud
Gross
cruz
##stol
##orce
instal
miestas
523
##sheim
##relli
##elas
Tercera
jalur
campanha
astronom
Candy
##rb
calles
kasneje
corsa
tad
mainstream
fortsatt
variations
formule
Europas
Walther
pravo
##asje
slalom
culturale
##nali
Acacia
kurze
substantial
##aak
Aux
##sius
Maxim
##dagen
matrix
##rela
mwyn
dung
actos
Bears
Damon
Hektar
egyre
televisivo
objavil
##erungen
Physik
telle
##aram
Doc
Ponadto
##EN
parvient
emerged
##sl
Benedict
Mathias
kanak
##arn
##arin
##ख्या
Newfoundland
Maastricht
lord
naroda
Clare
Liber
gradually
behalf
##vski
partly
potente
Cho
potenza
##uita
##gjort
mindig
retrieved
termos
##eir
mechanism
Autoren
lapangan
ideje
फिर
Libya
aumentar
pianta
किंवा
563
hope
Devlet
##tnik
animated
branca
Spike
Enzo
Extreme
eno
##ifolia
Find
Williamson
keadaan
parcours
जून
1586
Shortly
compra
Bin
ferme
nazi
Katalogisierung
Oldenburg
brata
vei
##padu
Municipio
Orte
Usana
672
Sanskrit
muiden
tikrinta
1543
##chie
Beitrag
Clan
Lehre
ruling
activa
##bold
kasteel
soldier
##agt
locals
Dominic
matters
##utes
mart
612
ilmu
aquell
Extra
znak
Gouverneur
aka
samalla
tih
##heen
cuarta
functie
910
vuelve
Pico
dedicado
piechoty
##vato
sailkatutako
##zanie
tyto
innbyggjarar
unmittelbar
Bunun
##ktan
Engineer
##pose
##mura
angeboten
1503
maniera
Fernsehfilm
Tinggi
##एका
promozione
steps
मजकूर
gallery
AR
##oksen
##chsen
##liert
pitch
##ijke
Kommission
##komt
##elige
aprila
abroad
semakin
latest
ditemui
mener
Revenge
acesso
attorno
daug
pars
##teten
##nima
##mentar
##60
Ranier
Novel
##ifer
buruzko
tritt
##hrer
##sler
##amental
rain
SmackDown
1577
Tobago
##Base
britisk
##ciela
BP
Ferns
Summit
Amadeus
##pace
Poitou
जिसे
Benth
Kosten
tribes
Eiropas
juntos
AN
सामाजिक
##utako
Tomasz
Meeting
##ssed
##tettu
Maja
kitab
##oms
##tov
ombori
Ave
magas
activitat
manque
##siin
fortement
gehalten
niso
NRK
Caen
Futbol
otec
##ilea
Malawi
keizer
##nete
Galeria
Rakyat
unsur
##tunut
Ente
producto
continuous
##LE
kadencji
##isjon
obszarze
belakang
gull
##uert
##standen
BBS
Islas
automatisch
Evelyn
Frankie
vissa
Kontakt
##pien
teater
Shelley
classificades
omonimo
##ulen
KK
acestea
concepts
dialogue
##della
##rty
Wat
bnf
privat
Jednak
vierten
513
##roll
administrazio
##यक
Bianca
Brytanii
salvo
##linger
##slav
Trotz
rejonie
##cielem
##vode
1460
##ennes
##arta
milioane
##iosa
esimene
estadunidense
Congresso
tram
##cami
Standards
patru
snart
uniform
ensino
##ोल
##idh
##ilija
kutha
neither
wodurch
Croce
##ashi
Dansk
Michal
##bezirk
D2
maakonnas
##cere
Zoology
anglaise
spending
patrimonio
udgivet
##vimo
Holden
##zeitig
Tunisia
635
##pler
##yah
Nebeln
Constantine
slakkensoort
responsables
##adors
hearing
usine
sedikit
commanded
920
##pira
apparent
Luka
Commercial
##ctes
katonai
##ady
siji
Oricon
Scout
##nummer
Quelques
hutan
##ammen
kinesisk
neid
nyugati
##rijk
##नि
posted
##wain
Cabrera
Nieuw
##rion
albo
suuri
Eli
popolo
##कीय
Norma
Pitt
##gisi
Alam
##ddin
Partners
espectadores
mira
residing
Tiongkok
unterschiedlichen
soient
C1
Soto
secolul
collega
585
wakazi
alltid
kategori
Cut
alemany
##gari
multzoan
##chlich
##जा
Praxis
seeking
##mov
Ortega
Campionati
उच्च
##tent
Hiszpanii
Marburg
##logique
##nera
Elements
piezas
##geben
espanyol
##sana
Gabriela
##rean
Amir
bestritt
##visor
keeping
Math
##garten
Hamm
platforms
##DB
##lische
##oat
930
sicurezza
propres
voormalig
iuw
plek
stets
लोग
514
##strat
Grosso
gud
masoandro
volo
Oz
ferroviaria
alkaen
identify
settimana
italiane
Rocha
izany
viewed
Wanneer
##edia
##tesi
arrondissementet
Bacon
vocalista
##bab
Armed
poteva
##quist
Avengers
tingga
accidente
acto
rebuilt
##ndas
abuse
nest
##gidae
##niska
##elik
Numbers
Rocket
mismos
sajandi
km2
Stay
egne
Petite
##flora
##aha
eni
##schlag
revistas
sju
shore
subfamily
vale
1591
dream
independente
##tanak
##ztek
592
Nuoroda
breit
Beaux
harren
##blick
Ci
##siz
Disc
badan
##jta
shift
tenha
Dangerous
Cunningham
intera
globalt
सभा
Apsolutna
##kip
##gnant
WHO
marta
##deling
reproducerande
##prende
encouraged
##scal
gezeigt
##tanto
##fta
##pect
Pamela
kapunawpunawan
vznikla
membrana
Fenster
Twenty
##aks
actores
Kinahabogang
Svizzera
Chin
##scono
##dry
##BS
Dub
##pna
Ovo
adultos
##atti
beter
Evropy
troben
pasaules
span
Dear
huile
revenue
526
principis
Perdana
Bola
Event
werde
danse
rodiny
Universitetet
##logen
Rolls
##schnitt
##tyy
##cijo
Generalitat
##xid
temples
Hogan
Rok
ceea
Gemengen
azon
Conselho
Orion
departure
remove
midden
##jskog
Wojciech
hole
##bado
reduction
Pure
Lucio
##hips
sztuki
##क्षा
kuat
542
##umo
endte
grenzt
diventare
Th
fondation
igrzyskach
Basin
Lev
Sao
halve
Duck
##cover
Statoids
##64
Butterfly
##cente
##लों
Hooker
##icum
##izacji
hero
##aven
##ुक्त
##leen
##kking
Ruisseau
Nauk
ziemi
Josefa
##oty
Dissertation
entweder
terminar
aktive
##orie
parlement
relativt
njima
##uaren
malam
##llisen
##ogische
A6
assets
houden
##zine
Mwaka
##sade
##tzar
Castel
nekom
Bautista
##ंश
ktorej
Porte
rhythm
metropolitan
##onych
Nad
##gae
##sico
##tteri
Wir
informe
curta
##rany
##pling
vary
##ezi
561
anyone
##polo
depression
amelynek
Montes
Juniors
##nada
jobb
##mental
casada
traduction
daarom
Sept
broadcasting
##isson
duerch
chamber
dorsal
##ezen
Ship
##ilt
##works
aldri
Alpi
##ilm
tratar
##istico
Telefon
versioni
##chule
##sione
campionati
schip
Facultad
lortu
##धन
wurr
movimientos
##halen
Tara
svi
##kauden
chevalier
##oya
Norwich
##irao
##rable
Gareth
Hulk
चिकुला
LED
joutui
##reus
parlamento
2a
##kowe
Educational
Fellowship
##hid
##iving
nincs
##axe
offs
1593
enfermedad
Finally
Divisione
XXIII
satte
##lod
legs
Versuch
Macdonald
altezza
producido
Garland
Ski
Uttar
toured
Rode
worm
Leopoldo
##orium
##elser
fronteira
pian
ostatecznie
realizzazione
##fik
relatives
Secrets
azaz
habitats
puente
Sonata
Spy
kolejnych
tribute
1581
davam
glace
biskop
##erst
republiken
Fontana
##torial
Reality
##tanut
##usement
fame
##urg
adelante
Calvados
sela
##hian
Robot
##titude
##lce
##ologist
Pierwszy
##web
Reilly
Natalia
Romeinse
belegt
1557
settentrionale
densitat
##voda
Galatasaray
##SL
Bock
Kalifornia
nuwe
##brir
duet
caccia
sitye
Salazar
##enland
dini
Andrej
Basket
handen
Kathleen
##katzen
libero
##mburg
##ktig
benar
Regierungsbezirk
czego
derrotar
organismos
ottiene
uusi
PHP
technologie
mann
strategic
blijven
meyor
##erto
Cent
wings
Truman
elleni
##veri
Komisji
tekshirilgan
teorie
turkumidagi
##mii
Defensa
carattere
componentes
ruang
Journalist
Bone
caps
chasse
Australasian
besoek
##listen
##bom
##handlung
Padang
Pia
governments
conocimiento
vieux
Ferdinando
Marines
proveniente
##eat
Direct
##reiben
##rif
##nahmen
enjoyed
006
muerto
geschrieben
Dell
##genes
1512
##udio
711
outer
varje
colonna
compositions
##PA
603
##goed
Szene
gigante
Wedding
##ssement
Highland
escapar
832
mengatakan
hoog
skip
##boj
creare
##zkiej
jewografik
novada
Gericht
##auta
puisque
Vosges
##wanej
palace
dobila
Cara
Harta
Xu
Plateau
Emile
raid
##mbina
1186
Elton
MR
Goa
mechanical
pm
regioni
##fels
vojno
##dane
obyektlari
Senere
grades
##lys
maschile
Maps
stranice
1490
Elemente
Nutzung
##rtes
##AR
figs
539
appartient
dong
confine
verband
##agne
kaliyan
Nous
Pioneer
Simple
nazionali
Ono
##itions
##ycznych
Pierwsze
faktor
teniendo
519
natureza
arcivescovo
KG
Housing
Zool
secoli
retail
Figuren
dret
lesquels
##SR
acteurs
debajo
escreveu
hojas
orientation
rujna
Richie
Osman
desire
pjesme
Serien
Various
##erat
geschaffen
entrant
Aquila
##jimo
##vado
Basa
ajudar
##uke
egter
##olin
##yada
Keys
vaikka
picked
Tolosa
Signal
Title
attualmente
predator
##idan
##pr
completar
##erra
613
nov
atleta
Komitetu
यागु
besitzen
mani
Johor
Mondial
Hawks
##oux
Smrti
पास
##hau
livros
berarti
seng
##ET
##prese
clearly
suspension
##vliegen
permit
##rly
1554
Frente
Freddy
Malacostraca
wybrany
Kemudian
Permendagri
धासा
##pert
blieben
Watts
fortemente
Qualifikation
##iye
charakter
Regionalliga
Chaque
podia
permission
##wissenschaften
1529
duten
##ulis
szerepel
##dana
Nicht
##ुर
dimana
opprettet
Minute
679
Leistungen
bestimmte
trouwde
politicus
celkem
titulado
avocat
##gezet
##tene
AND
Lettres
bedre
##oissa
##िले
Spitze
##ntia
Voyager
##jaa
industrialen
esi
recibir
takia
##cats
projecte
1204
Standort
##uvo
angelegt
tentativo
Rojas
personen
##yw
Mercy
688
pembangunan
locally
##aile
##zyn
golden
stranu
##ये
imali
महाराष्ट्र
druh
##vost
Francesa
1523
architetto
भने
studier
wapen
besondere
paras
Gottlieb
komputer
Revolutionary
Jocs
##dlichen
ofiziala
Clive
Tomo
rum
sir
Landtag
##ropa
liige
pokrajini
546
##porta
##zlich
betydning
Frey
667
voies
Poe
Ruotsin
neutral
##tants
1126
Castell
afkomstig
Pen
schedule
##ngar
##ikal
Aber
fictional
trabalhos
dannet
##istent
##nikov
Franck
Cologne
##meni
##ogique
##mul
Todas
tou
##uksi
autorem
contested
ranks
##onato
autonoma
effets
characterized
Mehmed
567
amplia
Celui
mond
verloor
obliku
ascenso
slot
##istique
Ursula
##vici
ITF
mnoha
देशान्तर
609
befolkningen
druhy
integrantes
codes
Romagna
zion
##jama
Observer
##medalje
Choi
teatru
##tuur
Mendes
Natura
voire
##tvu
wedding
hadi
##dali
Kristus
Reformation
SL
encima
##graben
brit
estreia
Kuzey
pati
##athlon
tud
artigo
mitte
Bagdad
utilizados
superiores
traded
editions
abbia
##chio
handling
Eugenia
realitzar
##ntemente
descent
Daddy
Ren
Delgado
montes
viewers
Selle
##lett
##ाची
1579
Tristan
1533
andata
fonde
Cotton
##sigen
LOVE
##ुल
Terengganu
Amiens
Wi
##how
Rabbi
cartas
##nchi
habakabaka
##kraft
omfatter
Teilnehmer
mama
Nazwa
napr
lesz
##liano
Belgisch
##ंद
Brigitte
leaf
Pocket
collecte
Maurizio
krijgt
grey
##wies
beri
maanden
claiming
Portuguesa
retirar
##ference
hommage
pouvait
##ruh
scientifiques
viac
497
##voll
Ribeiro
Prison
pianoforte
verkocht
Lois
resp
##kud
##mol
bleu
##mian
aceste
hur
prawo
cash
Boulogne
rzeki
##ndum
##ovalo
yhtye
Auswahl
##schloss
Bees
clock
situations
poemas
##ugat
नगर
risque
Judas
##SSR
yeren
##neksi
compare
Prefecture
mich
olimpijskich
##ziano
joita
marco
toiminut
##fero
##mper
energije
##pulsion
##वार
upravno
verze
628
Henning
Medaille
##uco
USSR
Workers
grens
##NI
विश्वविद्यालय
##र्ड
usaha
##lena
##yoshi
gedurende
##znym
trao
##pja
saksa
##ically
##fabrik
##nkas
meninggalkan
Onthophagus
Prva
##RC
##aigh
Aarhus
##hrlich
Linn
practical
devenue
excentricidade
Expo
##matan
Gomez
kjeldene
##enten
emperor
mintegy
596
Christensen
obu
salto
Liszt
Zhao
Beziehungen
Charleston
Description
##sim
errichtete
705
##ION
##xic
Graves
jove
tiba
incarico
Architekt
crown
displayed
papier
encuentro
latere
synem
##chid
Isidro
aimed
##oop
Miracle
##iformes
Aug
##uttaa
velika
##ficaciones
ossia
explosion
vecchio
entinen
व्यक्ति
Perez
Lliga
obitelji
Yusuf
teksten
intero
##zika
oppose
KC
nauk
Solid
produk
माना
concerning
##lme
esiste
restoration
oggetti
serem
##schutz
Sunda
नांजागु
Bester
Wanderers
Bains
Festa
Sv
charity
##mio
Emery
Siberia
##egos
Sturm
##ault
inverno
provinciale
tecnico
##dena
Tottenham
annum
installe
saada
tun
Brill
hopeaa
povijesti
##reko
Embora
Petri
Trial
romain
##graphe
Hercules
Ready
options
##nettiin
municipalitat
##रिक
soltanto
##umes
Babylon
corta
##eche
enzyme
##orem
##str
ginbahin
shopping
Antonia
Squad
Files
##laste
chiese
douze
##uria
hawwe
swimming
##gr
Bland
Erika
##jeru
piani
787
kaarten
##vec
IK
tol
1528
implementation
Gestapo
##cionar
tron
##seda
##ेर
Cumhuriyeti
UP
Dwight
albumi
uncredited
##vate
Bernardino
##cenia
##ught
##jeve
##zial
##kry
servant
##sif
##zaam
panas
bosques
Castelo
##anska
Gebiete
##ntang
Adriano
regnes
##zei
Biller
Turun
smrt
##print
richting
Bohemia
toppen
##NB
Mosca
Pohl
costruita
975
assisted
veoma
1420
Schubert
svibnja
jedes
hl
##heder
asina
raio
##ानी
##wys
tool
##kojen
svijeta
##tium
Norris
##rnen
1150
1537
viisi
militer
599
Midden
moja
mara
tiro
##pena
pueblu
exposed
increases
mestadels
##ringer
cave
Swing
##ेत
ST
chegar
##typ
Schltr
productes
competizione
Paus
ordet
nacque
Hilton
hardcore
##rnia
gelten
Tango
nek
doctrine
Darren
Naast
Tode
##vodu
Letras
Adolphe
berlaku
povo
कहते
##MS
actuar
Franciae
dakek
rapporti
Kader
johon
sentenced
stacji
Werken
legislative
Mika
##landse
##tania
Minden
##tya
margin
ketinggian
Musica
diketahui
##24
JA
carrier
juge
jedem
Imam
throne
Marte
mixing
असून
prvenstvo
##sata
Sent
##dowa
757
Sessions
Akira
advice
integrada
Ouro
pubblicazione
##hane
titulu
Flowers
##site
Archer
Chrysler
atque
diecezji
##uy
Cha
severu
ouvre
simbol
SpeciesFile
dk
##rire
586
##ellement
##veen
Deborah
suele
fundar
regreso
1440
Kaunas
linie
trente
##vall
bleiben
##udeksi
kyrkan
membrane
##arne
547
Wyatt
##lady
##sfield
##xis
##quis
##thi
Suffolk
Fuji
possibility
americanos
mantiene
rast
##jeta
##kui
Pinus
##बाट
oppgav
rispettivamente
ytan
Carrie
destacan
##tah
pantai
musikk
Sleep
##hil
Tunis
verlegt
hispanos
rzecz
tidlig
tashkil
##nded
##oosten
Souza
##qu
Daarna
senador
##iaeth
annere
##duje
##pping
vojni
presidencia
publicly
##messe
Batista
rotation
595
##avan
Iceland
##veni
orgel
anca
सी
ganske
##ctie
volledig
Grafschaft
##्रम
684
jedinjenje
opponent
kulture
tildelt
##lih
assurer
dessous
##iba
Kitty
##ising
##pec
Boat
ker
slekten
Hautes
##ividad
UCD
##nose
Holm
Vilhelm
oficina
Senado
tedeschi
terminou
civilian
Pest
vertrat
nagara
reconocimiento
Phys
catro
Wydawnictwo
elektron
Egipto
dientro
##IF
569
Anwendung
Rocks
modernes
marcu
Grammar
teatral
Niemcy
##amp
##reda
10000
Tem
igra
pouvant
consul
##ciou
##gaard
cello
Feld
ikan
549
facilmente
ontwerp
Caribe
##nati
researchers
Denise
instalaciones
Grupa
defending
enviado
nifer
Proto
Mojo
stava
##gali
##rije
##hri
इसमें
alus
साल
##rap
##unas
professionals
kegiatan
940
alkalommal
DNS
##kalla
##nke
zunehmend
##niczej
##barkeit
plates
Neptune
##ienda
hendes
Rodney
pinturas
##hong
conoscenza
televisi
estudiant
##crizione
plena
aile
tenta
701
##डे
pratica
##ेक
massacre
AVN
Fusion
rising
641
sastoji
bell
europeos
##hawks
Juara
##zustellen
famiglie
##ziehen
pasaulio
orientalis
##czka
Olmoniyaning
shoot
##chend
Okinawa
##iges
##xica
##liggende
Durchmesser
Iglesias
Gotha
fiecare
spille
##vasi
sistemes
merger
sezonunda
##juje
##ariu
##istisk
flor
Rudy
##usen
cenu
cz
##lii
mantenir
##verket
conciertos
Disease
jardin
ministru
traverse
Sede
Naciones
Architektur
जाति
Ljubljani
rode
subsidiary
##owskiego
perto
anadan
##kaz
##nah
spesielt
printing
doua
youtube
##zii
ulice
facciata
franska
betyder
Filho
Premiere
काही
outstanding
reportedly
zweimal
Zambia
universiteit
BWV
passion
##ppu
##vari
Sistem
mesa
Lowe
Dora
Voices
involves
Inspector
objek
religiosos
besser
Alpen
624
Matti
##pier
partially
realizadas
Tipula
toi
Senna
##tedra
##zahl
Katharina
daarop
nasce
##eath
##vim
prawie
GSM
##cutivo
##midae
Gaetano
Herausgeber
kemendagri
Nato
asks
Desmond
hita
##ckel
attitude
Ova
licensed
Dickinson
##thy
##gement
M1
bear
##erar
675
##19
##ificio
##zzioni
Dogs
616
bassa
##kut
Pedersen
##welt
densidat
##tamaan
einfach
utilizzo
##्टर
##ivar
##ticas
Figur
Roque
trials
##bewegung
muzeum
tenido
Ardennes
andro
##vens
Kepala
##messa
significance
##okon
##uter
Filipina
Focus
mieste
##kreuz
1539
636
convierte
##isha
Goya
Sergeant
aperto
daran
webgunea
##skapet
lipnja
Cromwell
##retta
Dua
attorney
implica
Struktur
negativa
ganado
554
yngre
inclinaison
Zoran
minority
890
##uaire
pictures
weapon
##न्छ
##toren
Claudius
Fryske
misura
##llia
hoofdstad
Ameerika
origini
potencia
Bernstein
fresh
alas
Landschaft
circumstances
belonging
##vieron
Scale
##toni
photographs
relocated
yapan
MK
organised
tenure
Cars
Fragen
menurut
##nky
671
ciutats
Exposition
Task
happy
Clement
CONCACAF
Pack
Apertura
dniach
Gonzaga
mezcla
diseases
##gaben
attending
keras
Heilige
kinesiska
Pamplona
ons
Isopoda
ostali
गर्न
AMD
Stranger
celebrar
positiva
Albanian
tape
##code
Barney
##oq
Irlande
##fait
coda
cuore
##pecies
Michelangelo
##dania
unidade
##imus
plural
##tancia
Cuenca
acre
##loga
munisipalidad
##yonu
Dadurch
##usia
##nimi
##सन
008
Johr
circle
Amour
Coccoidea
Kementerian
##ोली
Kini
रूपमा
##imas
sahiptir
##sons
ceased
ocorre
kategorie
kode
andare
Giulia
##fano
diens
petita
tradisional
Haas
##grave
##ारा
Europie
contenido
saxophone
kvinnor
Evidence
tusken
##biy
##duction
Madeira
##iis
Barrio
Selv
espera
durata
imperador
rojo
##ौर
oosten
Calcutta
zemi
##erea
framework
##shof
Buna
micro
tanaman
trust
Arxentina
Dijon
##dering
czasem
benutzt
ovo
##miseen
ingin
plak
##plin
##maja
Monkey
Ordine
savann
Sunset
casou
oz
##ished
budowy
##hod
##rinde
provenienti
##mski
Idee
spaces
vivant
Skopje
Romain
Stellung
gute
wujud
runde
##तम
##gging
Rebel
साक्षरता
##pland
Rootsi
uransa
##viser
##guna
piedi
Additional
menuju
##duct
##में
comedia
##jave
SFR
##dce
##gini
toun
Hongrie
utilizzata
Bulls
deployed
gestione
##glie
Stephens
unan
Belo
establecer
keleti
Deal
njegovih
Altri
fee
##tration
Vatican
limites
rozwoju
keluar
##mei
##holder
Estland
touring
casamento
universitaire
Sounds
##cenie
kostela
##wienia
1940s
##istisch
558
closer
universidad
Breaking
Regionen
##खी
Zimmer
Gabon
artillerie
##inek
##orme
pareja
Actualment
Pauli
1532
Dracula
##gido
Enemy
prace
Locke
Hampson
drivers
svojo
वर्षा
1538
universe
##sp
Viene
Habana
laisse
accurate
apartment
legno
593
Pavia
ZDA
isolated
traf
Algeriet
##tae
Tagen
##messo
Ordnung
clave
##tario
polnischen
esterno
ganzen
significado
Role
implemented
sada
accesso
Machado
Lyons
PubChem
risulta
##lemen
572
skrive
kana
munchos
Blog
##brik
Mikael
##ranno
alemanes
Nowa
Nusa
##czki
##vd
Olof
unterhalb
lendemain
Must
Archaeology
goude
Atenas
aufgestellt
बाहेक
lando
Rusijos
campi
##eien
svim
settlers
##satte
##DP
Laurie
##ylum
##hado
##gura
##noma
Tipulidae
cinese
spricht
##ntal
Lex
Kulon
simplemente
roda
##daje
Schumann
gauge
##kopf
bekas
falling
##katan
Freiheit
etdiyi
sami
hemen
Dion
Liberation
Francie
Arch
oftast
##pang
lye
##ण्ड
dekul
mena
##uza
Streets
gunung
consistent
Ara
##onidae
enkelt
##dotte
##ald
prebivalcev
##mosi
competencia
559
Nalazi
Salomon
Sancho
erg
##zici
Poznaniu
##quita
combustible
Hubble
nationalen
Sage
colleges
toiseksi
Baixos
ITV
Srbiji
##kio
suburb
Representative
dessin
pensar
Chronicles
sauf
osim
Divine
##neri
Raad
Therefore
erstreckt
ulici
##zane
postoje
Muller
Zukunft
Vaughan
propietaris
Rechte
mentres
Dias
arrangert
limita
##inak
568
##nec
Espainiako
beauty
biens
2n
comerciales
##GC
brillante
dum
Albumet
merchant
autonomia
internasional
ninth
profil
##व्य
cree
lois
Marocko
unir
556
1073
Lunar
द्रविड
Daughter
Narodowego
Anak
प्रति
Royale
##ogischen
Visconti
jump
householder
##fina
##rierte
perda
Marea
Sigmund
barco
handia
##type
##bbia
trend
##mientos
Bonus
Casablanca
salir
##ept
Denna
komplett
hetzelfde
Bewohner
Nichols
touch
Peggy
mestaruuden
Electronics
##otes
Bergamo
1260
##brook
Prozess
checklist
##dn
##gles
614
Dne
altare
Cartoon
Erfurt
Julai
Murat
veri
##cony
Sabine
magnetic
tension
sheet
immigration
##TM
Abbott
##ieux
fitted
##cade
dispositivo
opdracht
##ledes
Braga
एस
Rocco
recovered
freshwater
##bergen
Maple
##rter
Requiem
lua
Ambassador
maximale
ordningen
##nismo
iso639
Donovan
Tidak
NN
Randolph
##novi
organise
##tang
Teater
##hnya
Finals
Daisy
##tead
groter
lava
marks
##urde
##acija
##tjes
Nesta
1522
meridional
partits
listen
Belarus
vivre
premiera
suroeste
Ingles
irregular
Josip
##stisk
Coronel
bind
hii
##त्व
TNA
spiralna
Mihai
Poitiers
##brane
##ffin
sociais
Magazin
##dic
Anglaterra
individus
##eling
##mil
economics
##lm
##ूरु
bond
##gericht
वि
##telj
##staan
Egli
Zeichen
Syracuse
##haa
letteratura
##kuun
##pita
##rants
Vito
india
##lacht
Allgemeine
Alcuni
milles
udaljena
##mimo
TCP
infection
residiendo
Atomic
##fund
Puente
missed
qualify
taller
xan
##aty
833
##rken
santa
Networks
barang
mudah
##xon
karriere
Historiker
establishing
Sc
##cili
भारतयागु
##pice
##rnas
Quarterly
sufficient
##vremeno
lettera
Jis
pit
785
Gwillim
##ols
990
##slagen
##ezh
##esos
##ldu
Chennai
##zzare
ancho
##ritis
##liegenden
##एं
Tijekom
cf
kick
poderia
systemu
##fono
जाना
peoples
##lsk
cores
effetto
Lager
##्यात
njohur
Fuerza
Dalla
##bba
##cades
##dei
Jaguar
OP
hiri
monarca
##dniu
tartott
जिल्लाया
##्यास
##chrift
qeyd
puso
banco
Bloom
jednou
##iehen
Oviedo
Melody
vzniku
Titolo
spectacle
uri
Otra
##vili
##lao
fragments
disorder
##lenia
noko
verfasste
##jad
Ruggiero
besluit
nowy
##uell
##ggen
Witch
##eert
discussed
##stis
organo
bourg
Syst
Kedua
Phong
ranging
sounds
##mirante
Branco
626
Deutsches
perubahan
##kega
hogar
timber
masunod
voters
observar
julkaistu
Barack
fortune
##yme
politike
simili
dividida
noget
##hando
##tales
##siooni
posibilidad
batez
Studenten
Invasion
regi
##enu
##uzi
somme
pis
Russisch
reden
deb
##sgericht
srpnja
##ames
##poste
##roep
avenue
##wanego
Presidential
unincorporated
mitjana
muro
budynku
##uksessa
adar
Worcester
utviklet
##brand
eldest
Mira
loser
##etro
Steam
##lst
Cable
habla
##AD
##jaga
honorary
DD
essais
farmers
spp
##macht
savet
disponibile
functional
##skab
Eindhoven
Spelen
Tommaso
##politik
basado
zugeordnet
mpanoratra
Bit
lotta
procjeni
prvih
torn
##rnes
##veg
1180
dibangun
repair
##shaw
comprehensive
guld
pelbagai
listas
1551
nat
699
Chiang
occhi
Nello
kontrol
nang
NASCAR
##ciata
##ॉल
##phorus
Duc
Hepburn
Mintis
casado
kuasa
##familien
Kamerun
delivery
assassinat
nahezu
1549
pertamanya
655
AF
Nietzsche
vattnet
##rab
Sung
buona
flights
##metro
amihang
Kongress
predsjednik
Haji
##ioso
##rechte
Aude
Euphorbia
faoi
suitable
veteran
##TC
jina
##bele
onderfamilie
Arlunydd
maschi
pamoja
survive
ens
##ranje
Sox
gola
Kerr
ottelua
##leur
Driver
##ंच
##halte
lowest
rares
Shepherd
indie
intentar
siad
##gien
Mondadori
relativement
Naruto
##्ण
Photo
Opel
kirken
igualmente
Boyle
##fus
tornare
Wallis
kasagaran
pairs
Har
##iane
Definition
introduce
##pital
drafted
Oder
Sejak
tijela
segno
ep
podaci
presentan
##घ
interpretation
apareix
##meno
mogli
ena
favorite
Matrix
Extended
primit
exclusively
leidde
Nowym
ratings
bezeichnete
boeken
garraio
vastgesteld
##scription
##hot
Negri
cuenca
##gum
oblik
31id
qualsiasi
Messico
Surabaya
remote
Dahl
Herstellung
##ठा
pacientes
gustina
##gui
Excellence
##rny
587
hechos
##aly
Gama
raggiunto
maailman
NC
yildan
Populations
Andrade
Vereinigung
Velvet
genitori
duidelijk
Cure
##pl
sangen
dono
##OH
Comunidad
Experiment
##sible
2D
yeri
debt
palacio
##bble
##न्त
australis
2550
Zurich
hvordan
njihova
##cure
krav
##ilan
##bungan
belonged
##ृति
Metropolitana
##दार
Belt
usados
magic
clean
MP3
deputado
nowego
venceu
Ravenna
parco
Besuch
bolesti
965
Latvia
Sama
Ulm
##hauses
Salisbury
secolului
Enciclopedia
##pent
produksi
ufficialmente
##pf
samlet
##viy
Busch
aiemmin
Selby
statistical
##था
electricity
##naam
settlements
Merit
constituent
ecc
Currently
sterke
##tiny
terrestres
aastat
##culata
##uzione
1513
##culo
आधारित
##blich
manter
##igata
gap
doveva
Frysk
svemiru
Danzig
Septiyembre
##jnen
IGE
Rasmussen
interpretada
sor
##pista
##phere
Osim
conquistou
mistrzostwo
##roda
Salle
canons
##mettre
Mort
क्योंकि
kampe
Rada
dotter
Tesla
715
romane
##nelse
przede
guilty
##पूर
aim
societat
perlu
##nno
##ddy
Arm
##nee
Teknik
joten
##davo
##riek
kvinner
##nikiem
Gwales
Philosophical
mittlerweile
mura
travailler
##wit
diede
iniciou
Liz
ABS
Circumstances
Tokugawa
inferiores
##bauen
Oktubre
Protestant
ofrece
spatial
##zena
1501
soa
##siert
##ricos
##tait
Confederate
monastery
952
Rot
skupaj
fatti
Palestinian
exercise
mesos
##natural
tivo
wrong
##tual
serije
espanyola
locuitorilor
barzh
kahden
wollen
##bten
Villiers
tele
Molecules
jutott
nowe
lie
liaison
Bourg
634
Billie
Gerd
Venedig
wearing
617
criar
array
branco
Segona
kt
##ttet
bandes
Surface
elegans
portada
##onic
Laws
judges
ramo
##bers
##malla
Montage
Biodiversity
hori
changement
aceasta
organic
##pine
connecting
dimulai
##rijos
tantu
verkaufte
##tande
##enko
Tempel
instrumento
metodo
##yler
MLS
speler
decidiu
APG
slaves
##elar
familiares
withdrew
etablert
geld
marche
अध्ययन
Numbered
##vaja
etgan
meydana
aw
##chon
Gloucester
##vanie
conventional
decides
##gium
Hispania
Nolan
Dessa
torres
edib
necesidad
611
penggunaan
##ljeni
##mah
##ukset
C2
menemukan
##xan
##vaux
equips
Democrats
Astragalus
Youtube
Amelia
Mixed
##nadi
thinking
besoin
##tierte
##viti
kjend
##ingly
थनया
Throughout
Flynn
modelli
vilka
##ccions
Emergency
prac
precisamente
bouw
tabla
##rema
varten
waarschijnlijk
Nicholson
ilikuwa
vik
ef
bag
Brent
Kashmir
kunnes
पिहांवगु
Francuskoj
jarak
##orten
Honolulu
##eville
treaty
##unde
Zusammen
##bben
Karena
##oper
##eyn
6667
Experimental
Europees
gresk
mencari
Friedman
##kkal
huset
troepen
FDP
aviones
blanche
##kera
commented
Abs
vorwiegend
doors
sedangkan
##ficados
##phis
birthday
posteriorment
##lke
profession
Della
Entscheidung
conflicto
Ahmet
Booth
nomen
pone
Inner
##panie
quarterback
populacional
Mighty
suelen
Garibaldi
experiments
kb
crossed
##jni
Audrey
humaine
विज्ञान
berusia
##zunehmen
Setembro
##tivu
Pt
annuellement
Naomi
Shu
arrangements
milik
Tussen
byggdes
devlet
oncle
autoridad
Junioren
jedne
Perugia
973
Nordic
ilman
cylinder
arbeid
##dnych
Cumberland
huwelijk
Walton
1504
577
##iella
Togo
##zzati
##rischen
Ala
Sidi
##zus
radiation
Trento
illness
Raj
591
soldater
factores
operasi
kaam
definir
##dela
##eding
Namnet
##हा
##layan
familiars
perin
geb
censimento
blivit
desert
यानातःगु
##sches
comparison
##oden
cooperation
effectue
sequences
Savezni
##lights
zakresie
crkve
viens
portraits
trail
##ांत
Goldberg
vliegensoort
abandon
pertamo
629
Wish
initiated
Lakers
chefe
##stem
Wojska
NA
comida
finst
##arias
##eves
##skola
aurie
slutt
fled
kabupaten
##rstwa
##ators
Sailor
##nque
Parteien
##tuan
##irat
musulmans
seitdem
Autobahn
##ruption
##ject
Qua
##aye
##itee
##waniu
alakult
riding
bedste
communiste
styczniu
##nischer
##sesta
1505
622
departmanu
printemps
##ranta
eige
filozof
manufactured
Salerno
##rust
RI
focuses
membaca
reaches
1546
##inia
##ukogu
conocidos
##hde
##jur
talks
switch
produtor
Njegov
starp
606
Harriet
Metallica
##uia
Elbe
Vogue
Ah
rebel
depan
soldat
notevole
mengikuti
Unicode
tratamiento
621
aereo
veu
Futures
Initially
##bral
oferta
##kunst
estatuan
Halloween
corriente
prvom
variedad
regulations
objekt
नामक
verstarb
participer
Gap
nagrade
##toja
##baret
##kce
knjige
ontstond
##misch
conflitto
##icis
Bahrain
Cervantes
exposure
strumenti
fala
travnja
Chamberlain
##imate
##kawa
precisa
Isa
##bord
##nstava
Orten
antigos
Crane
fent
##inet
##rala
Mokslo
Pasir
bleek
cemetery
partecipazione
Steele
dialect
fases
vuodelta
##wicklung
1494
Dann
1380
ingressos
Lover
korda
bars
##ezet
dagar
stoff
lados
republika
##tist
kraft
##धील
rasmi
714
##utatud
evitare
Rescue
##urne
Arnaud
##egi
##roi
##ड़े
##acia
Gogh
##reia
Constance
##mouth
suggest
Albion
juega
##dico
Nobiyembre
gesehen
riche
##pard
##ruzione
##kling
hyd
volumen
##ymuned
Mello
##gone
selalu
kolovoza
vincitore
RT
##rley
##gula
##ुरु
##ect
Freiherr
9000
##matik
##ndu
##quiry
usia
wesentlich
Bellas
believes
peer
masjid
##building
OrthopteraSF
Smile
Kazan
664
ouverte
Ronaldo
##wanym
ej
Romanized
Weil
iyun
mua
##jskich
##racht
627
sconfitto
Ilha
bilinen
Schwerin
evidente
unten
ages
bassist
manufacturer
##lv
Everybody
Esse
##adora
elevada
ganador
kalbos
utilisant
vet
1430
Crow
##weiler
cattle
earning
Eng
Quantum
kuhusu
rector
##वारी
Yamaha
Rihanna
intensa
targets
##eds
##yba
bambino
territoriale
Rusiya
Amos
unteren
##fix
##issen
pursue
verdens
Dai
frequentemente
2616
##penses
repeated
boundaries
japonaise
Schulz
##gik
Mauritius
##pene
Nickelodeon
seeing
##kapet
##leta
Author
Gemeen
##deles
seem
baloncesto
Agostino
Properties
##anic
segundu
wojsk
alive
medaille
##csak
##rgus
Imperi
naturais
dendak
haya
##sek
stroke
tida
titik
Jl
serialu
##ingham
Walkover
##arian
griechischen
623
ruim
##vissa
jornal
answer
Nino
zi
Border
##tosa
Beschreibung
Adrien
Pflanzen
##lons
##ovich
Buda
Prairie
najmanji
Achille
Gavin
ideia
cyklu
##isiin
Killing
dyr
Gibbs
Lao
roller
normalt
scholarship
BMG
detective
housed
Resident
vissensoort
##ipe
##टर
महत्वपूर्ण
Byrne
Aguilar
aproape
trabayu
एण्ड
Hiroshima
Aten
kHz
Dexter
evil
##life
fonti
demikian
##nicu
Ludovico
jugu
##sula
##naje
##rater
ari
geplant
801
bahkan
##strecke
आफ्नो
Nippon
1370
##omes
Dichter
##lido
##culture
##okkal
dangerous
##gesloten
sisi
secured
रही
##here
मूल
jogadores
##oof
Republiek
continuo
##pils
##znam
Yorker
Alicante
##asia
Existen
##vena
quadro
eventual
hunting
beeld
sakit
##dba
##jken
566
##gert
##inya
Gian
##eringen
Thought
##losa
Sepanyol
##dista
mac
bone
danza
Hora
Abgerufen
##ndor
Daher
narrative
Diccionario
##ncu
Bridges
##nista
endroit
licentie
porter
Cicadellidae
##KO
amerikanska
##teile
Norwegen
daugiau
minimal
merah
Wahlkreis
dieren
##fal
proches
raisons
kwanza
Morocco
avviene
##lif
domaines
entschied
##lci
morti
poblaciones
##ennial
mudou
Diesel
kleur
##prava
prendere
spoorlijn
Memories
palju
Farmer
##veli
Soleil
##logischen
AAA
574
passare
spielten
##cture
storica
गावात
promedio
llibres
romantic
kampioenschap
regija
programmet
##pski
Lydia
##aian
molekulsku
##biendo
anunciou
##mosa
Lithuania
ika
##jean
##बा
Gud
##digen
Tas
creu
##aille
Jalisco
studenti
victimes
##nassa
Graduate
Italya
barcos
zela
##putat
closing
##stat
rai
##cionado
unutar
##ktur
Einar
satunya
Adriana
[...]
